/*
 * Copyright 2026 NXP
 *
 * SPDX-License-Identifier: BSD-3-Clause
 */

// 自作モデル（TerraGuard 3クラス: none/crow/human）を neutron-converter(mcxn94x)
// で NPU 変換し、tools/ml/make_model_data_h.py で SDK 枠に流し込んだもの。
// 元 op resolver スニペット（model_cifarnet_ops_npu.cpp を合わせること）:
/*
// Register operators for TFLite Micro.
static tflite::MicroMutableOpResolver<3> s_microOpResolver;
s_microOpResolver.AddSoftmax();
s_microOpResolver.AddSlice();
s_microOpResolver.AddCustom(tflite::GetString_NEUTRON_GRAPH(), tflite::Register_NEUTRON_GRAPH());
*/

#ifdef __arm__
#include <cmsis_compiler.h>
#else
#define __ALIGNED(x) __attribute__((aligned(x)))
#endif

#if defined(MCXN947_cm33_core0_SERIES)
#define __PLACEMENT __attribute__((section(".model")))
#else
#define __PLACEMENT
#endif

#define MODEL_NAME "terra_guard_crow"
// int8 入力をそのまま使う想定（前段で量子化済み）。MODEL_ConvertInput が
// (x - MEAN)/STD を行うため、恒等変換になるよう 0/1 にしておく。
#define MODEL_INPUT_MEAN 0.0f
#define MODEL_INPUT_STD 1.0f

constexpr int kTensorArenaSize = 65536;

static const uint8_t model_data[] __ALIGNED(16) __PLACEMENT = {
  0x20, 0x00, 0x00, 0x00, 0x54, 0x46, 0x4c, 0x33, 0x00, 0x00, 0x00, 0x00,
  0x00, 0x00, 0x12, 0x00, 0x1c, 0x00, 0x04, 0x00, 0x08, 0x00, 0x0c, 0x00,
  0x10, 0x00, 0x14, 0x00, 0x00, 0x00, 0x18, 0x00, 0x12, 0x00, 0x00, 0x00,
  0x03, 0x00, 0x00, 0x00, 0x74, 0x1f, 0x00, 0x00, 0x18, 0x1a, 0x00, 0x00,
  0xb0, 0x19, 0x00, 0x00, 0x50, 0x00, 0x00, 0x00, 0x04, 0x00, 0x00, 0x00,
  0x01, 0x00, 0x00, 0x00, 0x0c, 0x00, 0x00, 0x00, 0x08, 0x00, 0x0c, 0x00,
  0x04, 0x00, 0x08, 0x00, 0x08, 0x00, 0x00, 0x00, 0x08, 0x00, 0x00, 0x00,
  0x06, 0x00, 0x00, 0x00, 0x26, 0x00, 0x00, 0x00, 0x67, 0x72, 0x61, 0x70,
  0x68, 0x5f, 0x30, 0x5f, 0x6f, 0x70, 0x65, 0x72, 0x61, 0x74, 0x6f, 0x72,
  0x5f, 0x31, 0x5f, 0x4f, 0x72, 0x69, 0x67, 0x69, 0x6e, 0x61, 0x6c, 0x4e,
  0x75, 0x6d, 0x43, 0x68, 0x61, 0x6e, 0x6e, 0x65, 0x6c, 0x73, 0x00, 0x00,
  0x07, 0x00, 0x00, 0x00, 0x54, 0x19, 0x00, 0x00, 0x38, 0x19, 0x00, 0x00,
  0x14, 0x19, 0x00, 0x00, 0x30, 0x15, 0x00, 0x00, 0x2c, 0x00, 0x00, 0x00,
  0x18, 0x00, 0x00, 0x00, 0x04, 0x00, 0x00, 0x00, 0xa2, 0xe5, 0xff, 0xff,
  0x04, 0x00, 0x00, 0x00, 0x04, 0x00, 0x00, 0x00, 0x02, 0x00, 0x00, 0x00,
  0xb2, 0xe5, 0xff, 0xff, 0x04, 0x00, 0x00, 0x00, 0x01, 0x00, 0x00, 0x00,
  0x00, 0x00, 0x00, 0x00, 0xc2, 0xe5, 0xff, 0xff, 0x04, 0x00, 0x00, 0x00,
  0xf0, 0x14, 0x00, 0x00, 0x45, 0x0b, 0xf5, 0x1e, 0x52, 0x0e, 0xc5, 0x17,
  0x91, 0x03, 0x92, 0x1e, 0x60, 0x96, 0x33, 0x1e, 0x52, 0x0f, 0x95, 0x1f,
  0xd9, 0x13, 0x71, 0x1a, 0xa7, 0x96, 0x6b, 0x1f, 0xec, 0x9b, 0xae, 0x1f,
  0x71, 0x13, 0x25, 0x1e, 0x1e, 0x8e, 0xa4, 0x0f, 0x73, 0x96, 0x4a, 0x1e,
  0x3a, 0x9b, 0xd8, 0x1b, 0x7b, 0x53, 0x85, 0x53, 0x57, 0x53, 0x00, 0x53,
  0x7b, 0x53, 0xa8, 0x53, 0xa2, 0x53, 0x1b, 0x4e, 0x31, 0xdc, 0x37, 0x63,
  0x47, 0x00, 0xf5, 0xd3, 0x1a, 0x83, 0x32, 0x56, 0x6e, 0xa9, 0x31, 0x46,
  0x2d, 0xc0, 0xc0, 0x42, 0x10, 0x7f, 0xc7, 0x2b, 0x3b, 0xd1, 0xfd, 0xcf,
  0xd3, 0x2c, 0x0a, 0x6a, 0xf7, 0x9f, 0xdb, 0x4d, 0xfd, 0x6b, 0x0d, 0x40,
  0xca, 0x81, 0x44, 0x62, 0x6e, 0xfb, 0xba, 0x13, 0xde, 0x81, 0x13, 0x0b,
  0xcc, 0x27, 0xdb, 0x0b, 0xec, 0x81, 0xff, 0xdd, 0x12, 0x33, 0x14, 0x3d,
  0x44, 0x81, 0xc5, 0x2c, 0xcd, 0x73, 0xdc, 0xc0, 0xb7, 0x03, 0x33, 0x53,
  0x58, 0xd6, 0x81, 0xd4, 0x3c, 0xbf, 0xba, 0x2e, 0x40, 0x45, 0x03, 0xf7,
  0x0a, 0xea, 0xa5, 0xe8, 0xfa, 0xf5, 0x1e, 0x65, 0x48, 0x1f, 0xbe, 0x29,
  0x00, 0x26, 0x40, 0x2b, 0xf0, 0xab, 0x46, 0x46, 0x34, 0xee, 0x9b, 0xd3,
  0x04, 0xf4, 0x28, 0xe6, 0x26, 0x16, 0x3c, 0xfc, 0x10, 0xab, 0xb4, 0x2c,
  0xc5, 0xf0, 0x14, 0x22, 0xef, 0x9b, 0xf2, 0x4b, 0x24, 0x41, 0x32, 0xcf,
  0xc7, 0xaa, 0x19, 0x16, 0x5e, 0x1d, 0xfe, 0xde, 0xd7, 0x10, 0x30, 0xea,
  0x1e, 0x62, 0xf1, 0x1a, 0x2e, 0x08, 0xac, 0x21, 0x0e, 0xf5, 0xd8, 0x7f,
  0xec, 0xd9, 0x24, 0x48, 0x3a, 0x7f, 0xf6, 0xdc, 0x2b, 0xa6, 0xbb, 0x36,
  0x41, 0xba, 0x07, 0x11, 0xf6, 0xf9, 0x07, 0x0d, 0x38, 0x5a, 0xdb, 0x09,
  0x4c, 0xde, 0xa7, 0x3f, 0x06, 0x3c, 0xc4, 0x29, 0x42, 0x89, 0x3c, 0xdd,
  0xe7, 0x31, 0x10, 0x18, 0x29, 0xdd, 0x31, 0x2e, 0x2b, 0x2b, 0xd1, 0xe2,
  0x03, 0x99, 0x3a, 0xff, 0x04, 0x62, 0x3b, 0xe3, 0x39, 0x98, 0xbd, 0x58,
  0xf4, 0x38, 0xf6, 0x7c, 0x52, 0x25, 0x2a, 0xef, 0x47, 0x22, 0x23, 0xdf,
  0x0c, 0xba, 0x43, 0xc2, 0x10, 0x1c, 0xcf, 0x4c, 0xc8, 0x1a, 0xd6, 0xe7,
  0x11, 0x7d, 0xca, 0x44, 0x01, 0xe1, 0xd4, 0x46, 0x37, 0x03, 0xe7, 0x54,
  0xcf, 0xcb, 0xc5, 0xf4, 0x30, 0x08, 0x3b, 0x52, 0x41, 0xc5, 0x32, 0x35,
  0x5c, 0x04, 0x0b, 0x43, 0x46, 0xa2, 0x45, 0x52, 0xec, 0x0e, 0x3d, 0xca,
  0x3b, 0x9f, 0xf7, 0xf4, 0x19, 0x19, 0x1d, 0x60, 0x8f, 0x1e, 0x71, 0x17,
  0x71, 0x1e, 0x35, 0x1f, 0x06, 0x1e, 0xa6, 0x22, 0x74, 0x97, 0x1a, 0x1e,
  0xea, 0x92, 0x39, 0x1b, 0x40, 0x22, 0x9b, 0x17, 0x9a, 0x1b, 0x12, 0x26,
  0xaa, 0x1b, 0x24, 0x22, 0x83, 0x9e, 0xbe, 0x92, 0xa6, 0x1f, 0xdd, 0x97,
  0x2b, 0x17, 0x9d, 0x23, 0xbe, 0x1e, 0xb3, 0x1f, 0x10, 0x1a, 0xe6, 0x1e,
  0xe4, 0x1e, 0x24, 0x93, 0xd8, 0x9a, 0xa9, 0x1a, 0x08, 0x22, 0x30, 0x9b,
  0x0e, 0x1b, 0x25, 0x22, 0x08, 0x17, 0x3f, 0x9a, 0x2c, 0x9e, 0xe2, 0x1e,
  0xf2, 0x1f, 0x03, 0x9f, 0x50, 0x1a, 0xe4, 0x1e, 0xbe, 0x87, 0x8e, 0x96,
  0x96, 0x9a, 0x1f, 0x1e, 0x23, 0x1e, 0x32, 0x9b, 0x0b, 0x53, 0xc3, 0x52,
  0x79, 0x53, 0x0a, 0x4e, 0x79, 0x52, 0x78, 0x53, 0x61, 0x53, 0x05, 0x4e,
  0x17, 0x53, 0x8d, 0x52, 0xf7, 0x52, 0xf9, 0x52, 0x47, 0x53, 0xf9, 0x53,
  0x80, 0x53, 0x7d, 0x53, 0x23, 0x09, 0x11, 0x31, 0xe8, 0x58, 0xdd, 0xba,
  0x4f, 0xc0, 0x10, 0x3a, 0xe6, 0xc5, 0x0e, 0x06, 0x68, 0xca, 0xeb, 0x20,
  0xed, 0x1b, 0x06, 0x46, 0x03, 0x0d, 0x06, 0xed, 0x0f, 0xea, 0x00, 0x2d,
  0xf1, 0xf6, 0xf6, 0x04, 0xd0, 0x37, 0xdc, 0x50, 0x4d, 0xcf, 0x3c, 0x05,
  0x0b, 0xe5, 0xc9, 0xe3, 0xe6, 0x71, 0xb7, 0xca, 0x49, 0xdd, 0xfc, 0x03,
  0x62, 0x4c, 0x52, 0x41, 0x2f, 0x13, 0xef, 0xda, 0x2a, 0xb8, 0x03, 0x84,
  0xc0, 0x5b, 0xa2, 0x02, 0x46, 0xcc, 0x30, 0xc7, 0xd6, 0xe9, 0xfc, 0xcd,
  0xac, 0x75, 0x0d, 0x68, 0x6a, 0x0c, 0x26, 0xe2, 0x4a, 0xb0, 0x0a, 0xcb,
  0x37, 0xec, 0x31, 0xfd, 0xb9, 0xa4, 0xbe, 0xe0, 0xa4, 0x46, 0x19, 0xdb,
  0xfb, 0xd0, 0x7f, 0xfb, 0xf3, 0xb3, 0x00, 0xfe, 0xa0, 0xe4, 0x2e, 0x3a,
  0xca, 0xff, 0x58, 0x3d, 0xe6, 0x49, 0x4f, 0x49, 0x41, 0x0a, 0x6e, 0xdf,
  0x1d, 0x92, 0xae, 0x92, 0x2f, 0x5f, 0xf3, 0x4c, 0xd8, 0x05, 0x36, 0xfa,
  0xe0, 0xbc, 0x0f, 0xba, 0xe1, 0x0f, 0x81, 0x29, 0x45, 0x49, 0x1e, 0x5a,
  0xfb, 0x05, 0x7f, 0xe6, 0x45, 0xcc, 0x7f, 0x2a, 0x13, 0xd9, 0x02, 0x84,
  0xec, 0x48, 0xfb, 0x1d, 0x4a, 0x22, 0x5c, 0x37, 0x12, 0xb0, 0xfd, 0x07,
  0x06, 0x2e, 0x83, 0xdf, 0xd2, 0x34, 0x35, 0x65, 0xfa, 0xe8, 0x51, 0x40,
  0x26, 0xec, 0x2b, 0x1d, 0x05, 0x08, 0xe0, 0xfd, 0x2b, 0xf7, 0xed, 0xcc,
  0xf2, 0xbe, 0x13, 0x3e, 0x47, 0x03, 0xd4, 0x1b, 0x07, 0xe4, 0x49, 0xd4,
  0xc6, 0x40, 0x38, 0x59, 0x33, 0xfb, 0xd3, 0x2f, 0x0b, 0x30, 0x37, 0xf7,
  0x29, 0xed, 0xf2, 0x09, 0x33, 0x5c, 0xb6, 0xfa, 0x06, 0xda, 0x49, 0x0f,
  0x07, 0xbf, 0x0c, 0xe4, 0xac, 0x09, 0x3e, 0xe2, 0x3a, 0x58, 0xca, 0xec,
  0x26, 0xe1, 0xf2, 0xc0, 0x0d, 0x0b, 0xcf, 0x01, 0x2b, 0xdc, 0xe8, 0xc6,
  0x38, 0xc1, 0xa7, 0xf0, 0x03, 0xb3, 0x01, 0x44, 0x40, 0xf8, 0x44, 0x39,
  0xdd, 0x67, 0x10, 0xda, 0x50, 0xf9, 0x0d, 0x2d, 0x05, 0x18, 0xcf, 0xdd,
  0x40, 0xc8, 0xe0, 0xed, 0xf9, 0x1b, 0x17, 0xe3, 0xc9, 0x11, 0x81, 0x3c,
  0x2b, 0x04, 0x57, 0x19, 0x1b, 0xdf, 0x51, 0xf2, 0x54, 0x45, 0x21, 0x59,
  0xc8, 0x79, 0x05, 0x58, 0x40, 0xd1, 0x4f, 0xac, 0x48, 0xdd, 0x63, 0x09,
  0x34, 0xaa, 0x24, 0x0b, 0x31, 0xf6, 0xc1, 0x5d, 0xcf, 0x31, 0x63, 0xec,
  0x14, 0xd7, 0x35, 0xde, 0xab, 0x74, 0x9f, 0x2c, 0x01, 0x4f, 0x13, 0x60,
  0x51, 0x0b, 0xd0, 0xd8, 0x30, 0x2b, 0xfa, 0xe7, 0x0a, 0x19, 0x38, 0x3d,
  0x9c, 0x0c, 0xb7, 0x07, 0x5e, 0xe3, 0x32, 0xff, 0xfc, 0xd0, 0x7f, 0x2b,
  0xb2, 0x60, 0xa2, 0x48, 0x46, 0x7f, 0x45, 0x72, 0xde, 0xf3, 0x33, 0x3d,
  0x34, 0x13, 0x46, 0x01, 0x69, 0xc5, 0xfe, 0xff, 0xee, 0x4a, 0x4c, 0x4e,
  0x15, 0xbd, 0x2b, 0x21, 0x2d, 0x08, 0x12, 0x17, 0x6d, 0x34, 0xc7, 0xb4,
  0xc0, 0x56, 0x01, 0x3b, 0xd3, 0xef, 0xdd, 0xcb, 0x19, 0xf3, 0xde, 0x15,
  0x3b, 0xf0, 0x04, 0x00, 0x50, 0xf0, 0x17, 0x5a, 0x0d, 0x3f, 0x06, 0x49,
  0xea, 0xde, 0xe4, 0x49, 0x5d, 0x42, 0x03, 0x11, 0x3f, 0xdc, 0x21, 0x02,
  0x09, 0x3c, 0xfe, 0xdf, 0xf7, 0xdd, 0x0a, 0xfa, 0x1a, 0x04, 0x1e, 0xc5,
  0xf5, 0x35, 0x26, 0xd6, 0xd6, 0x21, 0xda, 0xf0, 0x12, 0xba, 0xf9, 0x4c,
  0xc7, 0x51, 0xb9, 0xd1, 0x02, 0x20, 0x33, 0xf3, 0xdc, 0x24, 0xfa, 0x2f,
  0x17, 0x09, 0x17, 0x17, 0x00, 0xd6, 0x7f, 0x5d, 0x23, 0x41, 0x97, 0x5f,
  0x44, 0x15, 0x18, 0xca, 0xe5, 0xdf, 0x69, 0x39, 0xf2, 0x2e, 0x8b, 0xe6,
  0x2b, 0x5b, 0xbd, 0x1b, 0x10, 0x24, 0x05, 0xf6, 0xec, 0xe3, 0x69, 0x06,
  0x13, 0x12, 0x36, 0xf0, 0xf9, 0x1a, 0xed, 0xf2, 0x00, 0xd5, 0x29, 0xd6,
  0x48, 0xfb, 0x5d, 0x31, 0xec, 0x38, 0x17, 0x62, 0x30, 0x0f, 0xc3, 0x12,
  0x52, 0x0a, 0xb1, 0xdb, 0xec, 0x3c, 0x43, 0xd9, 0xd8, 0x30, 0x60, 0x66,
  0xa7, 0xe6, 0x06, 0x6c, 0xd0, 0xdd, 0x58, 0x4d, 0x07, 0xfe, 0x31, 0x0d,
  0x14, 0x75, 0x8e, 0x4c, 0xf9, 0x22, 0xd3, 0xd5, 0xd7, 0xc9, 0xf1, 0xba,
  0x29, 0xd0, 0x13, 0xe2, 0x2c, 0x07, 0xd3, 0xf8, 0x36, 0xe1, 0x32, 0xb0,
  0xe2, 0x06, 0xe6, 0xfd, 0xc8, 0xf0, 0x0a, 0xe8, 0xc3, 0x14, 0xb1, 0xd0,
  0x3a, 0xb0, 0xd2, 0x0a, 0xf9, 0xff, 0xd8, 0xe8, 0xa8, 0xd3, 0xf0, 0x02,
  0xbd, 0x48, 0xdc, 0x23, 0x69, 0xe1, 0xbb, 0xb6, 0xf7, 0x04, 0xd2, 0xad,
  0x98, 0x44, 0x9d, 0x42, 0xf3, 0xbd, 0x3f, 0xf0, 0x4f, 0x22, 0xde, 0xfa,
  0xed, 0xad, 0x11, 0xd7, 0xf2, 0x32, 0x2f, 0xc5, 0x29, 0x4f, 0x44, 0x3d,
  0x12, 0xb3, 0x11, 0x25, 0x38, 0x2d, 0xe9, 0xc6, 0x24, 0x03, 0xc1, 0xc2,
  0xc9, 0x18, 0x0f, 0xbe, 0x19, 0xed, 0x3a, 0x29, 0xf9, 0xa0, 0x10, 0x2c,
  0x17, 0xc3, 0x4d, 0xd5, 0x03, 0x5a, 0x81, 0xd5, 0xc2, 0x2f, 0x65, 0xb3,
  0xe4, 0x21, 0x26, 0xf5, 0xaf, 0xe8, 0x0d, 0x34, 0xfe, 0xdb, 0xab, 0xf0,
  0x1a, 0x29, 0xf8, 0x1a, 0xec, 0xaf, 0x35, 0xff, 0xab, 0x0e, 0xa4, 0x10,
  0x37, 0x15, 0xed, 0xc0, 0x2a, 0xed, 0xf6, 0x6c, 0x1c, 0x8c, 0x1d, 0xc2,
  0xeb, 0x3b, 0x03, 0xf0, 0x23, 0x1f, 0x0c, 0x40, 0xd6, 0xef, 0x0b, 0x2f,
  0x1a, 0xfe, 0x43, 0x54, 0x04, 0xf6, 0xb8, 0x4a, 0x09, 0xec, 0x99, 0x4a,
  0x71, 0x18, 0x65, 0x45, 0xf5, 0x8c, 0xc4, 0x99, 0xef, 0x39, 0xc8, 0x55,
  0x45, 0x2d, 0xba, 0x2d, 0x41, 0xb9, 0x7f, 0x49, 0x25, 0xdb, 0x17, 0x3d,
  0x2f, 0xd4, 0xb7, 0xf1, 0x2e, 0x50, 0xf7, 0x55, 0xca, 0xd3, 0x21, 0xf1,
  0x20, 0x30, 0xc7, 0x13, 0x11, 0xc5, 0x2a, 0xca, 0xe4, 0xf0, 0xec, 0x06,
  0x03, 0x05, 0x38, 0x1a, 0x15, 0xf7, 0x18, 0x47, 0xe0, 0xf9, 0xaa, 0xf2,
  0x35, 0x1a, 0xf6, 0xe4, 0x71, 0x34, 0xb1, 0xee, 0x1c, 0xf6, 0x38, 0x05,
  0xd2, 0x31, 0x23, 0x4d, 0xf6, 0x31, 0x14, 0xb5, 0xd8, 0xb4, 0x16, 0xfe,
  0x5c, 0x2c, 0x30, 0x2a, 0x42, 0x32, 0x3f, 0xee, 0xd1, 0x2a, 0x29, 0xe1,
  0xe2, 0x81, 0x65, 0x26, 0x5c, 0xdc, 0xc7, 0x35, 0xb9, 0x35, 0xd5, 0x47,
  0xbe, 0x0d, 0xea, 0x19, 0x3b, 0xe6, 0x27, 0xca, 0x36, 0xc8, 0x24, 0xe8,
  0xd3, 0xbd, 0xfb, 0xef, 0xe0, 0x5d, 0xa2, 0xfe, 0x02, 0xf9, 0xfc, 0x47,
  0x45, 0x9a, 0x3f, 0x42, 0xa0, 0x28, 0xdf, 0x68, 0xcf, 0x57, 0xef, 0x0a,
  0x1b, 0xf7, 0xe7, 0x32, 0x17, 0xbe, 0x10, 0x3c, 0xb0, 0x32, 0x81, 0x3b,
  0x24, 0x27, 0x99, 0xd8, 0x69, 0x21, 0x0a, 0x1d, 0x50, 0x37, 0x17, 0xff,
  0x13, 0xf5, 0xd6, 0xf1, 0x2b, 0x04, 0xe5, 0x5a, 0x01, 0x0f, 0x32, 0xeb,
  0xea, 0xdd, 0x5d, 0x17, 0x2f, 0x48, 0xe1, 0xe5, 0xcc, 0x59, 0xcb, 0x25,
  0x67, 0x28, 0xf1, 0x3b, 0xe6, 0xbc, 0x59, 0x6d, 0xfe, 0x45, 0xd8, 0xdd,
  0xd9, 0xce, 0x81, 0x44, 0x37, 0xbb, 0x2a, 0x16, 0x48, 0xd3, 0x3e, 0x36,
  0xdb, 0x3f, 0x15, 0x3b, 0xde, 0xff, 0xc3, 0x47, 0x55, 0xb1, 0xf0, 0xd9,
  0x05, 0xbe, 0x26, 0xf7, 0xc0, 0x11, 0xb1, 0xd8, 0x09, 0xcb, 0xb6, 0xb7,
  0x35, 0xde, 0x1b, 0xd9, 0x43, 0xf8, 0xcb, 0x1a, 0xa1, 0x1d, 0x9a, 0xce,
  0x13, 0x34, 0xcf, 0xf7, 0x43, 0xff, 0x20, 0x4f, 0x14, 0x05, 0xfd, 0x11,
  0xc6, 0x38, 0xa6, 0x48, 0x43, 0xe4, 0x41, 0x15, 0x0d, 0xd0, 0x03, 0x0d,
  0x11, 0x26, 0x40, 0xeb, 0x4b, 0xd4, 0x00, 0xd3, 0x2e, 0xff, 0x15, 0x0a,
  0xc9, 0xa9, 0x5a, 0x61, 0xfd, 0xb6, 0x2a, 0xe4, 0xc1, 0x4d, 0xf2, 0x12,
  0x28, 0x2d, 0x0c, 0xcb, 0x0f, 0xc7, 0xf5, 0xf7, 0x59, 0xcd, 0xc2, 0x16,
  0x30, 0x21, 0xe0, 0xb6, 0x24, 0x62, 0xc8, 0x5d, 0x9f, 0xbf, 0xf0, 0xc4,
  0xec, 0xb9, 0x7f, 0xfa, 0x9e, 0x35, 0xa3, 0x7f, 0xe2, 0x32, 0xe1, 0xf6,
  0x12, 0x10, 0x5a, 0x20, 0x0d, 0xd1, 0x23, 0xf2, 0x8d, 0xf8, 0xc9, 0x11,
  0xbf, 0x39, 0xb2, 0xdd, 0x2f, 0x4e, 0x0e, 0x7b, 0x1c, 0xdd, 0x38, 0xce,
  0xa4, 0x48, 0xf9, 0x50, 0x17, 0xee, 0xaa, 0x3a, 0x15, 0xe8, 0x00, 0x14,
  0xda, 0x27, 0x7f, 0x54, 0x39, 0x1c, 0x16, 0x2f, 0xa6, 0x40, 0xf1, 0x16,
  0xc1, 0x52, 0x3c, 0x52, 0x2d, 0xfd, 0x6d, 0x55, 0x8d, 0x1f, 0xe3, 0x73,
  0xd8, 0xc3, 0xa2, 0x24, 0xf5, 0xc7, 0x64, 0x40, 0xf9, 0x01, 0x47, 0x47,
  0xe1, 0xd2, 0xe0, 0x0b, 0xfb, 0x1f, 0xd5, 0x1e, 0xab, 0x22, 0x19, 0x1b,
  0x08, 0x22, 0x28, 0xa2, 0x72, 0x22, 0xb7, 0x1f, 0xd4, 0x23, 0xbd, 0x22,
  0x05, 0x26, 0xa1, 0x22, 0xa9, 0x22, 0x43, 0xa2, 0xde, 0x22, 0x70, 0x23,
  0x1f, 0x23, 0x10, 0x22, 0xba, 0x22, 0xfc, 0x22, 0x8a, 0x1e, 0x94, 0x9f,
  0x04, 0x1e, 0xc5, 0x22, 0xdb, 0xa3, 0x02, 0x23, 0x27, 0x23, 0xe4, 0x1e,
  0x91, 0x1f, 0xa0, 0x22, 0x31, 0x22, 0xea, 0x1f, 0xbe, 0xa6, 0x04, 0x26,
  0xde, 0x23, 0x2d, 0x22, 0x80, 0x1f, 0x77, 0x23, 0xcd, 0x22, 0x67, 0x22,
  0xfa, 0xa2, 0x3b, 0x23, 0xf1, 0x22, 0xd0, 0x1a, 0x07, 0x1a, 0xf1, 0x1f,
  0x45, 0x1e, 0xe8, 0x1e, 0x95, 0x22, 0x24, 0x1f, 0x47, 0x23, 0x71, 0x23,
  0x6d, 0xa2, 0xe6, 0x1e, 0x2d, 0x1e, 0x14, 0x1e, 0x82, 0x23, 0x42, 0x22,
  0x1f, 0x26, 0x39, 0x26, 0x15, 0xa3, 0x83, 0x23, 0x45, 0x23, 0x07, 0x1e,
  0x8d, 0x22, 0x26, 0x1b, 0x2b, 0x23, 0x37, 0x23, 0xa9, 0x9e, 0x94, 0x23,
  0x4b, 0x22, 0x47, 0x16, 0x7f, 0x53, 0x65, 0x53, 0x8a, 0x4e, 0x82, 0x4e,
  0xe0, 0x53, 0x00, 0x52, 0x63, 0x53, 0x2e, 0x4e, 0xfb, 0x4e, 0x13, 0x4e,
  0x82, 0x4e, 0xd4, 0x53, 0x92, 0x53, 0xf6, 0x53, 0xf6, 0x53, 0xf2, 0x53,
  0x26, 0x4e, 0x09, 0x4e, 0x69, 0x4e, 0x1f, 0x4e, 0x40, 0x52, 0xb4, 0x4e,
  0xf1, 0x53, 0x0e, 0x4e, 0x40, 0x0a, 0x60, 0xfc, 0x3b, 0x23, 0xf9, 0x33,
  0xf4, 0xf2, 0x42, 0x69, 0x40, 0xed, 0x40, 0x2c, 0x16, 0x65, 0xf5, 0xe3,
  0xd5, 0xce, 0x05, 0xae, 0x39, 0xe9, 0x04, 0xe3, 0x4d, 0xd9, 0x36, 0x6d,
  0x12, 0xc0, 0x5b, 0x5f, 0x3b, 0xec, 0x49, 0x39, 0x27, 0x16, 0x1d, 0x4d,
  0x57, 0xc4, 0x0a, 0x47, 0xc1, 0x51, 0xda, 0xb0, 0x55, 0x84, 0xbe, 0xae,
  0xf2, 0x27, 0xba, 0xc4, 0x69, 0xcd, 0x33, 0x49, 0x7f, 0xf7, 0xee, 0x10,
  0x60, 0xc6, 0x5d, 0x2d, 0x79, 0xba, 0xf2, 0x7d, 0x45, 0xef, 0xf6, 0x7f,
  0xd1, 0x43, 0xcc, 0xa1, 0xdd, 0xc4, 0xc8, 0x18, 0xdf, 0x2f, 0xb9, 0xfe,
  0x5f, 0x02, 0x34, 0x4a, 0x20, 0x46, 0x26, 0x3f, 0xba, 0xe0, 0xf7, 0x47,
  0xd3, 0x15, 0x20, 0x34, 0xff, 0xe9, 0xed, 0x45, 0x2b, 0x36, 0x17, 0x13,
  0x10, 0x2c, 0x4d, 0xb4, 0x47, 0x0b, 0x3b, 0xba, 0xfd, 0x15, 0x0b, 0x11,
  0xa6, 0x18, 0x0a, 0x71, 0x17, 0xc6, 0x14, 0xfb, 0xfc, 0x12, 0x60, 0x0b,
  0xd3, 0x20, 0xea, 0x16, 0x27, 0x18, 0x15, 0xd9, 0x3f, 0xc3, 0x2d, 0x3d,
  0xfa, 0x0b, 0xe1, 0x03, 0xe5, 0x0a, 0x29, 0x16, 0xad, 0xe2, 0x57, 0x46,
  0x04, 0x0e, 0x65, 0x23, 0xc5, 0xd7, 0xff, 0x44, 0xde, 0x26, 0x02, 0x5a,
  0x04, 0xf1, 0x97, 0xa6, 0x59, 0x5e, 0x2d, 0xd0, 0x35, 0x23, 0xac, 0x92,
  0xe3, 0xda, 0x37, 0x33, 0xd1, 0x32, 0x67, 0xfc, 0x05, 0xff, 0x72, 0xde,
  0xe7, 0x25, 0x29, 0xc7, 0x0e, 0x24, 0x3f, 0xcd, 0x35, 0x1a, 0xc3, 0x28,
  0x5a, 0x25, 0x4c, 0xcc, 0x2d, 0x07, 0xce, 0x6c, 0xd8, 0x35, 0x23, 0x0c,
  0x1d, 0x34, 0x26, 0x00, 0xea, 0x1e, 0x29, 0xa9, 0x03, 0xf9, 0x54, 0xed,
  0xef, 0xea, 0x58, 0x18, 0xe3, 0x1b, 0xff, 0x7f, 0xd6, 0xfc, 0x69, 0x4a,
  0xe9, 0x3f, 0x9d, 0x2c, 0xc4, 0x20, 0x67, 0x9e, 0xc8, 0x13, 0x71, 0xd9,
  0xe8, 0x22, 0x4a, 0xf6, 0xbd, 0x04, 0x7f, 0xac, 0xf4, 0x41, 0x18, 0xe8,
  0x2f, 0xbb, 0xb0, 0x78, 0x07, 0x01, 0x54, 0x05, 0x55, 0xd1, 0x98, 0x62,
  0xdc, 0xfc, 0x74, 0xce, 0xe7, 0x3b, 0xe5, 0xae, 0xa7, 0x35, 0x11, 0xc3,
  0xa3, 0x38, 0x25, 0xab, 0xc0, 0x39, 0xff, 0xdb, 0x43, 0xd4, 0xca, 0x6a,
  0x00, 0xb4, 0xcb, 0xf7, 0x69, 0xc3, 0xe8, 0x67, 0xb2, 0x02, 0x44, 0xa7,
  0xb7, 0x28, 0x3b, 0xa6, 0xa1, 0x51, 0xf3, 0xb8, 0xfa, 0x10, 0x16, 0xd8,
  0x1c, 0x17, 0x3c, 0xc8, 0x27, 0x0a, 0x2d, 0x7c, 0xb3, 0x10, 0xa2, 0xdf,
  0x1e, 0xdd, 0xf9, 0x68, 0xb3, 0xff, 0x1b, 0xe1, 0x01, 0x5b, 0x59, 0xaa,
  0x36, 0x59, 0x10, 0x00, 0x41, 0xf5, 0x2b, 0x27, 0x3a, 0x39, 0x0d, 0x55,
  0x24, 0xc9, 0xd4, 0x3b, 0x22, 0xa0, 0x32, 0x26, 0x24, 0xec, 0x0d, 0x3b,
  0x3c, 0x03, 0x65, 0x1c, 0x28, 0x03, 0xec, 0x72, 0x02, 0xd9, 0xe8, 0x0a,
  0x02, 0x0c, 0x0b, 0x1d, 0x42, 0x10, 0x37, 0x43, 0x0f, 0x1c, 0xcf, 0xf0,
  0xf7, 0xf6, 0x33, 0x72, 0xb6, 0x69, 0xad, 0x06, 0x17, 0xe1, 0xf9, 0x16,
  0x5d, 0x26, 0xfb, 0x0f, 0x27, 0x38, 0x48, 0x41, 0x39, 0xd8, 0x07, 0x62,
  0x5c, 0xfa, 0x00, 0x39, 0x9b, 0xe8, 0x13, 0xfb, 0x65, 0xd0, 0xb4, 0xc2,
  0xd7, 0xe0, 0x06, 0xef, 0x6a, 0x08, 0x2c, 0x18, 0x37, 0x29, 0x23, 0x08,
  0x34, 0xd1, 0x16, 0x67, 0x50, 0xdb, 0x2d, 0x72, 0x27, 0xd1, 0x35, 0x22,
  0x9c, 0x33, 0x23, 0xf7, 0xda, 0x0f, 0x1b, 0xa7, 0xd0, 0x2b, 0xc3, 0xb3,
  0x7f, 0xce, 0x13, 0x2f, 0xe4, 0xdd, 0xff, 0xf6, 0x32, 0x38, 0xc9, 0x00,
  0xf9, 0x08, 0xe2, 0x01, 0xd4, 0xe8, 0xfb, 0x0d, 0x39, 0xfd, 0x24, 0xf7,
  0x16, 0xa9, 0x2c, 0xb5, 0x33, 0x3c, 0x4e, 0x02, 0x15, 0xd6, 0x15, 0x49,
  0x20, 0x1b, 0x31, 0x5e, 0x07, 0x45, 0xfe, 0x37, 0x0c, 0xe7, 0x5e, 0x18,
  0x21, 0x2c, 0xf1, 0x2a, 0x1a, 0x08, 0xfe, 0xab, 0xbf, 0xb1, 0xa0, 0xc5,
  0x1e, 0x0c, 0x15, 0x01, 0x04, 0xf2, 0x07, 0x05, 0xee, 0x27, 0x60, 0x6b,
  0xe5, 0x01, 0x31, 0x3b, 0x10, 0x0c, 0x18, 0x0b, 0xbf, 0xf9, 0x28, 0x4e,
  0x4a, 0xdb, 0xaa, 0xf5, 0xd7, 0x99, 0xe8, 0x09, 0x16, 0x24, 0xb5, 0x9b,
  0xf2, 0x12, 0x63, 0x2a, 0x26, 0xe4, 0x4d, 0xe4, 0xe1, 0x39, 0x05, 0xfb,
  0x1d, 0xdd, 0x55, 0xd5, 0xdd, 0xef, 0x40, 0x13, 0x4b, 0x30, 0xd5, 0x2b,
  0x20, 0xa8, 0x2f, 0x9c, 0xf8, 0xf5, 0xfe, 0x7f, 0xef, 0xf3, 0x3a, 0xee,
  0xd0, 0x0b, 0x1b, 0xfb, 0xe0, 0xc4, 0x70, 0xb7, 0xdc, 0xfe, 0x20, 0xdd,
  0xd2, 0xfb, 0x15, 0x25, 0x4d, 0x3c, 0x06, 0x63, 0x47, 0x64, 0xab, 0x51,
  0x1b, 0xd5, 0xa0, 0x62, 0xed, 0x24, 0x1a, 0xb7, 0xce, 0x18, 0x1b, 0xda,
  0xfa, 0xf2, 0x43, 0xdd, 0xbd, 0x49, 0x5c, 0xfc, 0xe8, 0x16, 0x38, 0xe3,
  0x1e, 0xd9, 0xb1, 0x34, 0x1b, 0xf0, 0x14, 0x97, 0xe7, 0xe9, 0xe5, 0x39,
  0xc4, 0x33, 0x6a, 0x02, 0xd4, 0xfa, 0xec, 0x93, 0xdc, 0xfa, 0x4c, 0x90,
  0xe6, 0x1c, 0x38, 0xca, 0xd0, 0x37, 0xef, 0x06, 0x1b, 0xf3, 0x1f, 0x21,
  0xe3, 0xfb, 0x23, 0x8f, 0x20, 0x2e, 0xca, 0x60, 0xd4, 0xf5, 0x38, 0xda,
  0xe7, 0xec, 0x2c, 0xd6, 0x91, 0x3e, 0xdd, 0xdb, 0xbc, 0x11, 0x41, 0xe9,
  0xe3, 0xfb, 0x2f, 0xcf, 0x23, 0x21, 0x04, 0x2d, 0x48, 0xcb, 0xfc, 0xfe,
  0x37, 0x08, 0x38, 0x4f, 0xf6, 0x3c, 0x14, 0x9d, 0xee, 0x3a, 0x1a, 0x26,
  0xfa, 0x0e, 0x23, 0xe9, 0xf0, 0x19, 0x4c, 0x07, 0xfd, 0x1f, 0xff, 0x0c,
  0x0e, 0xe3, 0xe3, 0x22, 0x3a, 0x91, 0x88, 0x07, 0x0e, 0x11, 0xa1, 0x6a,
  0xf0, 0x1f, 0x0e, 0x10, 0x58, 0xa7, 0x46, 0x1f, 0x63, 0x15, 0x40, 0x02,
  0x15, 0xd9, 0x17, 0x50, 0x19, 0x24, 0x14, 0x52, 0xf6, 0x41, 0x28, 0x19,
  0x67, 0x98, 0x2a, 0x52, 0x1a, 0x4e, 0x34, 0x98, 0x5c, 0x1c, 0x16, 0x38,
  0x2d, 0x26, 0x2c, 0xfe, 0x33, 0xbc, 0xf3, 0x30, 0x3f, 0xda, 0x1e, 0x59,
  0x34, 0xe6, 0xe9, 0x4a, 0xec, 0x3a, 0x1d, 0x12, 0x93, 0x84, 0xa5, 0x3d,
  0xf2, 0x2e, 0x39, 0xbc, 0x4c, 0xbb, 0xea, 0x33, 0x32, 0xbb, 0xfe, 0x4f,
  0x2d, 0x08, 0x0a, 0x4b, 0x57, 0x1b, 0x03, 0x3b, 0xee, 0xf6, 0xff, 0xe8,
  0x93, 0x50, 0xdb, 0xdc, 0x00, 0x28, 0x4e, 0x9b, 0xf7, 0x58, 0x18, 0xc1,
  0x30, 0xf1, 0x35, 0x03, 0x1f, 0x3c, 0x1b, 0x0e, 0x04, 0x3c, 0x49, 0x43,
  0x10, 0xe1, 0x28, 0x0c, 0xfe, 0x09, 0x02, 0x2e, 0x58, 0x01, 0x21, 0xf6,
  0xa9, 0x58, 0x29, 0xd0, 0x5c, 0x3e, 0xd2, 0x17, 0x14, 0x14, 0xe6, 0x16,
  0xe4, 0xe0, 0xfc, 0xec, 0xde, 0x3d, 0x26, 0x60, 0xf8, 0xfc, 0x04, 0xfc,
  0xfe, 0xff, 0xff, 0x07, 0x39, 0xfb, 0xbf, 0xcd, 0x8f, 0x94, 0x35, 0x8c,
  0xe6, 0x18, 0xe3, 0xcd, 0xe2, 0x27, 0x06, 0xef, 0xb2, 0x09, 0x36, 0x3d,
  0x35, 0x34, 0x64, 0x44, 0xe7, 0x17, 0x4d, 0x10, 0x21, 0x0d, 0x19, 0xf3,
  0x24, 0x23, 0xc4, 0xdf, 0x26, 0x0d, 0xa1, 0x18, 0x3e, 0x05, 0xf3, 0x01,
  0xd7, 0x1c, 0x5c, 0x36, 0x1f, 0x0b, 0x3a, 0xae, 0x01, 0xeb, 0x01, 0x8e,
  0x29, 0x16, 0x45, 0xb2, 0xe9, 0xf1, 0xf9, 0xf4, 0x13, 0x08, 0xe5, 0x71,
  0xf3, 0x50, 0x0e, 0x39, 0x41, 0xf0, 0xc0, 0x2c, 0xe4, 0xe8, 0x34, 0xdd,
  0xe1, 0xda, 0x29, 0xdb, 0xe9, 0xca, 0xeb, 0x01, 0x07, 0xf4, 0x4e, 0xc8,
  0xdc, 0xe5, 0x1d, 0xf9, 0xf8, 0xf5, 0xd9, 0x49, 0x81, 0x63, 0x45, 0xa4,
  0x1b, 0xe0, 0x19, 0x5f, 0x22, 0x35, 0x03, 0xbe, 0x1e, 0x1f, 0x21, 0x01,
  0xd4, 0xdc, 0x4c, 0x92, 0x0a, 0x47, 0x47, 0xd9, 0xd7, 0xd3, 0xf4, 0x1b,
  0x2b, 0xe3, 0xeb, 0x62, 0x53, 0xe2, 0x58, 0x66, 0x3d, 0x08, 0xd5, 0x38,
  0xe5, 0xe9, 0xee, 0x03, 0xf4, 0x1a, 0x2c, 0xdd, 0x0b, 0xf4, 0xcb, 0xcd,
  0xbe, 0xf7, 0x34, 0xed, 0xc1, 0x05, 0x24, 0xb7, 0x2b, 0x0f, 0xfc, 0x3f,
  0x56, 0xb0, 0xaa, 0x39, 0x38, 0x33, 0x16, 0x75, 0xeb, 0x0c, 0x23, 0xc0,
  0x04, 0xd8, 0xda, 0xc6, 0x81, 0x29, 0x00, 0xa2, 0xc5, 0xf4, 0x24, 0xd8,
  0x0a, 0xef, 0xde, 0xf0, 0x0d, 0xe3, 0xf7, 0x75, 0x2d, 0x1a, 0xb3, 0x06,
  0x26, 0xe6, 0x39, 0x54, 0xe7, 0x25, 0xfd, 0xa2, 0x20, 0x47, 0xe1, 0xe6,
  0xa6, 0x02, 0x1d, 0x36, 0x10, 0x45, 0x23, 0xdb, 0xd7, 0xc9, 0x01, 0xbc,
  0x59, 0x3b, 0xef, 0x18, 0x93, 0x09, 0x2f, 0xc1, 0x1d, 0xd0, 0x15, 0x6d,
  0x1d, 0xfd, 0xfc, 0x1e, 0xfe, 0xe2, 0x01, 0x22, 0xe8, 0xc5, 0x4c, 0x2d,
  0x0c, 0xde, 0x4c, 0x51, 0xe5, 0xed, 0xe2, 0xcb, 0xce, 0x59, 0x27, 0x9b,
  0xef, 0x55, 0xd2, 0xb1, 0x12, 0x4a, 0xce, 0xb6, 0xdf, 0x4d, 0xc8, 0xa7,
  0xe9, 0xf0, 0xcd, 0x30, 0x76, 0xbd, 0x2c, 0x6a, 0x15, 0xe1, 0x1b, 0x4d,
  0xe1, 0x05, 0xf3, 0xe1, 0xf3, 0xea, 0x1e, 0x8c, 0xd5, 0x22, 0xe4, 0xf9,
  0xf4, 0x36, 0xed, 0xfc, 0xba, 0x3e, 0x14, 0xaa, 0x81, 0x0e, 0xdb, 0x36,
  0x67, 0x03, 0x0b, 0x40, 0x7f, 0xda, 0x23, 0x75, 0xb1, 0xfe, 0xd7, 0xeb,
  0xa7, 0x54, 0xcb, 0xc1, 0xb6, 0x5b, 0x0c, 0xf4, 0xa3, 0xfb, 0xde, 0xef,
  0xa0, 0x16, 0xaa, 0x96, 0x90, 0xbe, 0xa0, 0xed, 0xc5, 0x2e, 0xfa, 0x5c,
  0x01, 0xfb, 0x1d, 0x2a, 0x32, 0x0c, 0x19, 0xd8, 0x5b, 0x36, 0x07, 0x95,
  0xf5, 0x2b, 0xfd, 0xef, 0x21, 0x02, 0x18, 0xe2, 0x36, 0xfe, 0x26, 0xd3,
  0xfc, 0xef, 0xe5, 0xdb, 0xe6, 0xf5, 0x67, 0x24, 0xda, 0xd5, 0x05, 0x34,
  0x4f, 0xe0, 0xf8, 0x05, 0x39, 0x26, 0x0b, 0xb5, 0x32, 0xd7, 0x15, 0xb4,
  0x1f, 0x05, 0x1d, 0x21, 0x55, 0x1b, 0xfe, 0xe0, 0x2a, 0x01, 0xd8, 0x04,
  0xd1, 0x42, 0x42, 0x24, 0xc6, 0xff, 0x0b, 0x0d, 0x42, 0x26, 0x04, 0xf8,
  0xfc, 0x04, 0x9f, 0x94, 0xee, 0xe9, 0xe7, 0xe3, 0x44, 0xd6, 0xe1, 0xda,
  0x43, 0x0a, 0x97, 0xd5, 0x98, 0xe4, 0x2c, 0xd6, 0x24, 0xfd, 0x63, 0xba,
  0x0e, 0x25, 0x6f, 0xce, 0x2e, 0x43, 0xbf, 0x21, 0xd1, 0x48, 0xc6, 0x7d,
  0x32, 0xe6, 0xd5, 0x24, 0xfc, 0xf1, 0xa9, 0x74, 0xf1, 0x3d, 0xb5, 0x27,
  0x1e, 0x0e, 0xe8, 0x11, 0x14, 0xea, 0x49, 0xdc, 0xcb, 0xf7, 0x73, 0xa2,
  0x4d, 0xec, 0x13, 0x4e, 0xf8, 0x33, 0x8e, 0x75, 0x3d, 0xdd, 0xc2, 0x5f,
  0x32, 0xe7, 0xc6, 0x60, 0xfa, 0x38, 0xde, 0x73, 0x18, 0xe4, 0xd9, 0x25,
  0xda, 0xe6, 0x38, 0xe0, 0xc2, 0xf7, 0x59, 0xdf, 0x32, 0x13, 0xc8, 0x6f,
  0xe4, 0xdd, 0xa1, 0x7f, 0x47, 0xca, 0x97, 0x78, 0xda, 0xd0, 0x8e, 0x27,
  0xfc, 0xe8, 0xf3, 0x72, 0x1e, 0x13, 0x0c, 0xcf, 0x9c, 0x0a, 0x00, 0x81,
  0xe1, 0xf9, 0xf8, 0xb5, 0x0b, 0xcc, 0xf9, 0x2a, 0x3e, 0xf1, 0x16, 0x61,
  0x62, 0xf7, 0x20, 0x7f, 0x6d, 0x2d, 0x16, 0x7f, 0x4d, 0xea, 0x01, 0x79,
  0xf7, 0xc4, 0xdb, 0xf0, 0xb7, 0x18, 0xff, 0xbe, 0xdf, 0x30, 0x04, 0xc2,
  0xf9, 0x35, 0x18, 0x49, 0x11, 0xdf, 0x00, 0x2d, 0x6f, 0xf7, 0xd8, 0x7b,
  0x32, 0xd8, 0x41, 0x5f, 0x32, 0xc3, 0x17, 0x76, 0xe5, 0x08, 0xe3, 0xb9,
  0x19, 0x14, 0x5b, 0xcc, 0xde, 0xf8, 0x51, 0xd6, 0x35, 0xcb, 0x10, 0x0e,
  0x2e, 0x04, 0x17, 0x02, 0x27, 0x06, 0xf6, 0x43, 0x31, 0x09, 0xcf, 0xfc,
  0x44, 0xf3, 0x1a, 0x10, 0xd7, 0xe0, 0x01, 0x14, 0x24, 0xeb, 0x31, 0x29,
  0x2e, 0xd1, 0x30, 0x60, 0x2e, 0x2a, 0x15, 0xe0, 0xe3, 0xfc, 0x1c, 0xed,
  0x2e, 0x1a, 0xe3, 0xe0, 0xdc, 0x2c, 0xdd, 0xc2, 0x2e, 0xeb, 0x18, 0xed,
  0xb4, 0x0a, 0xd3, 0xff, 0x7b, 0xfa, 0x15, 0x5b, 0x31, 0x05, 0x25, 0x45,
  0x94, 0xea, 0xcd, 0xb6, 0x04, 0x58, 0x28, 0x9d, 0xbe, 0x2b, 0x27, 0xd0,
  0xb0, 0xf1, 0x31, 0xfe, 0xd4, 0x4f, 0xe3, 0xdf, 0xb9, 0x16, 0x04, 0xfb,
  0x2d, 0x20, 0x56, 0x37, 0x6e, 0x03, 0x48, 0x56, 0xa8, 0x2f, 0xb5, 0xf3,
  0xd7, 0x43, 0xf1, 0xbc, 0xbb, 0x4c, 0xf8, 0xd2, 0xce, 0x24, 0xcc, 0x93,
  0xbd, 0x23, 0xdb, 0xb8, 0xd3, 0xd1, 0xf8, 0x06, 0xda, 0x28, 0x07, 0x2b,
  0xf3, 0xfd, 0x27, 0x30, 0x4b, 0xfb, 0xfa, 0xf8, 0x45, 0x0f, 0xd0, 0xf4,
  0x36, 0x17, 0xda, 0x0c, 0x1e, 0xe5, 0xff, 0xdb, 0xf8, 0x3d, 0xf3, 0xf7,
  0x33, 0xf7, 0xe9, 0xf4, 0x15, 0x33, 0x2f, 0x62, 0xe1, 0x19, 0x3f, 0x04,
  0x0a, 0x23, 0xc1, 0xcc, 0xf7, 0xe5, 0xb8, 0x0c, 0x08, 0xff, 0x3b, 0xbe,
  0xe7, 0x2d, 0x1b, 0xea, 0x3f, 0x25, 0xfa, 0xcf, 0x10, 0x2f, 0x0e, 0xf4,
  0x10, 0x0f, 0x43, 0x57, 0xf5, 0x23, 0x16, 0x1f, 0x18, 0xf3, 0xc3, 0xe3,
  0x49, 0x09, 0x8e, 0xec, 0x10, 0xf1, 0xfa, 0xc7, 0x1e, 0xdb, 0xdf, 0x04,
  0xeb, 0xd2, 0xeb, 0xba, 0xb3, 0xfc, 0xde, 0xc1, 0xd4, 0x36, 0x04, 0xb5,
  0xeb, 0xf7, 0x38, 0xe2, 0x04, 0x3a, 0xd2, 0x3a, 0xd5, 0x2f, 0x20, 0x65,
  0x40, 0x3d, 0xf5, 0x56, 0x48, 0x4a, 0xd9, 0x7a, 0x31, 0x29, 0xc0, 0x6a,
  0x11, 0xe7, 0x0f, 0x17, 0xe4, 0xeb, 0x4a, 0xed, 0x1e, 0x07, 0x4e, 0x0c,
  0x12, 0x19, 0xbf, 0x0a, 0x01, 0x1e, 0xc1, 0x2b, 0x32, 0x45, 0xde, 0x19,
  0x45, 0x01, 0xde, 0x75, 0x3f, 0x02, 0xd0, 0x66, 0x01, 0xff, 0xdd, 0x04,
  0xe8, 0x4a, 0x5a, 0xaa, 0xe6, 0x48, 0x56, 0xf9, 0xee, 0x00, 0x9f, 0x09,
  0x1d, 0xb4, 0xc9, 0x26, 0x03, 0xe0, 0xb3, 0x5f, 0x12, 0x3c, 0xdf, 0x32,
  0x4c, 0x22, 0xe2, 0x15, 0xbf, 0xf9, 0x1c, 0xa6, 0xd7, 0x14, 0xfc, 0xb1,
  0xd5, 0xf2, 0x39, 0xf9, 0x26, 0x26, 0x00, 0x3a, 0x3f, 0xc7, 0xf7, 0x4a,
  0x4a, 0xd6, 0x06, 0x6a, 0x14, 0xfa, 0x48, 0x16, 0x64, 0xdb, 0x33, 0x42,
  0x09, 0xcb, 0xd2, 0x26, 0xe5, 0xe6, 0x19, 0x08, 0xe4, 0x34, 0xfb, 0xe3,
  0x31, 0x27, 0x19, 0x59, 0x12, 0x35, 0x30, 0x35, 0x11, 0xcc, 0x2c, 0x60,
  0xfa, 0x24, 0xe9, 0x18, 0x34, 0x11, 0x08, 0x73, 0xe9, 0xeb, 0x05, 0xca,
  0x37, 0x45, 0x54, 0x27, 0x0d, 0x49, 0x17, 0x10, 0x40, 0xbc, 0x20, 0x40,
  0x16, 0x2a, 0xfd, 0x3d, 0x22, 0x2e, 0x07, 0x15, 0x48, 0xc1, 0x0b, 0xf5,
  0xee, 0xf3, 0xe5, 0x44, 0xdd, 0xf4, 0xc8, 0xf9, 0x4c, 0xd2, 0x18, 0xff,
  0x47, 0x09, 0x0c, 0x48, 0xd0, 0x05, 0xc9, 0x0a, 0x25, 0xf9, 0x32, 0xba,
  0x3d, 0x5e, 0x13, 0x0b, 0x1e, 0x10, 0xdc, 0xeb, 0xfa, 0xfb, 0xdd, 0x1b,
  0xe7, 0xe7, 0x02, 0xb8, 0x68, 0xf3, 0x42, 0x2b, 0x6e, 0xe7, 0x0b, 0x4a,
  0xcc, 0x09, 0xcb, 0xb0, 0xd4, 0x0c, 0xec, 0xa6, 0xbc, 0xff, 0x0d, 0xa5,
  0xa5, 0x30, 0xe6, 0xc6, 0x0f, 0x22, 0x21, 0xf1, 0xae, 0x2e, 0xc4, 0xe5,
  0x39, 0xd7, 0x03, 0x56, 0x4f, 0xe4, 0x36, 0x1e, 0xd8, 0x55, 0x10, 0xd3,
  0xde, 0x37, 0xd4, 0xdb, 0xca, 0x38, 0xe9, 0xb4, 0xaa, 0x3f, 0x01, 0xee,
  0x96, 0x49, 0xf2, 0xb3, 0xbb, 0xba, 0x06, 0xca, 0x23, 0x1a, 0x2e, 0x35,
  0xdd, 0xf4, 0xf5, 0x50, 0x0a, 0x38, 0x1e, 0x27, 0x07, 0xef, 0x37, 0x0d,
  0x56, 0x0f, 0x11, 0xed, 0x20, 0x12, 0x23, 0x13, 0x34, 0x0a, 0xe2, 0x01,
  0xff, 0x14, 0x07, 0xd9, 0xc8, 0x00, 0x51, 0x34, 0xd9, 0x24, 0x2b, 0xfe,
  0x05, 0x19, 0xbf, 0xf9, 0x4c, 0xde, 0x15, 0xfb, 0x25, 0xeb, 0x0f, 0xca,
  0x51, 0x32, 0xd4, 0xeb, 0x1d, 0xf6, 0xbb, 0xeb, 0x08, 0x26, 0x1c, 0x16,
  0xde, 0x12, 0x6a, 0x44, 0xf0, 0xe9, 0x11, 0x2d, 0x15, 0x3f, 0x0d, 0xdd,
  0xf9, 0x3c, 0xd5, 0xb1, 0x40, 0x34, 0x0c, 0x15, 0x0b, 0xda, 0xd9, 0x15,
  0x25, 0x40, 0xb0, 0xce, 0xeb, 0xc2, 0xbe, 0xc4, 0xf6, 0x26, 0x0a, 0xc3,
  0xe4, 0x1b, 0x22, 0x07, 0x45, 0x4b, 0x27, 0x1b, 0x3d, 0x17, 0x2e, 0x65,
  0x2b, 0x3a, 0xd1, 0x4b, 0xec, 0xfd, 0xfc, 0x68, 0x0f, 0x12, 0x22, 0x1a,
  0x0b, 0x02, 0xfc, 0xfa, 0x03, 0x19, 0x2a, 0xf1, 0x20, 0xf3, 0x0c, 0x02,
  0x1f, 0x0c, 0x0f, 0x7f, 0xf2, 0x3f, 0xea, 0x7f, 0x15, 0xdf, 0xd1, 0x56,
  0xf1, 0xeb, 0x12, 0x5c, 0x4f, 0x26, 0xc3, 0x51, 0x2f, 0xd8, 0xdd, 0xec,
  0xe3, 0x0a, 0x09, 0xf4, 0xf1, 0xef, 0x2d, 0xd8, 0x09, 0x16, 0xb9, 0x11,
  0xef, 0xdb, 0xd9, 0x52, 0x05, 0xd8, 0x07, 0x67, 0x57, 0x2a, 0xd2, 0x41,
  0xfa, 0x20, 0xb9, 0x7f, 0xbe, 0xcb, 0xdb, 0x88, 0xd7, 0xd5, 0x18, 0xc5,
  0xdb, 0x08, 0x1a, 0xb9, 0x43, 0xd4, 0x1f, 0x66, 0x66, 0xd4, 0x47, 0x4c,
  0x0d, 0x33, 0x0b, 0x52, 0x51, 0x3c, 0x11, 0x64, 0xfc, 0xfb, 0xe5, 0x19,
  0xfe, 0xb7, 0xfe, 0xf3, 0x8f, 0x1b, 0xe1, 0x8d, 0xfc, 0xe6, 0x15, 0xe5,
  0x59, 0x0e, 0x37, 0x36, 0x35, 0xf4, 0x2a, 0x04, 0x24, 0x2f, 0xd5, 0x6b,
  0x63, 0x3f, 0x32, 0x29, 0x07, 0x01, 0x1e, 0x42, 0xe8, 0xca, 0xb1, 0xcf,
  0xd5, 0x09, 0x42, 0xde, 0xd1, 0x2a, 0x21, 0xd7, 0x29, 0x03, 0xf1, 0x4f,
  0x35, 0x0a, 0x09, 0x2c, 0x36, 0xda, 0x2c, 0x05, 0x37, 0xf8, 0xe0, 0x52,
  0x60, 0x08, 0x10, 0x69, 0xe5, 0xca, 0x04, 0x66, 0xfd, 0x4b, 0xf2, 0xcf,
  0xf7, 0x17, 0x30, 0x3b, 0x06, 0xed, 0x4b, 0x59, 0x2e, 0x00, 0x40, 0x27,
  0x20, 0xfc, 0x19, 0x6e, 0x3c, 0xec, 0x41, 0x0a, 0xdb, 0x43, 0xf5, 0xc0,
  0x38, 0x0c, 0x52, 0x5b, 0xb6, 0x43, 0xb6, 0xb5, 0x5f, 0xe9, 0x3e, 0x42,
  0x46, 0xbc, 0xf3, 0x7f, 0x8d, 0xed, 0xf2, 0x45, 0x0f, 0x0c, 0x07, 0x73,
  0x5b, 0xf2, 0x04, 0x3a, 0xb5, 0x2f, 0xcc, 0xec, 0x67, 0x14, 0x01, 0x1c,
  0xce, 0x05, 0xe4, 0x93, 0x53, 0xf7, 0x1d, 0x7c, 0x77, 0x0f, 0xf8, 0x7e,
  0x5b, 0xf4, 0xf9, 0xcb, 0x6c, 0xff, 0x40, 0x7f, 0x72, 0x15, 0x6f, 0x3f,
  0xba, 0xef, 0xf7, 0xfc, 0xfa, 0x34, 0xed, 0x53, 0x54, 0x1d, 0xee, 0x14,
  0xe9, 0x07, 0x03, 0x19, 0xfb, 0x09, 0x1d, 0x18, 0xaf, 0x89, 0xb4, 0xbd,
  0x1b, 0xf2, 0x28, 0x4f, 0x02, 0x4d, 0x43, 0x49, 0xe9, 0x2c, 0xfc, 0xfe,
  0x15, 0xf4, 0x35, 0x5d, 0x45, 0xed, 0xa7, 0xeb, 0xc7, 0xce, 0x01, 0x3d,
  0xd6, 0xce, 0x3b, 0x1c, 0xc9, 0xbb, 0x16, 0x6a, 0x01, 0x00, 0xf4, 0x37,
  0x10, 0x43, 0xf7, 0x62, 0x50, 0xeb, 0x09, 0xbe, 0x02, 0xed, 0x21, 0x23,
  0x38, 0x13, 0x9d, 0xff, 0x0e, 0x0c, 0x31, 0x2d, 0xe1, 0xdc, 0x03, 0x40,
  0xed, 0xfb, 0x54, 0x18, 0xcb, 0xdc, 0x1d, 0x4b, 0xde, 0x17, 0x5a, 0x16,
  0x26, 0x06, 0xac, 0xff, 0xfb, 0x0e, 0x33, 0xb0, 0xe0, 0xf2, 0xdc, 0x4d,
  0xcd, 0xfc, 0x49, 0xd3, 0x02, 0xf7, 0x48, 0xd8, 0x93, 0xdd, 0xeb, 0x44,
  0x1e, 0x23, 0x4d, 0xdd, 0x24, 0xe9, 0x49, 0x05, 0x0b, 0x2a, 0xab, 0x2d,
  0xd0, 0x0f, 0x4a, 0x9c, 0x36, 0x24, 0x04, 0x1c, 0xf0, 0xf0, 0x79, 0xe2,
  0xf5, 0xf1, 0x7e, 0xc6, 0x39, 0xdc, 0xca, 0x81, 0xcf, 0x25, 0x59, 0xeb,
  0xdf, 0xf9, 0x6b, 0xa3, 0x1d, 0x0a, 0xf6, 0x17, 0xd3, 0xeb, 0x1e, 0x87,
  0xe6, 0xd5, 0xe2, 0x7d, 0xbf, 0x18, 0x7f, 0xbd, 0xe2, 0xf6, 0x5f, 0xf6,
  0xb7, 0x63, 0x50, 0xbd, 0xe6, 0x24, 0x35, 0xf3, 0x08, 0x4a, 0x62, 0xda,
  0x44, 0xd4, 0xef, 0x5f, 0xc5, 0x2c, 0x10, 0xa4, 0x5b, 0xd9, 0xed, 0x7f,
  0xba, 0xf4, 0xf2, 0xd9, 0xe6, 0xe9, 0x2f, 0x10, 0xc5, 0xfd, 0xbe, 0x23,
  0xb9, 0xff, 0x0b, 0xd8, 0xb2, 0xe7, 0x08, 0xec, 0x1a, 0xc8, 0xda, 0x5d,
  0xb6, 0x1c, 0x1c, 0x93, 0x61, 0x37, 0x08, 0x48, 0xc0, 0x17, 0x07, 0xc9,
  0xe7, 0xe0, 0x15, 0xd0, 0x3d, 0xa7, 0x87, 0x3b, 0x08, 0xf1, 0x15, 0xd2,
  0xba, 0xe5, 0x38, 0x9d, 0x26, 0x07, 0x25, 0x7f, 0x3e, 0x06, 0x45, 0x39,
  0x29, 0xf6, 0x0e, 0x48, 0x1f, 0x26, 0x1c, 0xc1, 0x03, 0xfe, 0x07, 0x96,
  0x66, 0x44, 0x5e, 0xde, 0xfd, 0x41, 0x58, 0x18, 0x07, 0x28, 0x12, 0x2c,
  0xf7, 0xd4, 0xb6, 0xee, 0x14, 0x26, 0x00, 0x45, 0xe4, 0x0e, 0xd0, 0xa0,
  0x34, 0xd2, 0x3a, 0x57, 0x1c, 0xf7, 0x46, 0x5f, 0x02, 0x2b, 0x34, 0xb9,
  0x11, 0x1e, 0x20, 0x54, 0x24, 0xc3, 0x28, 0xee, 0x14, 0x39, 0xe8, 0xe1,
  0x7e, 0xc7, 0x3f, 0x36, 0x9d, 0x07, 0xc1, 0x09, 0x6c, 0x28, 0x4b, 0x46,
  0x39, 0xde, 0x30, 0x41, 0x9c, 0x1c, 0xd3, 0xe3, 0x54, 0x21, 0x16, 0x50,
  0x7f, 0x26, 0xe3, 0xee, 0xdf, 0x27, 0xea, 0xbd, 0x41, 0xff, 0x43, 0x73,
  0xd7, 0x33, 0xdf, 0xb1, 0x54, 0x19, 0x51, 0x36, 0x72, 0x17, 0x4d, 0x50,
  0xdd, 0xae, 0x3e, 0xc5, 0x4a, 0xe8, 0xff, 0x61, 0x52, 0xca, 0xe5, 0x29,
  0xce, 0xf0, 0xc6, 0x9f, 0x24, 0x2b, 0xda, 0x00, 0x01, 0x3e, 0xf4, 0xf7,
  0xed, 0xff, 0x56, 0x3c, 0x13, 0x1f, 0x05, 0x20, 0x00, 0xc3, 0x16, 0xa0,
  0xd4, 0xee, 0x0c, 0x28, 0xe2, 0x01, 0xe7, 0xe0, 0x3d, 0x38, 0x29, 0xc9,
  0xf7, 0xfc, 0x1f, 0x4e, 0xfa, 0x2c, 0xd9, 0x11, 0x1f, 0xed, 0x45, 0x17,
  0x17, 0x10, 0x6d, 0x2e, 0xac, 0xbe, 0xff, 0x25, 0xcb, 0x26, 0xe8, 0x0a,
  0x2a, 0xf0, 0x53, 0xe7, 0x00, 0x22, 0xf3, 0xf5, 0x02, 0x0b, 0x2c, 0x5b,
  0x1d, 0xdd, 0xb9, 0xdb, 0xfb, 0xf9, 0x20, 0x42, 0xa7, 0xfb, 0x24, 0x69,
  0x1d, 0x14, 0x2e, 0x6c, 0xd9, 0xf3, 0x13, 0x0b, 0x0c, 0x35, 0xfd, 0x07,
  0x4d, 0x31, 0xa5, 0xb8, 0xd3, 0x11, 0x3e, 0xd8, 0x40, 0x50, 0xb5, 0x44,
  0xd8, 0x24, 0x6e, 0x09, 0xe6, 0x10, 0x5a, 0xf4, 0xe0, 0xe9, 0xd0, 0xa6,
  0x04, 0x04, 0x1f, 0xf1, 0xf9, 0xdc, 0x2f, 0xe4, 0x36, 0x41, 0xff, 0x09,
  0x1f, 0xf1, 0x14, 0xe5, 0x05, 0xd8, 0xd7, 0x3d, 0x21, 0x10, 0x43, 0xba,
  0xee, 0x0a, 0x5c, 0xfe, 0xf9, 0x8c, 0xdd, 0xa1, 0x1a, 0x03, 0x46, 0xe3,
  0x31, 0x0a, 0x4f, 0xcd, 0x0c, 0xec, 0xf2, 0xfe, 0xbf, 0x48, 0x41, 0xc0,
  0x1c, 0xe5, 0xb8, 0x72, 0xe0, 0x06, 0x3d, 0xcb, 0xeb, 0x29, 0x17, 0xac,
  0x69, 0xcb, 0x4d, 0x90, 0xff, 0x23, 0x46, 0x0a, 0x27, 0x20, 0x2c, 0xbc,
  0x24, 0xf0, 0xdf, 0x4e, 0xbc, 0xe2, 0x22, 0xd2, 0x4d, 0xe8, 0x2d, 0x21,
  0xa4, 0x2f, 0x2a, 0xc3, 0xa3, 0x2d, 0x1f, 0xb6, 0xdd, 0x2f, 0x50, 0xc4,
  0x06, 0xef, 0x43, 0xf0, 0xe3, 0xfe, 0xf0, 0xe9, 0x0b, 0x19, 0xd6, 0x2a,
  0xd4, 0x11, 0x49, 0xd0, 0x64, 0x14, 0x02, 0x30, 0xc9, 0x22, 0x29, 0xd3,
  0xd7, 0x15, 0xf8, 0xf2, 0x66, 0xfa, 0x43, 0x7d, 0xec, 0xe3, 0xee, 0xf5,
  0xde, 0x08, 0xdc, 0xf8, 0x58, 0xdc, 0x21, 0x44, 0xea, 0x24, 0x3a, 0x13,
  0x30, 0xe0, 0xc5, 0x58, 0x0a, 0x29, 0x05, 0x0b, 0x1c, 0x51, 0x55, 0x13,
  0xfb, 0xff, 0x06, 0x2f, 0x0d, 0x2d, 0x27, 0x2b, 0xd1, 0xcc, 0xeb, 0xed,
  0x0f, 0x1e, 0xec, 0xee, 0x57, 0x07, 0x22, 0x5e, 0x1b, 0x3b, 0x06, 0xd1,
  0x5c, 0x0d, 0xf3, 0x12, 0x2b, 0x11, 0x3f, 0x2a, 0x49, 0x3e, 0x36, 0xab,
  0x2a, 0xe2, 0xe8, 0x38, 0x2a, 0x1c, 0x2e, 0x62, 0x0c, 0x36, 0x20, 0xbf,
  0x7f, 0xe3, 0x16, 0x3a, 0xb1, 0xf4, 0xd0, 0xb7, 0x4f, 0x24, 0x17, 0x35,
  0x45, 0x05, 0x31, 0x29, 0xdd, 0x04, 0xcf, 0x8c, 0x11, 0xe4, 0xfc, 0x3c,
  0x3c, 0xe5, 0x19, 0x39, 0xb5, 0x41, 0xfc, 0xef, 0x5f, 0xc1, 0x1a, 0x4a,
  0x9b, 0x0d, 0x23, 0x02, 0x43, 0xd5, 0xfe, 0x42, 0x3b, 0x06, 0x29, 0x19,
  0x51, 0xc9, 0xa3, 0x11, 0x12, 0xc8, 0xf3, 0x30, 0x16, 0xe0, 0xd5, 0x61,
  0xd7, 0xeb, 0xc6, 0xba, 0xd7, 0xfb, 0x1a, 0x15, 0x50, 0x43, 0x15, 0x07,
  0xfb, 0xe6, 0xe7, 0x12, 0xb5, 0xdf, 0x1a, 0x11, 0x1b, 0xde, 0x04, 0x18,
  0xdf, 0xfc, 0xdf, 0x08, 0x2b, 0xf0, 0x3c, 0xf0, 0x18, 0x14, 0x3c, 0xd9,
  0xb6, 0xd4, 0x09, 0x16, 0x19, 0xe3, 0x20, 0xf1, 0x1e, 0xfa, 0x51, 0x4d,
  0xbf, 0xff, 0x43, 0x0d, 0x1a, 0xae, 0xd5, 0x46, 0xee, 0x1e, 0x20, 0x33,
  0xd3, 0xcd, 0x0a, 0x40, 0x47, 0x28, 0x1e, 0xd3, 0xef, 0x0d, 0x17, 0x1a,
  0x30, 0x31, 0xec, 0xff, 0xd5, 0xe3, 0x58, 0x36, 0xef, 0xe3, 0x31, 0x26,
  0x04, 0xb3, 0xef, 0xf3, 0x09, 0x04, 0x10, 0x1d, 0x04, 0xd6, 0x48, 0x38,
  0x2c, 0x33, 0xd8, 0xdf, 0x01, 0x15, 0xf2, 0xd2, 0x0b, 0xec, 0xe3, 0x47,
  0xf8, 0x24, 0x22, 0xb6, 0x03, 0xe9, 0x14, 0xf3, 0xec, 0xac, 0x1a, 0xe2,
  0xd9, 0x10, 0x1a, 0xe8, 0x07, 0x22, 0x4a, 0xbc, 0xfb, 0x22, 0xd5, 0x30,
  0xcb, 0xf7, 0x50, 0xeb, 0x25, 0x44, 0xe7, 0x5a, 0xf0, 0x15, 0x19, 0xd3,
  0xef, 0x34, 0x49, 0xf1, 0xbe, 0x1b, 0x8b, 0xd2, 0xf5, 0xe6, 0x34, 0xe8,
  0x01, 0xc0, 0x3e, 0xff, 0xfc, 0xe4, 0xe2, 0x3c, 0xcd, 0x44, 0x4d, 0xd9,
  0x1f, 0x00, 0xd4, 0x46, 0xcc, 0x2c, 0x38, 0xf5, 0xde, 0xfb, 0x51, 0x06,
  0xbb, 0xd8, 0x28, 0xf3, 0xf8, 0x25, 0xf9, 0x04, 0x02, 0x19, 0x4a, 0xbe,
  0xdf, 0xfd, 0xd2, 0x0f, 0xa8, 0x46, 0x0c, 0xe9, 0x69, 0x33, 0x38, 0x3f,
  0xa7, 0x11, 0x3e, 0x94, 0xb7, 0x33, 0x4a, 0xc2, 0x9b, 0x30, 0xcc, 0x27,
  0xd5, 0xe2, 0x1a, 0xf2, 0x13, 0xca, 0xee, 0x02, 0x5c, 0x22, 0x1f, 0x50,
  0xef, 0xfc, 0x24, 0xd7, 0x38, 0xfe, 0x3a, 0x31, 0xd3, 0x3b, 0x1f, 0xc5,
  0xdd, 0x17, 0x46, 0x8a, 0xa5, 0xeb, 0xb4, 0xc0, 0xfb, 0xe3, 0x02, 0xf6,
  0xc6, 0x2f, 0xf2, 0x95, 0x10, 0x26, 0xec, 0x13, 0xc5, 0x36, 0x46, 0xe7,
  0x0e, 0x36, 0xc8, 0x00, 0x18, 0x30, 0x27, 0xd8, 0xe7, 0x37, 0x26, 0x37,
  0xfd, 0xb9, 0x24, 0x68, 0xce, 0xdf, 0x05, 0xe5, 0x2f, 0x40, 0xe9, 0x03,
  0x37, 0x16, 0xeb, 0x43, 0x55, 0x55, 0x55, 0x55, 0x55, 0x55, 0x55, 0x55,
  0x55, 0x55, 0x55, 0x55, 0x55, 0x55, 0x55, 0x55, 0x00, 0x12, 0x00, 0x12,
  0x00, 0x12, 0x00, 0x12, 0xc8, 0xf7, 0x84, 0x94, 0x31, 0x5b, 0xf5, 0x6d,
  0x4b, 0xc8, 0xf9, 0xa3, 0x1b, 0x0f, 0xb5, 0x55, 0xa0, 0xc2, 0x01, 0x42,
  0x01, 0x51, 0x7e, 0xe2, 0x02, 0x58, 0x6a, 0xc4, 0x94, 0xc9, 0x0c, 0x93,
  0xca, 0x66, 0xa3, 0x9b, 0x2a, 0x3a, 0x14, 0x7f, 0x0a, 0xcb, 0xc2, 0xf9,
  0xea, 0x2d, 0x6a, 0xb0, 0x4f, 0x9e, 0xf0, 0x1b, 0x01, 0x01, 0x00, 0x00,
  0x00, 0x00, 0x00, 0x00, 0xc2, 0xfa, 0xff, 0xff, 0x04, 0x00, 0x00, 0x00,
  0xc8, 0x03, 0x00, 0x00, 0x6e, 0x4d, 0x43, 0x64, 0x8b, 0xac, 0x41, 0x6d,
  0x64, 0x03, 0x00, 0x00, 0x00, 0x00, 0x00, 0x00, 0x64, 0x03, 0x00, 0x30,
  0x08, 0x00, 0x00, 0x00, 0xc8, 0x03, 0x00, 0x00, 0xf0, 0x14, 0x00, 0x00,
  0x00, 0x00, 0x00, 0x00, 0x00, 0x28, 0x00, 0x00, 0x00, 0x00, 0x00, 0x00,
  0x00, 0x00, 0x00, 0x00, 0x00, 0x00, 0x00, 0x00, 0x01, 0x00, 0x00, 0x00,
  0x01, 0x00, 0x00, 0x00, 0x08, 0x00, 0x00, 0x00, 0x56, 0x00, 0x00, 0x00,
  0x00, 0x00, 0x00, 0x00, 0x00, 0x00, 0x00, 0x00, 0x00, 0x00, 0x00, 0x00,
  0x02, 0x00, 0x05, 0x00, 0x00, 0x00, 0x00, 0x00, 0x04, 0x00, 0x01, 0x01,
  0x01, 0x00, 0x00, 0x00, 0x06, 0x00, 0x26, 0x00, 0x00, 0x00, 0x84, 0x00,
  0x00, 0x00, 0x00, 0x00, 0x00, 0x00, 0x00, 0x00, 0x40, 0x00, 0x00, 0x00,
  0x00, 0x00, 0x00, 0x00, 0x30, 0x00, 0x00, 0x00, 0x20, 0x00, 0x00, 0x00,
  0x20, 0x00, 0x00, 0x00, 0x08, 0x00, 0x00, 0x00, 0x08, 0x00, 0x00, 0x00,
  0x20, 0x00, 0x00, 0x00, 0x20, 0x00, 0x00, 0x00, 0x04, 0x00, 0x00, 0x00,
  0x03, 0x00, 0x00, 0x00, 0x03, 0x00, 0x00, 0x00, 0x01, 0x00, 0x00, 0x00,
  0x01, 0x00, 0x00, 0x00, 0x01, 0x00, 0x00, 0x00, 0x01, 0x00, 0x00, 0x00,
  0x01, 0x00, 0x00, 0x00, 0x01, 0x00, 0x00, 0x00, 0x01, 0x00, 0x00, 0x00,
  0x01, 0x00, 0x00, 0x00, 0x10, 0x01, 0x0f, 0x07, 0x00, 0x00, 0x00, 0x00,
  0x00, 0x00, 0x00, 0x00, 0x01, 0x00, 0x00, 0x00, 0x01, 0x00, 0x00, 0x00,
  0x80, 0xff, 0xff, 0xff, 0x30, 0x80, 0x00, 0x00, 0x00, 0x00, 0x00, 0x00,
  0x00, 0x00, 0x00, 0x00, 0x00, 0x00, 0x00, 0x00, 0x00, 0x00, 0x00, 0x00,
  0x02, 0x00, 0x02, 0x00, 0x00, 0x00, 0x00, 0x00, 0x04, 0x04, 0x00, 0x00,
  0x06, 0x00, 0x3e, 0x00, 0x00, 0x00, 0x4c, 0x00, 0x00, 0x20, 0x00, 0x00,
  0x00, 0x00, 0x00, 0x00, 0x10, 0x00, 0x00, 0x00, 0x10, 0x00, 0x00, 0x00,
  0x08, 0x00, 0x00, 0x00, 0x08, 0x00, 0x00, 0x00, 0x20, 0x00, 0x00, 0x00,
  0x20, 0x00, 0x00, 0x00, 0x08, 0x00, 0x00, 0x00, 0x02, 0x00, 0x00, 0x00,
  0x02, 0x00, 0x00, 0x00, 0x02, 0x00, 0x00, 0x00, 0x02, 0x00, 0x00, 0x00,
  0x00, 0x00, 0x00, 0x00, 0x00, 0x00, 0x00, 0x00, 0x00, 0x00, 0x00, 0x00,
  0x00, 0x00, 0x00, 0x00, 0x10, 0x01, 0x09, 0x40, 0x00, 0x00, 0x00, 0x00,
  0x02, 0x00, 0x05, 0x00, 0x00, 0x00, 0x00, 0x00, 0x04, 0x04, 0x01, 0x01,
  0x01, 0x00, 0x00, 0x00, 0x06, 0x00, 0x26, 0x00, 0x00, 0x00, 0x84, 0x00,
  0x00, 0x00, 0x00, 0x00, 0x00, 0x20, 0x00, 0x00, 0xe0, 0x01, 0x00, 0x00,
  0x60, 0x01, 0x00, 0x00, 0xc0, 0x01, 0x00, 0x00, 0x10, 0x00, 0x00, 0x00,
  0x10, 0x00, 0x00, 0x00, 0x10, 0x00, 0x00, 0x00, 0x10, 0x00, 0x00, 0x00,
  0x10, 0x00, 0x00, 0x00, 0x10, 0x00, 0x00, 0x00, 0x08, 0x00, 0x00, 0x00,
  0x03, 0x00, 0x00, 0x00, 0x03, 0x00, 0x00, 0x00, 0x01, 0x00, 0x00, 0x00,
  0x01, 0x00, 0x00, 0x00, 0x01, 0x00, 0x00, 0x00, 0x01, 0x00, 0x00, 0x00,
  0x01, 0x00, 0x00, 0x00, 0x01, 0x00, 0x00, 0x00, 0x01, 0x00, 0x00, 0x00,
  0x01, 0x00, 0x00, 0x00, 0x10, 0x01, 0x0f, 0x07, 0x00, 0x00, 0x00, 0x00,
  0x00, 0x00, 0x00, 0x00, 0x01, 0x00, 0x00, 0x00, 0x01, 0x00, 0x00, 0x00,
  0x80, 0xff, 0xff, 0xff, 0x30, 0x80, 0x00, 0x00, 0x00, 0x00, 0x00, 0x00,
  0x00, 0x00, 0x00, 0x00, 0x00, 0x00, 0x00, 0x00, 0x00, 0x00, 0x00, 0x00,
  0x02, 0x00, 0x02, 0x00, 0x00, 0x00, 0x00, 0x00, 0x04, 0x04, 0x00, 0x00,
  0x06, 0x00, 0x3e, 0x00, 0x00, 0x00, 0x4c, 0x00, 0x00, 0x10, 0x00, 0x00,
  0x00, 0x00, 0x00, 0x00, 0x08, 0x00, 0x00, 0x00, 0x08, 0x00, 0x00, 0x00,
  0x10, 0x00, 0x00, 0x00, 0x10, 0x00, 0x00, 0x00, 0x10, 0x00, 0x00, 0x00,
  0x10, 0x00, 0x00, 0x00, 0x10, 0x00, 0x00, 0x00, 0x02, 0x00, 0x00, 0x00,
  0x02, 0x00, 0x00, 0x00, 0x02, 0x00, 0x00, 0x00, 0x02, 0x00, 0x00, 0x00,
  0x00, 0x00, 0x00, 0x00, 0x00, 0x00, 0x00, 0x00, 0x00, 0x00, 0x00, 0x00,
  0x00, 0x00, 0x00, 0x00, 0x10, 0x01, 0x09, 0x40, 0x00, 0x00, 0x00, 0x00,
  0x02, 0x00, 0x05, 0x00, 0x00, 0x00, 0x00, 0x00, 0x04, 0x04, 0x01, 0x01,
  0x01, 0x00, 0x00, 0x00, 0x06, 0x00, 0x26, 0x00, 0x00, 0x00, 0x84, 0x00,
  0x00, 0x00, 0x00, 0x00, 0x00, 0x10, 0x00, 0x00, 0x20, 0x07, 0x00, 0x00,
  0x60, 0x06, 0x00, 0x00, 0xf0, 0x06, 0x00, 0x00, 0x08, 0x00, 0x00, 0x00,
  0x08, 0x00, 0x00, 0x00, 0x18, 0x00, 0x00, 0x00, 0x18, 0x00, 0x00, 0x00,
  0x08, 0x00, 0x00, 0x00, 0x08, 0x00, 0x00, 0x00, 0x10, 0x00, 0x00, 0x00,
  0x03, 0x00, 0x00, 0x00, 0x03, 0x00, 0x00, 0x00, 0x01, 0x00, 0x00, 0x00,
  0x01, 0x00, 0x00, 0x00, 0x01, 0x00, 0x00, 0x00, 0x01, 0x00, 0x00, 0x00,
  0x01, 0x00, 0x00, 0x00, 0x01, 0x00, 0x00, 0x00, 0x01, 0x00, 0x00, 0x00,
  0x01, 0x00, 0x00, 0x00, 0x10, 0x01, 0x0f, 0x07, 0x00, 0x00, 0x00, 0x00,
  0x00, 0x00, 0x00, 0x00, 0x01, 0x00, 0x00, 0x00, 0x01, 0x00, 0x00, 0x00,
  0x80, 0xff, 0xff, 0xff, 0x30, 0x80, 0x00, 0x00, 0x00, 0x00, 0x00, 0x00,
  0x00, 0x00, 0x00, 0x00, 0x00, 0x00, 0x00, 0x00, 0x00, 0x00, 0x00, 0x00,
  0x02, 0x00, 0x04, 0x00, 0x00, 0x00, 0x00, 0x00, 0x04, 0x04, 0x01, 0x01,
  0x06, 0x00, 0x30, 0x00, 0x00, 0x00, 0x24, 0x00, 0x00, 0x06, 0x00, 0x00,
  0x00, 0x00, 0x00, 0x00, 0xa0, 0x14, 0x00, 0x00, 0xb0, 0x14, 0x00, 0x00,
  0x08, 0x00, 0x00, 0x00, 0x08, 0x00, 0x00, 0x00, 0x18, 0x00, 0x00, 0x00,
  0x10, 0x03, 0x0f, 0x07, 0x30, 0x80, 0x00, 0x3e, 0x02, 0x00, 0x05, 0x00,
  0x00, 0x00, 0x00, 0x00, 0x04, 0x04, 0x01, 0x01, 0x0b, 0x00, 0x00, 0x00,
  0x06, 0x00, 0x2d, 0x00, 0x00, 0x00, 0x3c, 0x00, 0x00, 0x00, 0x00, 0x00,
  0x00, 0x06, 0x00, 0x00, 0xb8, 0x14, 0x00, 0x00, 0xe8, 0x14, 0x00, 0x00,
  0x00, 0x00, 0x00, 0x00, 0x01, 0x00, 0x00, 0x00, 0x02, 0x00, 0x00, 0x00,
  0x02, 0x00, 0x00, 0x00, 0x18, 0x00, 0x00, 0x00, 0x00, 0x00, 0x00, 0x00,
  0x00, 0x00, 0x00, 0x00, 0x10, 0x01, 0x0f, 0x07, 0x30, 0xfd, 0xd8, 0x4a,
  0x00, 0x00, 0x00, 0x00, 0x00, 0x00, 0x00, 0x00, 0x02, 0x00, 0x03, 0x00,
  0x00, 0x00, 0x00, 0x00, 0x02, 0x04, 0x01, 0x00, 0x06, 0x00, 0x4b, 0x00,
  0x00, 0x00, 0x28, 0x00, 0x00, 0x00, 0x00, 0x00, 0x00, 0x00, 0x00, 0x00,
  0xec, 0x14, 0x00, 0x00, 0x01, 0x00, 0x00, 0x00, 0x01, 0x00, 0x00, 0x00,
  0x02, 0x00, 0x00, 0x00, 0x04, 0x00, 0x00, 0x00, 0x80, 0xff, 0xff, 0xff,
  0x10, 0x01, 0x09, 0x40, 0x00, 0x00, 0x00, 0x00, 0x01, 0x00, 0x00, 0x00,
  0x00, 0x00, 0x00, 0x00, 0x00, 0x00, 0x00, 0x00, 0x00, 0x00, 0x00, 0x00,
  0x00, 0x00, 0x00, 0x00, 0x00, 0x10, 0x00, 0x00, 0x04, 0x00, 0x00, 0x00,
  0x00, 0x00, 0x00, 0x00, 0x00, 0x00, 0x00, 0x00, 0x00, 0x00, 0x00, 0x00,
  0xa2, 0xfe, 0xff, 0xff, 0x04, 0x00, 0x00, 0x00, 0x08, 0x00, 0x00, 0x00,
  0x01, 0x00, 0x00, 0x00, 0x02, 0x00, 0x00, 0x00, 0x00, 0x00, 0x00, 0x00,
  0x00, 0x00, 0x00, 0x00, 0x00, 0x00, 0x00, 0x00, 0xc2, 0xfe, 0xff, 0xff,
  0x04, 0x00, 0x00, 0x00, 0x08, 0x00, 0x00, 0x00, 0x00, 0x00, 0x00, 0x00,
  0x00, 0x00, 0x00, 0x00, 0x00, 0x00, 0x00, 0x00, 0x24, 0xff, 0xff, 0xff,
  0x5f, 0x00, 0x00, 0x00, 0x4d, 0x4c, 0x49, 0x52, 0x20, 0x43, 0x6f, 0x6e,
  0x76, 0x65, 0x72, 0x74, 0x65, 0x64, 0x2e, 0x0a, 0x43, 0x6f, 0x6e, 0x76,
  0x65, 0x72, 0x74, 0x65, 0x64, 0x20, 0x77, 0x69, 0x74, 0x68, 0x20, 0x65,
  0x49, 0x51, 0x20, 0x6e, 0x65, 0x75, 0x74, 0x72, 0x6f, 0x6e, 0x2d, 0x63,
  0x6f, 0x6e, 0x76, 0x65, 0x72, 0x74, 0x65, 0x72, 0x0a, 0x56, 0x65, 0x72,
  0x73, 0x69, 0x6f, 0x6e, 0x3a, 0x20, 0x33, 0x2e, 0x30, 0x2e, 0x30, 0x2b,
  0x30, 0x58, 0x36, 0x64, 0x34, 0x31, 0x61, 0x63, 0x38, 0x62, 0x0a, 0x54,
  0x61, 0x72, 0x67, 0x65, 0x74, 0x3a, 0x20, 0x6d, 0x63, 0x78, 0x6e, 0x39,
  0x34, 0x78, 0x0a, 0x00, 0x01, 0x00, 0x00, 0x00, 0x14, 0x00, 0x00, 0x00,
  0x00, 0x00, 0x0e, 0x00, 0x18, 0x00, 0x04, 0x00, 0x08, 0x00, 0x0c, 0x00,
  0x10, 0x00, 0x14, 0x00, 0x0e, 0x00, 0x00, 0x00, 0x40, 0x01, 0x00, 0x00,
  0x34, 0x01, 0x00, 0x00, 0x28, 0x01, 0x00, 0x00, 0x14, 0x00, 0x00, 0x00,
  0x04, 0x00, 0x00, 0x00, 0x04, 0x00, 0x00, 0x00, 0x6d, 0x61, 0x69, 0x6e,
  0x00, 0x00, 0x00, 0x00, 0x03, 0x00, 0x00, 0x00, 0xac, 0x00, 0x00, 0x00,
  0x60, 0x00, 0x00, 0x00, 0x14, 0x00, 0x00, 0x00, 0x00, 0x00, 0x0e, 0x00,
  0x18, 0x00, 0x08, 0x00, 0x0c, 0x00, 0x10, 0x00, 0x07, 0x00, 0x14, 0x00,
  0x0e, 0x00, 0x00, 0x00, 0x00, 0x00, 0x00, 0x30, 0x02, 0x00, 0x00, 0x00,
  0x1c, 0x00, 0x00, 0x00, 0x10, 0x00, 0x00, 0x00, 0x08, 0x00, 0x00, 0x00,
  0x04, 0x00, 0x04, 0x00, 0x04, 0x00, 0x00, 0x00, 0x01, 0x00, 0x00, 0x00,
  0x03, 0x00, 0x00, 0x00, 0x03, 0x00, 0x00, 0x00, 0x02, 0x00, 0x00, 0x00,
  0x04, 0x00, 0x00, 0x00, 0x05, 0x00, 0x00, 0x00, 0x00, 0x00, 0x0e, 0x00,
  0x1a, 0x00, 0x08, 0x00, 0x0c, 0x00, 0x10, 0x00, 0x07, 0x00, 0x14, 0x00,
  0x0e, 0x00, 0x00, 0x00, 0x00, 0x00, 0x00, 0x09, 0x01, 0x00, 0x00, 0x00,
  0x24, 0x00, 0x00, 0x00, 0x18, 0x00, 0x00, 0x00, 0x0c, 0x00, 0x00, 0x00,
  0x00, 0x00, 0x06, 0x00, 0x08, 0x00, 0x04, 0x00, 0x06, 0x00, 0x00, 0x00,
  0x00, 0x00, 0x80, 0x3f, 0x01, 0x00, 0x00, 0x00, 0x02, 0x00, 0x00, 0x00,
  0x01, 0x00, 0x00, 0x00, 0x01, 0x00, 0x00, 0x00, 0x10, 0x00, 0x10, 0x00,
  0x00, 0x00, 0x04, 0x00, 0x08, 0x00, 0x00, 0x00, 0x00, 0x00, 0x0c, 0x00,
  0x10, 0x00, 0x00, 0x00, 0x48, 0x00, 0x00, 0x00, 0x30, 0x00, 0x00, 0x00,
  0x04, 0x00, 0x00, 0x00, 0x21, 0x00, 0x00, 0x00, 0x73, 0x75, 0x62, 0x67,
  0x72, 0x61, 0x70, 0x68, 0x00, 0x0c, 0x73, 0x75, 0x62, 0x67, 0x72, 0x61,
  0x70, 0x68, 0x5f, 0x30, 0x31, 0x30, 0x00, 0x01, 0x18, 0x01, 0x01, 0x01,
  0x12, 0x14, 0x02, 0x24, 0x01, 0x00, 0x00, 0x00, 0x04, 0x00, 0x00, 0x00,
  0x01, 0x00, 0x00, 0x00, 0x09, 0x00, 0x00, 0x00, 0x0a, 0x00, 0x00, 0x00,
  0x0b, 0x00, 0x00, 0x00, 0x04, 0x00, 0x00, 0x00, 0x00, 0x00, 0x00, 0x00,
  0x06, 0x00, 0x00, 0x00, 0x07, 0x00, 0x00, 0x00, 0x08, 0x00, 0x00, 0x00,
  0x01, 0x00, 0x00, 0x00, 0x03, 0x00, 0x00, 0x00, 0x01, 0x00, 0x00, 0x00,
  0x00, 0x00, 0x00, 0x00, 0x0c, 0x00, 0x00, 0x00, 0x6c, 0x03, 0x00, 0x00,
  0xc4, 0x02, 0x00, 0x00, 0x48, 0x02, 0x00, 0x00, 0xe4, 0x01, 0x00, 0x00,
  0x98, 0x01, 0x00, 0x00, 0x40, 0x01, 0x00, 0x00, 0x08, 0x01, 0x00, 0x00,
  0xd4, 0x00, 0x00, 0x00, 0xa0, 0x00, 0x00, 0x00, 0x70, 0x00, 0x00, 0x00,
  0x34, 0x00, 0x00, 0x00, 0x04, 0x00, 0x00, 0x00, 0xa8, 0xff, 0xff, 0xff,
  0x00, 0x00, 0x00, 0x03, 0x1c, 0x00, 0x00, 0x00, 0x04, 0x00, 0x00, 0x00,
  0x0c, 0x00, 0x00, 0x00, 0x4e, 0x65, 0x75, 0x74, 0x72, 0x6f, 0x6e, 0x44,
  0x65, 0x62, 0x75, 0x67, 0x00, 0x00, 0x00, 0x00, 0x01, 0x00, 0x00, 0x00,
  0x00, 0x00, 0x00, 0x00, 0xd4, 0xff, 0xff, 0xff, 0x00, 0x00, 0x00, 0x03,
  0x1c, 0x00, 0x00, 0x00, 0x04, 0x00, 0x00, 0x00, 0x0e, 0x00, 0x00, 0x00,
  0x4e, 0x65, 0x75, 0x74, 0x72, 0x6f, 0x6e, 0x50, 0x72, 0x6f, 0x66, 0x69,
  0x6c, 0x65, 0x00, 0x00, 0x01, 0x00, 0x00, 0x00, 0x00, 0x00, 0x00, 0x00,
  0x0c, 0x00, 0x10, 0x00, 0x08, 0x00, 0x07, 0x00, 0x00, 0x00, 0x0c, 0x00,
  0x0c, 0x00, 0x00, 0x00, 0x00, 0x00, 0x00, 0x03, 0x1c, 0x00, 0x00, 0x00,
  0x04, 0x00, 0x00, 0x00, 0x0e, 0x00, 0x00, 0x00, 0x4e, 0x65, 0x75, 0x74,
  0x72, 0x6f, 0x6e, 0x53, 0x63, 0x72, 0x61, 0x74, 0x63, 0x68, 0x00, 0x00,
  0x01, 0x00, 0x00, 0x00, 0x00, 0x28, 0x00, 0x00, 0x24, 0xff, 0xff, 0xff,
  0x00, 0x00, 0x00, 0x03, 0x20, 0x00, 0x00, 0x00, 0x05, 0x00, 0x00, 0x00,
  0x04, 0x00, 0x00, 0x00, 0x0e, 0x00, 0x00, 0x00, 0x4e, 0x65, 0x75, 0x74,
  0x72, 0x6f, 0x6e, 0x4b, 0x65, 0x72, 0x6e, 0x65, 0x6c, 0x73, 0x00, 0x00,
  0x01, 0x00, 0x00, 0x00, 0x01, 0x00, 0x00, 0x00, 0x54, 0xff, 0xff, 0xff,
  0x00, 0x00, 0x00, 0x03, 0x20, 0x00, 0x00, 0x00, 0x04, 0x00, 0x00, 0x00,
  0x04, 0x00, 0x00, 0x00, 0x0e, 0x00, 0x00, 0x00, 0x4e, 0x65, 0x75, 0x74,
  0x72, 0x6f, 0x6e, 0x57, 0x65, 0x69, 0x67, 0x68, 0x74, 0x73, 0x00, 0x00,
  0x01, 0x00, 0x00, 0x00, 0xf0, 0x14, 0x00, 0x00, 0x84, 0xff, 0xff, 0xff,
  0x00, 0x00, 0x00, 0x03, 0x24, 0x00, 0x00, 0x00, 0x03, 0x00, 0x00, 0x00,
  0x04, 0x00, 0x00, 0x00, 0x10, 0x00, 0x00, 0x00, 0x4e, 0x65, 0x75, 0x74,
  0x72, 0x6f, 0x6e, 0x4d, 0x69, 0x63, 0x72, 0x6f, 0x63, 0x6f, 0x64, 0x65,
  0x00, 0x00, 0x00, 0x00, 0x01, 0x00, 0x00, 0x00, 0xc8, 0x03, 0x00, 0x00,
  0xb8, 0xff, 0xff, 0xff, 0x00, 0x00, 0x00, 0x02, 0x38, 0x00, 0x00, 0x00,
  0x02, 0x00, 0x00, 0x00, 0x04, 0x00, 0x00, 0x00, 0x24, 0x00, 0x00, 0x00,
  0x53, 0x74, 0x61, 0x74, 0x65, 0x66, 0x75, 0x6c, 0x50, 0x61, 0x72, 0x74,
  0x69, 0x74, 0x69, 0x6f, 0x6e, 0x65, 0x64, 0x43, 0x61, 0x6c, 0x6c, 0x5f,
  0x31, 0x3a, 0x30, 0x2f, 0x70, 0x61, 0x64, 0x2f, 0x73, 0x69, 0x7a, 0x65,
  0x00, 0x00, 0x00, 0x00, 0x01, 0x00, 0x00, 0x00, 0x02, 0x00, 0x00, 0x00,
  0x0c, 0x00, 0x14, 0x00, 0x08, 0x00, 0x07, 0x00, 0x0c, 0x00, 0x10, 0x00,
  0x0c, 0x00, 0x00, 0x00, 0x00, 0x00, 0x00, 0x02, 0x38, 0x00, 0x00, 0x00,
  0x01, 0x00, 0x00, 0x00, 0x04, 0x00, 0x00, 0x00, 0x25, 0x00, 0x00, 0x00,
  0x53, 0x74, 0x61, 0x74, 0x65, 0x66, 0x75, 0x6c, 0x50, 0x61, 0x72, 0x74,
  0x69, 0x74, 0x69, 0x6f, 0x6e, 0x65, 0x64, 0x43, 0x61, 0x6c, 0x6c, 0x5f,
  0x31, 0x3a, 0x30, 0x2f, 0x70, 0x61, 0x64, 0x2f, 0x62, 0x65, 0x67, 0x69,
  0x6e, 0x00, 0x00, 0x00, 0x01, 0x00, 0x00, 0x00, 0x02, 0x00, 0x00, 0x00,
  0x36, 0xff, 0xff, 0xff, 0x00, 0x00, 0x00, 0x09, 0x4c, 0x00, 0x00, 0x00,
  0x28, 0x00, 0x00, 0x00, 0x04, 0x00, 0x00, 0x00, 0x6c, 0xfe, 0xff, 0xff,
  0x14, 0x00, 0x00, 0x00, 0x04, 0x00, 0x00, 0x00, 0x01, 0x00, 0x00, 0x00,
  0x80, 0xff, 0xff, 0xff, 0xff, 0xff, 0xff, 0xff, 0x01, 0x00, 0x00, 0x00,
  0x00, 0x00, 0x80, 0x3b, 0x1b, 0x00, 0x00, 0x00, 0x53, 0x74, 0x61, 0x74,
  0x65, 0x66, 0x75, 0x6c, 0x50, 0x61, 0x72, 0x74, 0x69, 0x74, 0x69, 0x6f,
  0x6e, 0x65, 0x64, 0x43, 0x61, 0x6c, 0x6c, 0x5f, 0x31, 0x3a, 0x30, 0x00,
  0x02, 0x00, 0x00, 0x00, 0x01, 0x00, 0x00, 0x00, 0x02, 0x00, 0x00, 0x00,
  0x96, 0xff, 0xff, 0xff, 0x00, 0x00, 0x00, 0x09, 0x54, 0x00, 0x00, 0x00,
  0x2c, 0x00, 0x00, 0x00, 0x04, 0x00, 0x00, 0x00, 0xcc, 0xfe, 0xff, 0xff,
  0x18, 0x00, 0x00, 0x00, 0x04, 0x00, 0x00, 0x00, 0x01, 0x00, 0x00, 0x00,
  0x80, 0xff, 0xff, 0xff, 0xff, 0xff, 0xff, 0xff, 0x00, 0x00, 0x00, 0x00,
  0x01, 0x00, 0x00, 0x00, 0x00, 0x00, 0x80, 0x3b, 0x1f, 0x00, 0x00, 0x00,
  0x53, 0x74, 0x61, 0x74, 0x65, 0x66, 0x75, 0x6c, 0x50, 0x61, 0x72, 0x74,
  0x69, 0x74, 0x69, 0x6f, 0x6e, 0x65, 0x64, 0x43, 0x61, 0x6c, 0x6c, 0x5f,
  0x31, 0x3a, 0x30, 0x2f, 0x70, 0x61, 0x64, 0x00, 0x02, 0x00, 0x00, 0x00,
  0x01, 0x00, 0x00, 0x00, 0x04, 0x00, 0x00, 0x00, 0x00, 0x00, 0x0e, 0x00,
  0x14, 0x00, 0x08, 0x00, 0x07, 0x00, 0x00, 0x00, 0x0c, 0x00, 0x10, 0x00,
  0x0e, 0x00, 0x00, 0x00, 0x00, 0x00, 0x00, 0x09, 0x78, 0x00, 0x00, 0x00,
  0x28, 0x00, 0x00, 0x00, 0x04, 0x00, 0x00, 0x00, 0x44, 0xff, 0xff, 0xff,
  0x14, 0x00, 0x00, 0x00, 0x04, 0x00, 0x00, 0x00, 0x01, 0x00, 0x00, 0x00,
  0xfd, 0xff, 0xff, 0xff, 0xff, 0xff, 0xff, 0xff, 0x01, 0x00, 0x00, 0x00,
  0x1c, 0x1f, 0x33, 0x3e, 0x44, 0x00, 0x00, 0x00, 0x74, 0x65, 0x72, 0x72,
  0x61, 0x5f, 0x67, 0x75, 0x61, 0x72, 0x64, 0x5f, 0x63, 0x72, 0x6f, 0x77,
  0x5f, 0x31, 0x2f, 0x63, 0x6c, 0x73, 0x5f, 0x31, 0x2f, 0x4d, 0x61, 0x74,
  0x4d, 0x75, 0x6c, 0x3b, 0x74, 0x65, 0x72, 0x72, 0x61, 0x5f, 0x67, 0x75,
  0x61, 0x72, 0x64, 0x5f, 0x63, 0x72, 0x6f, 0x77, 0x5f, 0x31, 0x2f, 0x63,
  0x6c, 0x73, 0x5f, 0x31, 0x2f, 0x42, 0x69, 0x61, 0x73, 0x41, 0x64, 0x64,
  0x2f, 0x70, 0x61, 0x64, 0x00, 0x00, 0x00, 0x00, 0x02, 0x00, 0x00, 0x00,
  0x01, 0x00, 0x00, 0x00, 0x04, 0x00, 0x00, 0x00, 0x00, 0x00, 0x16, 0x00,
  0x18, 0x00, 0x08, 0x00, 0x06, 0x00, 0x00, 0x00, 0x0c, 0x00, 0x10, 0x00,
  0x00, 0x00, 0x00, 0x00, 0x14, 0x00, 0x07, 0x00, 0x16, 0x00, 0x00, 0x00,
  0x00, 0x00, 0x09, 0x01, 0x70, 0x00, 0x00, 0x00, 0x4c, 0x00, 0x00, 0x00,
  0x28, 0x00, 0x00, 0x00, 0x04, 0x00, 0x00, 0x00, 0x04, 0x00, 0x00, 0x00,
  0x01, 0x00, 0x00, 0x00, 0x20, 0x00, 0x00, 0x00, 0x20, 0x00, 0x00, 0x00,
  0x04, 0x00, 0x00, 0x00, 0x0c, 0x00, 0x0c, 0x00, 0x00, 0x00, 0x00, 0x00,
  0x04, 0x00, 0x08, 0x00, 0x0c, 0x00, 0x00, 0x00, 0x14, 0x00, 0x00, 0x00,
  0x04, 0x00, 0x00, 0x00, 0x01, 0x00, 0x00, 0x00, 0x80, 0xff, 0xff, 0xff,
  0xff, 0xff, 0xff, 0xff, 0x01, 0x00, 0x00, 0x00, 0x81, 0x80, 0x80, 0x3b,
  0x1a, 0x00, 0x00, 0x00, 0x73, 0x65, 0x72, 0x76, 0x69, 0x6e, 0x67, 0x5f,
  0x64, 0x65, 0x66, 0x61, 0x75, 0x6c, 0x74, 0x5f, 0x74, 0x65, 0x72, 0x72,
  0x61, 0x5f, 0x69, 0x6e, 0x3a, 0x30, 0x00, 0x00, 0x04, 0x00, 0x00, 0x00,
  0x01, 0x00, 0x00, 0x00, 0x20, 0x00, 0x00, 0x00, 0x20, 0x00, 0x00, 0x00,
  0x04, 0x00, 0x00, 0x00, 0x03, 0x00, 0x00, 0x00, 0x4c, 0x00, 0x00, 0x00,
  0x2c, 0x00, 0x00, 0x00, 0x10, 0x00, 0x00, 0x00, 0x0c, 0x00, 0x0c, 0x00,
  0x07, 0x00, 0x00, 0x00, 0x00, 0x00, 0x08, 0x00, 0x0c, 0x00, 0x00, 0x00,
  0x00, 0x00, 0x00, 0x41, 0x41, 0x00, 0x00, 0x00, 0x0c, 0x00, 0x10, 0x00,
  0x07, 0x00, 0x00, 0x00, 0x08, 0x00, 0x0c, 0x00, 0x0c, 0x00, 0x00, 0x00,
  0x00, 0x00, 0x00, 0x19, 0x02, 0x00, 0x00, 0x00, 0x19, 0x00, 0x00, 0x00,
  0x0c, 0x00, 0x10, 0x00, 0x07, 0x00, 0x08, 0x00, 0x00, 0x00, 0x0c, 0x00,
  0x0c, 0x00, 0x00, 0x00, 0x00, 0x00, 0x00, 0x20, 0x08, 0x00, 0x00, 0x00,
  0x20, 0x00, 0x00, 0x00, 0x0c, 0x00, 0x00, 0x00, 0x4e, 0x65, 0x75, 0x74,
  0x72, 0x6f, 0x6e, 0x47, 0x72, 0x61, 0x70, 0x68, 0x00, 0x00, 0x00, 0x00
};

static const unsigned int model_data_len = 8208;
