/*
 * Copyright 2026 NXP
 *
 * SPDX-License-Identifier: BSD-3-Clause
 */

// 自作モデル（TerraGuard 3クラス: none/crow/human）を neutron-converter(mcxn94x)
// で NPU 変換し、tools/ml/make_model_data_h.py で SDK 枠に流し込んだもの。
// 元 op resolver スニペット（model_cifarnet_ops_npu.cpp を合わせること）:
/*
// Register operators for TFLite Micro.
static tflite::MicroMutableOpResolver<3> s_microOpResolver;
s_microOpResolver.AddSoftmax();
s_microOpResolver.AddSlice();
s_microOpResolver.AddCustom(tflite::GetString_NEUTRON_GRAPH(), tflite::Register_NEUTRON_GRAPH());
*/

#ifdef __arm__
#include <cmsis_compiler.h>
#else
#define __ALIGNED(x) __attribute__((aligned(x)))
#endif

#if defined(MCXN947_cm33_core0_SERIES)
#define __PLACEMENT __attribute__((section(".model")))
#else
#define __PLACEMENT
#endif

#define MODEL_NAME "terra_guard_crow"
// int8 入力をそのまま使う想定（前段で量子化済み）。MODEL_ConvertInput が
// (x - MEAN)/STD を行うため、恒等変換になるよう 0/1 にしておく。
#define MODEL_INPUT_MEAN 0.0f
#define MODEL_INPUT_STD 1.0f

constexpr int kTensorArenaSize = 65536;

static const uint8_t model_data[] __ALIGNED(16) __PLACEMENT = {
  0x20, 0x00, 0x00, 0x00, 0x54, 0x46, 0x4c, 0x33, 0x00, 0x00, 0x00, 0x00,
  0x00, 0x00, 0x12, 0x00, 0x1c, 0x00, 0x04, 0x00, 0x08, 0x00, 0x0c, 0x00,
  0x10, 0x00, 0x14, 0x00, 0x00, 0x00, 0x18, 0x00, 0x12, 0x00, 0x00, 0x00,
  0x03, 0x00, 0x00, 0x00, 0x74, 0x1f, 0x00, 0x00, 0x18, 0x1a, 0x00, 0x00,
  0xb0, 0x19, 0x00, 0x00, 0x50, 0x00, 0x00, 0x00, 0x04, 0x00, 0x00, 0x00,
  0x01, 0x00, 0x00, 0x00, 0x0c, 0x00, 0x00, 0x00, 0x08, 0x00, 0x0c, 0x00,
  0x04, 0x00, 0x08, 0x00, 0x08, 0x00, 0x00, 0x00, 0x08, 0x00, 0x00, 0x00,
  0x06, 0x00, 0x00, 0x00, 0x26, 0x00, 0x00, 0x00, 0x67, 0x72, 0x61, 0x70,
  0x68, 0x5f, 0x30, 0x5f, 0x6f, 0x70, 0x65, 0x72, 0x61, 0x74, 0x6f, 0x72,
  0x5f, 0x31, 0x5f, 0x4f, 0x72, 0x69, 0x67, 0x69, 0x6e, 0x61, 0x6c, 0x4e,
  0x75, 0x6d, 0x43, 0x68, 0x61, 0x6e, 0x6e, 0x65, 0x6c, 0x73, 0x00, 0x00,
  0x07, 0x00, 0x00, 0x00, 0x54, 0x19, 0x00, 0x00, 0x38, 0x19, 0x00, 0x00,
  0x14, 0x19, 0x00, 0x00, 0x30, 0x15, 0x00, 0x00, 0x2c, 0x00, 0x00, 0x00,
  0x18, 0x00, 0x00, 0x00, 0x04, 0x00, 0x00, 0x00, 0xa2, 0xe5, 0xff, 0xff,
  0x04, 0x00, 0x00, 0x00, 0x04, 0x00, 0x00, 0x00, 0x02, 0x00, 0x00, 0x00,
  0xb2, 0xe5, 0xff, 0xff, 0x04, 0x00, 0x00, 0x00, 0x01, 0x00, 0x00, 0x00,
  0x00, 0x00, 0x00, 0x00, 0xc2, 0xe5, 0xff, 0xff, 0x04, 0x00, 0x00, 0x00,
  0xec, 0x14, 0x00, 0x00, 0x6b, 0x17, 0xcf, 0x16, 0xd0, 0x1b, 0x55, 0x9a,
  0x08, 0x1e, 0x5d, 0x1e, 0x14, 0x1e, 0x9a, 0x96, 0xe6, 0x12, 0x82, 0x1b,
  0xf3, 0x1e, 0x17, 0x96, 0xca, 0x1b, 0x0b, 0x1f, 0x3e, 0x1f, 0xbc, 0x93,
  0xa4, 0x8e, 0x90, 0x1a, 0x43, 0x1e, 0xf6, 0x0e, 0xa8, 0x17, 0x66, 0x1e,
  0x58, 0x1e, 0xb6, 0x96, 0x2a, 0x4e, 0x6a, 0x53, 0x97, 0x53, 0xfd, 0x52,
  0x51, 0x4f, 0x72, 0x4e, 0x0c, 0x4e, 0x11, 0x4e, 0x02, 0xbf, 0x0f, 0x1f,
  0x01, 0x0f, 0x08, 0x4f, 0x25, 0x71, 0xd7, 0xab, 0x3f, 0xd1, 0x2c, 0x51,
  0xe6, 0xf3, 0x0a, 0xfb, 0xeb, 0x23, 0xe7, 0x6d, 0x0d, 0x69, 0x1a, 0xf9,
  0x18, 0xc5, 0xd9, 0xe7, 0xd9, 0xbc, 0x0e, 0x2d, 0xea, 0x09, 0x23, 0x00,
  0xf6, 0x7d, 0x33, 0x11, 0xe5, 0x81, 0xd9, 0x23, 0xe3, 0x01, 0xec, 0xf1,
  0x20, 0x1f, 0xd0, 0x42, 0xf1, 0x7b, 0x16, 0x0d, 0xd4, 0x01, 0x31, 0x3b,
  0x13, 0xb2, 0xe4, 0x1a, 0xf4, 0xf5, 0x2e, 0x79, 0xe5, 0x57, 0xf6, 0x0a,
  0x43, 0x34, 0xf9, 0x46, 0xfb, 0x01, 0x1d, 0x25, 0xe6, 0xf5, 0x0b, 0x15,
  0xe3, 0x54, 0x03, 0xd8, 0x18, 0x25, 0x18, 0xfc, 0x1b, 0x44, 0xf5, 0xe9,
  0xd0, 0xfc, 0x2e, 0x52, 0xd3, 0x61, 0x27, 0xde, 0x06, 0xd9, 0xc4, 0xef,
  0xff, 0x61, 0x14, 0xe8, 0x2f, 0x1e, 0xef, 0x53, 0xf2, 0x55, 0x03, 0xfa,
  0xdf, 0xb2, 0x05, 0xda, 0x0d, 0x64, 0xcd, 0x16, 0xca, 0xe9, 0x1a, 0x0c,
  0xfe, 0x7f, 0x21, 0x17, 0xcb, 0xa7, 0x1b, 0x71, 0xf5, 0x7f, 0xf3, 0x0c,
  0x28, 0x2b, 0x10, 0x7f, 0x21, 0x7f, 0x08, 0xde, 0xf2, 0xb6, 0x0c, 0xe9,
  0xfc, 0xc4, 0xff, 0x05, 0xe3, 0xfb, 0xd2, 0x7c, 0x20, 0x47, 0x0b, 0xfb,
  0x15, 0xc4, 0xff, 0x14, 0xff, 0x5b, 0xe9, 0x0b, 0x20, 0x2d, 0xe2, 0x12,
  0x17, 0x68, 0xdd, 0x1f, 0x01, 0xfe, 0xe9, 0x2a, 0xfc, 0x49, 0xe9, 0xe1,
  0xc0, 0xc4, 0x33, 0x7f, 0xd6, 0x5a, 0xcf, 0xfd, 0xd4, 0xc0, 0xe4, 0xf3,
  0xfb, 0x63, 0xeb, 0xfc, 0xdd, 0xfa, 0xd5, 0x58, 0x0f, 0x49, 0xdf, 0x06,
  0x30, 0xf9, 0x37, 0xcb, 0xef, 0x7f, 0x0f, 0xfa, 0x0b, 0xfe, 0xfa, 0x5b,
  0xc9, 0x70, 0x10, 0x1f, 0xf6, 0x9c, 0xff, 0x27, 0x18, 0x6d, 0x08, 0x06,
  0x15, 0xf5, 0x0a, 0x74, 0x01, 0x43, 0x1e, 0x2b, 0x25, 0x81, 0x12, 0x0d,
  0xfd, 0x22, 0xff, 0xe3, 0xd6, 0xf1, 0xf8, 0x26, 0x1d, 0x1d, 0x33, 0xdf,
  0x2f, 0xb4, 0x01, 0x44, 0xef, 0x41, 0xed, 0x06, 0xe9, 0xfb, 0x18, 0x1d,
  0xf0, 0x31, 0xd6, 0x25, 0x2e, 0xc9, 0x26, 0x29, 0x95, 0x1e, 0x5f, 0x1f,
  0xd0, 0x1e, 0x94, 0x17, 0xa0, 0x0a, 0xb9, 0x17, 0x8b, 0x1b, 0x4d, 0xa2,
  0x6f, 0x22, 0xcf, 0x1e, 0x93, 0x22, 0x0a, 0x1a, 0x08, 0x16, 0x65, 0x1b,
  0xe9, 0x1a, 0x46, 0xa3, 0x33, 0x22, 0xae, 0x0e, 0x23, 0x22, 0x90, 0x92,
  0x5c, 0x96, 0xb5, 0x1b, 0xeb, 0x92, 0xbb, 0x9f, 0x56, 0x1a, 0x8e, 0x97,
  0x2b, 0x0b, 0x6f, 0x1a, 0x2b, 0x1a, 0xfc, 0x17, 0x0b, 0x22, 0x9e, 0x16,
  0xc4, 0x1b, 0x6f, 0x9a, 0x8f, 0x1a, 0x6d, 0x1b, 0xc3, 0x1e, 0xcc, 0x1b,
  0xfd, 0x22, 0xde, 0x17, 0x66, 0x1a, 0x27, 0x9a, 0xb5, 0x92, 0xf5, 0x0e,
  0xfe, 0x1e, 0x64, 0x97, 0xfb, 0x1f, 0x5c, 0x12, 0xe1, 0x52, 0xac, 0x56,
  0x85, 0x4e, 0xce, 0x52, 0x33, 0x52, 0x18, 0x52, 0x39, 0x57, 0x26, 0x5b,
  0xf4, 0x57, 0x71, 0x53, 0x5f, 0x52, 0xea, 0x52, 0x9b, 0x57, 0x7f, 0x56,
  0xd7, 0x53, 0x95, 0x53, 0x13, 0xee, 0xfa, 0x0a, 0xac, 0xc0, 0x3c, 0xa3,
  0x7f, 0xfb, 0x0f, 0x05, 0x7f, 0xde, 0x07, 0x31, 0x2e, 0x06, 0x1d, 0x29,
  0xaf, 0x30, 0x09, 0xed, 0xae, 0xfb, 0x4a, 0x05, 0x0b, 0xd0, 0xff, 0x82,
  0x69, 0xfd, 0x29, 0x17, 0xbb, 0xd2, 0x20, 0xb4, 0x4a, 0xf3, 0xfc, 0xf5,
  0xde, 0xe4, 0xdc, 0x01, 0x02, 0xfb, 0x02, 0x02, 0x31, 0x11, 0xd8, 0x0b,
  0x81, 0xdd, 0x15, 0xae, 0x6f, 0x58, 0x81, 0x2f, 0x63, 0x00, 0x00, 0x12,
  0xef, 0x11, 0x10, 0xf1, 0x42, 0x00, 0x0c, 0x15, 0x02, 0xf1, 0xd0, 0x09,
  0x55, 0x6b, 0x0b, 0x06, 0x4c, 0x1c, 0x05, 0x25, 0xed, 0xf1, 0x38, 0x02,
  0xd4, 0xf6, 0xe9, 0x23, 0x56, 0xd3, 0x0e, 0x16, 0x3b, 0x49, 0x04, 0xcb,
  0x49, 0x24, 0x0e, 0xfc, 0x24, 0x36, 0x25, 0x07, 0x81, 0xf9, 0xf9, 0x0e,
  0xc0, 0xdb, 0xf6, 0x30, 0x28, 0x2e, 0x49, 0xcb, 0x11, 0x35, 0x2f, 0xdf,
  0x72, 0x02, 0x03, 0x0f, 0xf3, 0x06, 0x36, 0x29, 0x60, 0x00, 0x11, 0xfd,
  0xc9, 0x05, 0xf3, 0xe5, 0xaa, 0xca, 0x13, 0x21, 0x1d, 0x06, 0xea, 0x17,
  0x01, 0xf6, 0x15, 0xd9, 0xbc, 0x02, 0x99, 0x85, 0x2b, 0x33, 0xe5, 0x12,
  0x28, 0xf4, 0xec, 0x10, 0x46, 0x19, 0xf4, 0xff, 0xea, 0x03, 0xec, 0x1b,
  0xc3, 0xfa, 0x01, 0x3a, 0x33, 0x48, 0xe3, 0xf5, 0x32, 0xe7, 0xfc, 0x1a,
  0x9b, 0xd1, 0x32, 0x98, 0x0c, 0xd9, 0x1a, 0x10, 0xb5, 0xd3, 0x46, 0x19,
  0x67, 0xe3, 0x07, 0xf3, 0x28, 0xed, 0xea, 0x03, 0xb3, 0xe1, 0x06, 0xf5,
  0xd5, 0xeb, 0xd5, 0x25, 0xd1, 0x14, 0x30, 0xb4, 0xc5, 0xf5, 0xb8, 0x2f,
  0x6a, 0xe8, 0x07, 0xf8, 0x09, 0x41, 0x25, 0xa7, 0x0d, 0xdb, 0x0b, 0x0e,
  0xb7, 0xd4, 0xcd, 0xff, 0x92, 0xc2, 0x32, 0x08, 0x07, 0xfb, 0x17, 0x39,
  0xde, 0x08, 0x0f, 0xb8, 0x2a, 0xd9, 0xbc, 0x54, 0x52, 0xe1, 0x27, 0x1d,
  0xea, 0xca, 0x3f, 0xb3, 0x31, 0xf2, 0x07, 0xff, 0x24, 0xbd, 0x1b, 0x29,
  0xff, 0x40, 0xf5, 0x19, 0x7f, 0xed, 0x03, 0x30, 0xa6, 0xc2, 0x37, 0xfc,
  0xb2, 0x5e, 0x90, 0xf6, 0x1c, 0x03, 0x14, 0xf9, 0x30, 0x2d, 0x55, 0xde,
  0x67, 0x32, 0x1f, 0x0c, 0x0e, 0x3d, 0x05, 0xfb, 0xdd, 0xc9, 0x26, 0x2e,
  0xe6, 0x1e, 0xee, 0x32, 0x34, 0x1c, 0x16, 0xf9, 0x01, 0xb6, 0xe8, 0x96,
  0x65, 0xfc, 0x35, 0xee, 0x19, 0x02, 0xdd, 0x27, 0x5d, 0x09, 0x0a, 0xf6,
  0xc3, 0xed, 0xe1, 0xfb, 0xc1, 0x98, 0x0f, 0x17, 0xeb, 0xde, 0x0f, 0xf5,
  0x2e, 0xc8, 0x42, 0x24, 0xa8, 0x04, 0xf8, 0x90, 0x7f, 0x0a, 0x27, 0xe8,
  0x43, 0xe1, 0x50, 0xf9, 0x4e, 0x07, 0x03, 0x01, 0x12, 0x21, 0x1d, 0xea,
  0xc6, 0xd9, 0x3d, 0x34, 0x14, 0x3e, 0x1f, 0x04, 0x45, 0xc7, 0x15, 0x0a,
  0x63, 0xc7, 0x0c, 0x56, 0xed, 0xd7, 0xed, 0xf7, 0xfa, 0x0d, 0x33, 0xdc,
  0x24, 0xf1, 0x19, 0xf7, 0x7c, 0xe3, 0xe6, 0xf3, 0xdb, 0x2b, 0x1c, 0x29,
  0xfd, 0x0f, 0xfd, 0x0a, 0xe8, 0x08, 0x41, 0xd0, 0x26, 0x9a, 0x35, 0xd4,
  0x22, 0xc5, 0x14, 0x18, 0xd6, 0x5f, 0x10, 0x1f, 0xf7, 0xe9, 0x04, 0xf0,
  0x2b, 0xbb, 0x00, 0x14, 0xb1, 0x3d, 0xf0, 0x17, 0xdb, 0xf8, 0x00, 0xe6,
  0xdf, 0xf6, 0x41, 0x19, 0x9d, 0x1a, 0x83, 0xcf, 0x34, 0xdc, 0x2a, 0x01,
  0xa2, 0x17, 0x47, 0xc7, 0x16, 0x05, 0xf7, 0x00, 0x3c, 0xe5, 0x1b, 0xf6,
  0xee, 0x56, 0x1e, 0x15, 0x1d, 0xf4, 0x0f, 0x10, 0xcd, 0x1c, 0x20, 0xe5,
  0xb3, 0xed, 0xee, 0x54, 0xf3, 0xec, 0xdc, 0x04, 0x58, 0x5c, 0x7f, 0xfe,
  0x32, 0x2d, 0x15, 0x02, 0x49, 0x37, 0x01, 0xf5, 0xca, 0x3d, 0x07, 0x28,
  0xb9, 0xea, 0xe5, 0x37, 0x73, 0x66, 0x44, 0xc6, 0x9b, 0xdf, 0x5b, 0xfb,
  0x3d, 0x11, 0x14, 0x10, 0x60, 0x2f, 0x60, 0xc1, 0x2c, 0x03, 0x17, 0x0c,
  0x3f, 0x17, 0xe7, 0x06, 0xbd, 0x0f, 0x43, 0x0a, 0xe5, 0x08, 0xef, 0xff,
  0x32, 0xf7, 0x4c, 0xe8, 0xed, 0x14, 0xc7, 0x21, 0x4d, 0x01, 0x20, 0xe3,
  0x5a, 0x1a, 0x44, 0xca, 0x27, 0xf9, 0xf2, 0xfb, 0x26, 0x0c, 0xf1, 0x17,
  0xdd, 0x29, 0x08, 0x05, 0xe9, 0x20, 0x23, 0x16, 0x33, 0x11, 0x5b, 0xd5,
  0xdb, 0x9e, 0x9e, 0xab, 0xdd, 0xe1, 0xd2, 0xfc, 0xc7, 0xf5, 0xc6, 0xf4,
  0x50, 0x40, 0x19, 0x19, 0x20, 0xa3, 0xda, 0xf7, 0x8c, 0x3e, 0x18, 0x42,
  0xfa, 0xd9, 0x2f, 0x05, 0x7c, 0xd8, 0x07, 0x1b, 0x7f, 0xdb, 0x02, 0x09,
  0x38, 0xca, 0x03, 0x3c, 0x0f, 0xc4, 0xf6, 0x03, 0x4c, 0xff, 0xff, 0x3c,
  0x7f, 0xb3, 0xe3, 0xec, 0xd3, 0x27, 0x19, 0x41, 0xb8, 0xe4, 0xe7, 0xaa,
  0x24, 0xda, 0xfc, 0x12, 0xfc, 0xeb, 0xe8, 0xf5, 0x7f, 0xff, 0xff, 0x0c,
  0x7f, 0xdc, 0xf8, 0x03, 0x61, 0x15, 0x0f, 0x01, 0x57, 0xe8, 0xfa, 0x04,
  0x12, 0x45, 0x1f, 0x1d, 0xee, 0x41, 0x4f, 0xb1, 0x4f, 0xf0, 0xe4, 0x13,
  0xe2, 0xd5, 0xde, 0x22, 0xdb, 0xb8, 0xc0, 0x05, 0xc4, 0xfd, 0xe4, 0x0a,
  0xa7, 0xfe, 0xf5, 0x39, 0x22, 0x1c, 0xe8, 0x0d, 0xd7, 0xd5, 0xf8, 0x39,
  0x7e, 0x20, 0x2a, 0xbf, 0x67, 0x27, 0x15, 0x0b, 0x51, 0x3a, 0x1a, 0x03,
  0x15, 0x0e, 0x05, 0x19, 0xfc, 0x0d, 0xfe, 0xf0, 0xae, 0x2b, 0xe7, 0xf5,
  0x5d, 0x1d, 0x1d, 0xe1, 0xcc, 0xf5, 0x07, 0x55, 0x6d, 0x20, 0x4a, 0xc1,
  0x43, 0x01, 0xf5, 0xf4, 0x03, 0xfc, 0xd9, 0x06, 0x3b, 0x73, 0x28, 0xf2,
  0x3f, 0x1c, 0x1e, 0xf5, 0xbe, 0x02, 0xf2, 0x26, 0x22, 0x02, 0xe3, 0xfb,
  0x1a, 0x49, 0xf4, 0x51, 0x75, 0xe5, 0x61, 0xaa, 0x4e, 0x1e, 0xdd, 0x08,
  0xdd, 0x08, 0xfc, 0x09, 0xf2, 0xc5, 0x07, 0xf4, 0x2c, 0xf6, 0xdb, 0x0f,
  0xc1, 0xe1, 0x15, 0x30, 0x45, 0xe1, 0x01, 0x0c, 0xfe, 0x43, 0x10, 0x11,
  0x9f, 0xa1, 0xf0, 0x0b, 0x6d, 0xc1, 0x03, 0xf2, 0x1a, 0xef, 0x07, 0xf3,
  0x72, 0xd1, 0xf2, 0x2e, 0xd3, 0xed, 0xeb, 0x10, 0xc4, 0x0f, 0x1b, 0x01,
  0xc2, 0xe3, 0xfa, 0x0d, 0xa4, 0xff, 0x08, 0x05, 0x8f, 0x1c, 0x32, 0xa4,
  0x27, 0xde, 0x15, 0x0c, 0x0d, 0xdb, 0x00, 0xf3, 0x15, 0xc0, 0xf8, 0x0b,
  0xd6, 0xea, 0x00, 0xe5, 0xf3, 0xab, 0x2f, 0xf5, 0xe4, 0xe8, 0xda, 0x0e,
  0x7a, 0x55, 0xf7, 0x3f, 0xac, 0xe1, 0xf4, 0xa6, 0x34, 0xe8, 0x09, 0xfe,
  0x1a, 0xcf, 0xeb, 0x04, 0x06, 0x02, 0xfd, 0x14, 0xef, 0xfc, 0xf2, 0x1a,
  0xce, 0xca, 0x1d, 0xf2, 0x00, 0x1d, 0x0e, 0xf9, 0xd4, 0xed, 0xe9, 0x5a,
  0x06, 0x2c, 0x3f, 0xd6, 0x6e, 0x1b, 0x19, 0xf2, 0x03, 0x03, 0x11, 0xf4,
  0x26, 0x03, 0x11, 0x0a, 0xdd, 0x00, 0xfd, 0x13, 0xa4, 0xe3, 0x1f, 0x0a,
  0xea, 0x04, 0xf6, 0x07, 0xbc, 0xb6, 0xdd, 0x32, 0xe9, 0xdc, 0x39, 0x99,
  0x7f, 0x0f, 0x29, 0x06, 0x05, 0x01, 0xfb, 0x07, 0x35, 0xef, 0xfd, 0x12,
  0xdc, 0x15, 0x05, 0xfd, 0x96, 0xbe, 0x01, 0x2d, 0xe4, 0x2a, 0xe7, 0x19,
  0x31, 0x38, 0x1f, 0x1a, 0x65, 0xd7, 0x37, 0x18, 0x60, 0x1a, 0xf1, 0xf0,
  0x2d, 0x29, 0xdf, 0xff, 0x59, 0xb2, 0xe0, 0x15, 0x6f, 0xef, 0x1c, 0xeb,
  0xc8, 0x53, 0x2e, 0x48, 0x7f, 0xc8, 0xf5, 0x11, 0xee, 0xe9, 0x38, 0x1f,
  0x39, 0x4d, 0x3b, 0xc9, 0x35, 0xea, 0x0e, 0xfb, 0xd6, 0xd3, 0xf4, 0x01,
  0x27, 0xbb, 0x1d, 0xdb, 0x0e, 0xe1, 0xfb, 0x19, 0xe7, 0x64, 0x1b, 0x0a,
  0x1d, 0xd0, 0xf4, 0xfc, 0x9a, 0xf2, 0xf6, 0x05, 0x34, 0x26, 0xf6, 0x25,
  0x24, 0xf6, 0x11, 0xf1, 0x55, 0xcb, 0x1d, 0x09, 0x5f, 0xd7, 0x1c, 0x00,
  0x99, 0x0c, 0xcc, 0xfc, 0x06, 0x11, 0x22, 0x01, 0x39, 0xe9, 0x0a, 0xf5,
  0xf6, 0x21, 0x2d, 0x54, 0xd3, 0x1e, 0x45, 0xfd, 0x13, 0xf1, 0x19, 0x11,
  0x4f, 0xe2, 0x11, 0x0d, 0x0e, 0xe4, 0x06, 0x21, 0x47, 0x18, 0x22, 0xf5,
  0xa7, 0x44, 0x00, 0x2f, 0x59, 0x38, 0x0c, 0x00, 0x81, 0xf4, 0xf5, 0x17,
  0x42, 0x60, 0xf1, 0xc1, 0x42, 0x1d, 0x25, 0xfe, 0xcd, 0xed, 0xde, 0x03,
  0x43, 0x24, 0x20, 0xfb, 0x03, 0x02, 0xfb, 0xf7, 0x9f, 0x7f, 0x18, 0x2b,
  0x2d, 0x0d, 0x1b, 0xfa, 0xa5, 0xda, 0x10, 0x1e, 0x30, 0x78, 0x59, 0xb2,
  0x75, 0x00, 0x23, 0x04, 0x4c, 0x1d, 0xf3, 0xfb, 0xf7, 0xe3, 0xf1, 0x1d,
  0xc0, 0xfb, 0xcb, 0x14, 0x91, 0x30, 0x1a, 0x0d, 0x43, 0x17, 0x00, 0xf6,
  0xc8, 0xfa, 0x43, 0x45, 0x7f, 0x30, 0x1b, 0xbc, 0x58, 0x22, 0xfb, 0xfa,
  0x4a, 0x29, 0x1c, 0xf8, 0x9d, 0x22, 0x80, 0x22, 0x12, 0x22, 0x37, 0xa3,
  0x8d, 0x22, 0x6a, 0x1e, 0x57, 0x1e, 0xec, 0x1e, 0xa1, 0x23, 0x27, 0x26,
  0x32, 0x22, 0x66, 0xa6, 0x5d, 0x26, 0x95, 0x1e, 0x32, 0x1e, 0xc8, 0x1e,
  0xa1, 0x1f, 0xc8, 0x22, 0xb0, 0x1e, 0x90, 0xa3, 0x3d, 0x23, 0x5f, 0x1b,
  0xd5, 0x16, 0xcc, 0x1b, 0x55, 0x9f, 0xb1, 0x12, 0x15, 0x1f, 0x66, 0x1b,
  0xe8, 0x9f, 0xdd, 0x22, 0x62, 0x1f, 0x6a, 0x22, 0x38, 0xa3, 0xb0, 0x97,
  0xd3, 0x1e, 0x4e, 0x1b, 0xb1, 0xa3, 0x8e, 0x26, 0x78, 0x23, 0x20, 0x26,
  0x43, 0xa2, 0x38, 0x97, 0x8a, 0x17, 0x14, 0x1a, 0x3b, 0xa2, 0x7b, 0x23,
  0x3c, 0x22, 0x75, 0x22, 0x11, 0x22, 0xb5, 0x1e, 0x8f, 0x1f, 0xc6, 0x1f,
  0xd2, 0x1f, 0xcc, 0x1e, 0x0c, 0x22, 0x61, 0x1e, 0xe1, 0x23, 0x31, 0x1e,
  0x51, 0x22, 0xe0, 0x1e, 0xbd, 0x23, 0xe7, 0x1b, 0x0a, 0x26, 0x69, 0x1e,
  0x84, 0x22, 0x0d, 0x17, 0xe4, 0x1e, 0x29, 0x1b, 0xbb, 0x22, 0x19, 0x1b,
  0x07, 0x23, 0x8a, 0x16, 0x17, 0x4f, 0xfb, 0x4e, 0xb0, 0x53, 0x7f, 0x56,
  0x08, 0x4f, 0x19, 0x4e, 0x81, 0x53, 0x28, 0x53, 0x18, 0x4a, 0x5e, 0x4e,
  0x6f, 0x53, 0x5d, 0x53, 0xa5, 0x56, 0x57, 0x4e, 0xc1, 0x4f, 0x6d, 0x4f,
  0x31, 0x4f, 0x20, 0x53, 0xf7, 0x53, 0x6d, 0x53, 0x35, 0x4f, 0xcd, 0x53,
  0x57, 0x4f, 0xb7, 0x53, 0x01, 0x15, 0x27, 0x7f, 0x15, 0x08, 0x28, 0x7f,
  0xfa, 0x21, 0x00, 0xef, 0x3f, 0x85, 0xf1, 0xb6, 0x23, 0x0b, 0x3f, 0x7f,
  0x1a, 0x3e, 0x0e, 0xbd, 0xeb, 0x25, 0x18, 0x18, 0xec, 0xf3, 0x21, 0x1d,
  0xf1, 0xe6, 0xed, 0x19, 0x14, 0xfa, 0x21, 0x36, 0x24, 0x23, 0x37, 0x17,
  0xe9, 0x89, 0x61, 0xe7, 0x1f, 0xd2, 0x0f, 0x49, 0xfb, 0x30, 0x0e, 0xfe,
  0xf8, 0x50, 0x3c, 0xe5, 0x1b, 0x56, 0x4c, 0xd9, 0xff, 0xea, 0xf5, 0x4c,
  0x3a, 0xe3, 0x17, 0x35, 0xcc, 0x3c, 0x0e, 0x04, 0x58, 0x6b, 0x84, 0x61,
  0x21, 0xec, 0x3c, 0x5d, 0x00, 0x3c, 0x00, 0xc9, 0x03, 0x27, 0x0d, 0x05,
  0x06, 0x28, 0x0a, 0xe4, 0xde, 0x1d, 0xfa, 0x06, 0xf0, 0x13, 0xdc, 0x10,
  0x8c, 0xb2, 0x18, 0x0e, 0x0d, 0x8d, 0x94, 0x72, 0xf7, 0x21, 0xe6, 0x11,
  0x16, 0x08, 0x2e, 0x24, 0x86, 0xb7, 0x47, 0x09, 0x8d, 0xac, 0x3a, 0x2d,
  0xe2, 0x02, 0xd5, 0xea, 0xe7, 0x12, 0xd2, 0x0f, 0xe4, 0xed, 0x2d, 0x0b,
  0xba, 0x9f, 0xb3, 0x37, 0xeb, 0x00, 0xd5, 0xf4, 0x0c, 0xee, 0x39, 0x14,
  0xd2, 0xe5, 0x6b, 0xeb, 0x03, 0xe8, 0x15, 0x19, 0xf3, 0xf0, 0xe8, 0x06,
  0xfa, 0xf9, 0xf7, 0xeb, 0x01, 0xce, 0x0a, 0x0e, 0xc5, 0x87, 0x08, 0x99,
  0xe8, 0xfc, 0xf9, 0xff, 0x0d, 0x00, 0x46, 0x1f, 0xf1, 0xa9, 0x18, 0x2c,
  0xe2, 0xd0, 0x2b, 0x05, 0x09, 0x58, 0xf0, 0x5b, 0xfe, 0x68, 0xed, 0x5d,
  0x11, 0xf4, 0xbc, 0x35, 0xf6, 0x8a, 0xe2, 0x95, 0x14, 0x62, 0x12, 0x6e,
  0xee, 0x9b, 0x21, 0xd1, 0xd3, 0xcb, 0xc2, 0xe2, 0xcd, 0x2b, 0xa1, 0xf4,
  0x07, 0x2a, 0xf7, 0x0d, 0xf3, 0x40, 0xe5, 0x2d, 0x39, 0xef, 0xd6, 0x37,
  0x6f, 0xbd, 0xca, 0x32, 0xf9, 0x2e, 0xe4, 0x22, 0x0a, 0xa4, 0xeb, 0x0b,
  0xe6, 0xcc, 0xcc, 0x09, 0xe8, 0x0e, 0xf3, 0x36, 0xff, 0x3a, 0xe7, 0x2d,
  0x27, 0x30, 0xfe, 0x31, 0xdf, 0x96, 0x03, 0xb0, 0x4a, 0xe0, 0xcf, 0x52,
  0x0b, 0x3e, 0xf3, 0x51, 0xe3, 0xac, 0x1c, 0xa7, 0x05, 0x9b, 0xfa, 0xf7,
  0xb4, 0xc8, 0x0f, 0xe5, 0x0d, 0xde, 0x2c, 0x50, 0xfe, 0xf7, 0x20, 0x3c,
  0x97, 0x50, 0x1b, 0xff, 0xcb, 0x63, 0x3c, 0xe6, 0x03, 0xe6, 0x24, 0x43,
  0xd8, 0x3f, 0x2c, 0xde, 0xad, 0x3d, 0x34, 0x11, 0xcc, 0x28, 0x16, 0x04,
  0x05, 0xc8, 0xef, 0x33, 0x09, 0xef, 0x02, 0x23, 0x04, 0x67, 0x1b, 0x1c,
  0x2e, 0x9b, 0x9a, 0x6a, 0x08, 0xed, 0x0c, 0x47, 0x0d, 0x49, 0x2b, 0xec,
  0x09, 0x4d, 0x33, 0x3d, 0xd4, 0x4f, 0x55, 0x19, 0x13, 0xcf, 0x17, 0x59,
  0x08, 0xec, 0x3f, 0x52, 0xf0, 0x2e, 0x09, 0x16, 0xce, 0xc7, 0x16, 0x09,
  0xf1, 0x05, 0x4c, 0x55, 0xee, 0x10, 0xe1, 0xc5, 0x02, 0x0c, 0x26, 0xfb,
  0xd1, 0x0a, 0xfe, 0xde, 0x09, 0xdc, 0x24, 0x56, 0x06, 0xcf, 0x34, 0x48,
  0xf6, 0x45, 0xff, 0x3a, 0x24, 0x30, 0x16, 0x9f, 0x10, 0xeb, 0x12, 0x4b,
  0x06, 0x47, 0x2a, 0xd1, 0xed, 0x2d, 0x1e, 0x19, 0x18, 0x13, 0xea, 0x22,
  0xf7, 0xb7, 0xe8, 0x25, 0x07, 0xc8, 0x02, 0x19, 0x48, 0x60, 0x2e, 0xfb,
  0xef, 0xba, 0xba, 0xed, 0x09, 0xce, 0x03, 0x21, 0xfa, 0x2b, 0x45, 0xf0,
  0x3b, 0x67, 0x14, 0x26, 0xfd, 0x6a, 0x1f, 0x3b, 0x37, 0xef, 0x28, 0x4d,
  0x18, 0xce, 0x0b, 0x42, 0x14, 0x54, 0x33, 0xfa, 0xbe, 0x9e, 0x5f, 0x6e,
  0x1d, 0xfa, 0x23, 0x3c, 0x17, 0x4c, 0x27, 0xd4, 0x00, 0x1b, 0x18, 0xdd,
  0xea, 0x49, 0x37, 0xdd, 0x06, 0x08, 0xdc, 0xe9, 0x04, 0x10, 0xec, 0xfd,
  0xba, 0xd3, 0x3d, 0x12, 0x86, 0x24, 0x34, 0xd4, 0xf6, 0x08, 0xd5, 0xfb,
  0xfe, 0xf0, 0x5a, 0x1b, 0x95, 0xb7, 0x2a, 0x0f, 0xbf, 0xc3, 0x58, 0xdc,
  0xf6, 0x0b, 0xbc, 0x10, 0xe6, 0xed, 0xc4, 0x0e, 0x06, 0xc2, 0x26, 0xe7,
  0xd6, 0xdd, 0x91, 0x6e, 0xdb, 0x08, 0xbc, 0xf1, 0xfb, 0xe0, 0x37, 0xfb,
  0xfe, 0xde, 0x2d, 0xe0, 0xaa, 0xde, 0x2d, 0xf1, 0xf8, 0x02, 0xef, 0x09,
  0xf9, 0x18, 0xd6, 0xee, 0xda, 0xea, 0x12, 0x32, 0x03, 0xae, 0xe1, 0x48,
  0xe3, 0xfd, 0xd1, 0xef, 0xe4, 0xc7, 0x1d, 0xf8, 0xe8, 0xae, 0x3f, 0x1b,
  0xe5, 0xe6, 0x28, 0x2c, 0xed, 0x59, 0xfe, 0x29, 0x16, 0x4c, 0xf9, 0x4e,
  0xf4, 0xb7, 0xc2, 0x2c, 0xb4, 0x3c, 0x6e, 0xa0, 0x10, 0x52, 0xe8, 0x4d,
  0xeb, 0xb6, 0x2e, 0xff, 0x1e, 0xbe, 0xcd, 0x30, 0xf1, 0xfb, 0x8e, 0x10,
  0x08, 0x3c, 0xde, 0x22, 0xf8, 0x26, 0x00, 0x19, 0x0f, 0x00, 0xf0, 0x18,
  0xe6, 0x43, 0xa6, 0x31, 0x0c, 0x3d, 0xf1, 0x26, 0xf3, 0xd1, 0x25, 0x12,
  0xf6, 0xc4, 0xfb, 0x58, 0xea, 0xdf, 0x02, 0x4e, 0x29, 0x38, 0xd0, 0x2a,
  0xfd, 0x4d, 0xe2, 0x29, 0x19, 0xc3, 0x0e, 0xfc, 0xe9, 0x9d, 0xfe, 0x25,
  0x23, 0x54, 0xee, 0x45, 0x0b, 0xd0, 0xf4, 0xf1, 0xef, 0x9d, 0xf3, 0xf0,
  0x03, 0xf2, 0x0d, 0xe0, 0xf9, 0xf6, 0x0f, 0x23, 0xfe, 0xf2, 0x2f, 0x50,
  0x9a, 0x3c, 0x12, 0x13, 0xc5, 0xaa, 0xd9, 0x93, 0x11, 0xe7, 0x28, 0x46,
  0xd8, 0x2c, 0x21, 0xfe, 0x90, 0x29, 0x44, 0x3d, 0xa0, 0x7a, 0x4f, 0x36,
  0xfa, 0xde, 0x11, 0x23, 0xed, 0xe1, 0x13, 0x0a, 0xc3, 0x7e, 0x4f, 0x35,
  0xc6, 0xce, 0xfc, 0x16, 0x0e, 0xc7, 0xf5, 0x2f, 0xe1, 0x36, 0x38, 0x13,
  0xc2, 0x7f, 0x47, 0x13, 0xfa, 0x62, 0x28, 0x4b, 0xf3, 0xc7, 0x25, 0x3b,
  0x17, 0xed, 0x31, 0x49, 0x02, 0x59, 0x24, 0x08, 0xb7, 0x94, 0xab, 0x2a,
  0xf4, 0xe1, 0x34, 0x51, 0xf8, 0x4c, 0x1b, 0xe7, 0xf2, 0x2f, 0x1d, 0xd8,
  0xc9, 0x69, 0xf8, 0x34, 0x1d, 0xf0, 0x24, 0x6d, 0x28, 0xe0, 0x18, 0x5d,
  0xd5, 0x46, 0xf4, 0x16, 0x03, 0x52, 0xeb, 0x81, 0x11, 0xfa, 0x1e, 0x60,
  0xf5, 0x3b, 0xf0, 0xeb, 0x00, 0x06, 0x07, 0xf3, 0x1c, 0x3f, 0xe1, 0x1f,
  0x16, 0xcb, 0x03, 0x08, 0x26, 0xf2, 0xff, 0x08, 0x37, 0x5a, 0x3e, 0x69,
  0xdc, 0x0f, 0x0c, 0xa8, 0x2d, 0xd6, 0xfd, 0x0d, 0x2c, 0x17, 0x1b, 0x3a,
  0x29, 0x19, 0x1f, 0x43, 0x46, 0x49, 0x55, 0x1c, 0x49, 0xfe, 0x2f, 0x25,
  0x42, 0xf9, 0x21, 0x31, 0xf5, 0x24, 0xf7, 0x08, 0xaa, 0xa2, 0xc7, 0xb1,
  0x37, 0x00, 0x17, 0x35, 0x07, 0x01, 0x05, 0xea, 0x18, 0x1c, 0x2b, 0x2b,
  0x0d, 0x02, 0x07, 0x08, 0xe9, 0x1a, 0xe7, 0x06, 0xe7, 0x20, 0xcb, 0x01,
  0x81, 0xd4, 0x3f, 0xf9, 0x34, 0xd7, 0x0b, 0xd8, 0xeb, 0xfd, 0xd4, 0xec,
  0x11, 0xdf, 0x4e, 0x23, 0xbb, 0xa7, 0x3d, 0x25, 0xbb, 0xb6, 0x28, 0xf5,
  0x0c, 0x04, 0xe4, 0xfd, 0xe9, 0xfe, 0xca, 0xf3, 0xd7, 0xff, 0x66, 0xf0,
  0xad, 0xa7, 0xd1, 0x2c, 0xfb, 0x0d, 0xcd, 0xf0, 0xfb, 0x17, 0x56, 0x00,
  0xeb, 0x04, 0x53, 0x14, 0xae, 0xcf, 0x55, 0x0d, 0xee, 0x20, 0xfa, 0xf2,
  0x08, 0xf6, 0xfc, 0x0b, 0xe1, 0xc4, 0x15, 0x2b, 0x8a, 0xb7, 0x84, 0x0a,
  0xf7, 0x24, 0xe8, 0x15, 0xdf, 0xcd, 0x28, 0x00, 0xfb, 0xcb, 0x17, 0x22,
  0xe8, 0xf6, 0x37, 0xec, 0x24, 0x69, 0x0a, 0x40, 0x2a, 0x7a, 0xf5, 0x3b,
  0x00, 0xc4, 0xb0, 0x4a, 0xc8, 0x47, 0x28, 0x2f, 0x18, 0x5f, 0xfb, 0x34,
  0xee, 0x99, 0x19, 0x1d, 0xd9, 0xcd, 0xc7, 0x16, 0xd4, 0xa1, 0xbf, 0x00,
  0xfd, 0x4b, 0xd8, 0x1e, 0x0d, 0x5b, 0xf1, 0x27, 0x20, 0xdc, 0xe8, 0x2b,
  0xbd, 0x34, 0x1d, 0xd8, 0xf8, 0x36, 0xea, 0x01, 0x11, 0xc9, 0x0b, 0x2a,
  0x2c, 0xe5, 0x05, 0x37, 0x3f, 0x17, 0xdf, 0x56, 0x1f, 0x56, 0x04, 0x2a,
  0x25, 0x47, 0xe2, 0x32, 0xcd, 0xd4, 0xf4, 0x2d, 0x68, 0x2c, 0xda, 0x5c,
  0x23, 0x45, 0xe2, 0x2c, 0xc7, 0x81, 0x0a, 0xc5, 0xd2, 0xdc, 0xcd, 0x11,
  0xec, 0xe6, 0xfd, 0xf0, 0x12, 0xe9, 0x12, 0x53, 0xfe, 0xf5, 0x2b, 0x36,
  0x9f, 0x41, 0x10, 0x1b, 0xe7, 0xa2, 0xaf, 0x01, 0x11, 0xfd, 0x3a, 0x5f,
  0xe4, 0x2e, 0x37, 0x18, 0x9b, 0x64, 0x0b, 0xed, 0x81, 0x55, 0x1b, 0x22,
  0x0c, 0xdd, 0x16, 0x19, 0xf0, 0xc2, 0x0d, 0x1e, 0x0c, 0x39, 0x2f, 0x4a,
  0x41, 0x2c, 0x36, 0xe6, 0xf2, 0xe5, 0x08, 0x3e, 0x06, 0x57, 0x1d, 0x34,
  0x03, 0x45, 0x5b, 0x44, 0xb8, 0x78, 0x23, 0x13, 0xfb, 0xef, 0x45, 0x42,
  0x15, 0xef, 0x19, 0x47, 0xfe, 0x1b, 0x44, 0xed, 0x3f, 0x18, 0xe0, 0x49,
  0x02, 0x00, 0x1e, 0x42, 0xd6, 0x27, 0xf9, 0xc7, 0xd6, 0x07, 0xfd, 0x22,
  0xd9, 0x1f, 0x1f, 0xed, 0xd8, 0xf3, 0xe3, 0x81, 0x16, 0x3c, 0xf8, 0xa3,
  0x12, 0x2b, 0x15, 0xbf, 0xed, 0x45, 0x15, 0xdf, 0xd6, 0xf1, 0xe5, 0x5a,
  0x41, 0xfc, 0x45, 0x7b, 0x24, 0x08, 0x1c, 0x7f, 0x12, 0x08, 0x2b, 0x7f,
  0xd3, 0x09, 0xfc, 0xd4, 0xfe, 0x1b, 0x26, 0x11, 0x41, 0x60, 0x14, 0x12,
  0x30, 0x42, 0x0d, 0xfd, 0xc8, 0xba, 0x81, 0xf3, 0x17, 0xde, 0x16, 0x45,
  0x1a, 0xe5, 0x0b, 0x1d, 0x03, 0xeb, 0xfb, 0x45, 0xd3, 0x03, 0xdb, 0xc0,
  0xd7, 0x01, 0xee, 0x82, 0xe1, 0xfb, 0x1a, 0xe0, 0xe3, 0x35, 0x14, 0xe3,
  0x2e, 0x3a, 0xcb, 0x4e, 0x17, 0x10, 0x43, 0x52, 0x32, 0x03, 0x24, 0x3c,
  0x23, 0xf8, 0x22, 0x64, 0x2a, 0x18, 0x13, 0xf2, 0x2e, 0xff, 0x4d, 0x16,
  0xc6, 0xa0, 0x22, 0xdf, 0xb6, 0x99, 0x35, 0x2f, 0x01, 0x16, 0x00, 0x1b,
  0x0f, 0x23, 0xd6, 0xfe, 0x07, 0x25, 0xfb, 0x08, 0x07, 0x0f, 0xeb, 0x0c,
  0x24, 0x0d, 0xfa, 0xf3, 0x01, 0x0a, 0x29, 0xed, 0xeb, 0x11, 0x3e, 0x11,
  0xab, 0xc1, 0x34, 0xef, 0xa4, 0x65, 0xf0, 0x9d, 0x0b, 0x04, 0xbd, 0xed,
  0xea, 0x00, 0xdd, 0x05, 0x05, 0xf1, 0xe0, 0xfe, 0x12, 0x01, 0xff, 0x02,
  0xe0, 0xda, 0x26, 0x0d, 0xd5, 0xa7, 0x1e, 0x27, 0xbd, 0xe9, 0x18, 0xe5,
  0xac, 0x5a, 0xdb, 0xe0, 0xfa, 0x0d, 0xf9, 0xe5, 0xe7, 0xfa, 0x05, 0x04,
  0x03, 0x08, 0xe8, 0x07, 0xf9, 0xb2, 0x21, 0xb2, 0x24, 0xc3, 0x07, 0xe5,
  0xed, 0xf9, 0xc5, 0x1d, 0x02, 0x19, 0xcb, 0x02, 0x00, 0x9b, 0xc8, 0xe6,
  0x1d, 0x5d, 0x10, 0x5e, 0x00, 0x5e, 0xeb, 0x40, 0x1d, 0x61, 0xf8, 0x3f,
  0x17, 0xdc, 0x2d, 0xd8, 0x08, 0xae, 0x17, 0x07, 0x21, 0x04, 0xd5, 0x17,
  0x05, 0xe4, 0x0d, 0x47, 0x4c, 0x9e, 0xaf, 0xe5, 0xf1, 0x42, 0xec, 0x3c,
  0x03, 0x39, 0xdc, 0x19, 0xf2, 0x4f, 0xd9, 0x2b, 0xf3, 0xf3, 0x1b, 0xe5,
  0xf3, 0xb6, 0xf6, 0x89, 0xbd, 0xb0, 0x10, 0xbb, 0xb9, 0xbc, 0x13, 0xbd,
  0xa0, 0xd3, 0xd6, 0xcf, 0x1c, 0x5a, 0xcb, 0x5a, 0x13, 0x36, 0xf7, 0x46,
  0x07, 0x47, 0xe1, 0x4d, 0x20, 0xe3, 0xd5, 0xad, 0x21, 0x1e, 0x01, 0xfb,
  0x81, 0x72, 0x31, 0x06, 0x84, 0x76, 0x45, 0x34, 0x9f, 0xd7, 0x1c, 0x32,
  0xf3, 0xf1, 0x51, 0x48, 0xff, 0xfb, 0x35, 0x42, 0x13, 0xfa, 0x35, 0x35,
  0x16, 0xff, 0xec, 0xd5, 0x14, 0x33, 0x0b, 0xf5, 0xbd, 0x51, 0x1f, 0x1f,
  0xee, 0x6d, 0x2d, 0x0e, 0x90, 0x4c, 0x1d, 0x2b, 0xed, 0xea, 0x06, 0x27,
  0x06, 0xd8, 0x1e, 0x35, 0xfb, 0xc9, 0x13, 0x38, 0x0e, 0xe8, 0xc9, 0xa9,
  0xe9, 0xe3, 0xd0, 0xae, 0xfb, 0xfe, 0x20, 0xfd, 0xd4, 0x33, 0xfc, 0xe8,
  0xfa, 0xd9, 0x3f, 0xa7, 0xe7, 0xe1, 0x3b, 0x6e, 0x07, 0xdd, 0x0f, 0x51,
  0xff, 0xed, 0x19, 0x3d, 0xe3, 0x0a, 0xe3, 0xb0, 0x23, 0x39, 0xf9, 0xba,
  0x27, 0x05, 0x0b, 0x02, 0xea, 0x1b, 0x14, 0x16, 0xc2, 0x54, 0xa3, 0x60,
  0x2b, 0xca, 0x0b, 0x6c, 0x06, 0xef, 0x23, 0x42, 0x1a, 0xd1, 0x0b, 0x59,
  0xe0, 0xff, 0x00, 0xf7, 0x16, 0x20, 0x30, 0x11, 0x22, 0x3d, 0x4e, 0x0a,
  0x41, 0x27, 0x52, 0x13, 0xbb, 0x38, 0x36, 0x4d, 0xff, 0xb0, 0x18, 0x2c,
  0x02, 0xd4, 0xec, 0x08, 0x19, 0xcd, 0xf0, 0x19, 0xd3, 0xee, 0xe9, 0xda,
  0x01, 0x04, 0x06, 0xb0, 0x2c, 0x4b, 0x1a, 0xef, 0xf7, 0x2c, 0x3a, 0xce,
  0xe9, 0x37, 0xe6, 0xa2, 0x0f, 0xd9, 0x2d, 0x36, 0x08, 0xf2, 0x18, 0x1e,
  0x21, 0xd9, 0x0d, 0x50, 0x2e, 0x0b, 0x0d, 0x0f, 0xf9, 0xf3, 0x42, 0x0e,
  0xda, 0xb1, 0x28, 0x22, 0x82, 0xd5, 0x3a, 0xe0, 0xc4, 0x4c, 0x04, 0x09,
  0xe8, 0x07, 0xd1, 0x12, 0xf4, 0x12, 0xdb, 0xf7, 0xe8, 0x0a, 0xf4, 0xf8,
  0x1f, 0x1c, 0x0d, 0x0d, 0x1e, 0x19, 0x40, 0x11, 0xe2, 0x03, 0x2f, 0xe1,
  0xf5, 0xf8, 0x50, 0x31, 0x9b, 0xa1, 0xc3, 0x6e, 0x01, 0x09, 0xcc, 0xe9,
  0xf0, 0x03, 0xe6, 0xeb, 0xec, 0x16, 0xc2, 0x11, 0x29, 0x25, 0x00, 0x09,
  0xd3, 0xd4, 0x07, 0x0e, 0x09, 0xa7, 0x1a, 0xfe, 0x03, 0xc4, 0x3f, 0xf4,
  0xd1, 0xbb, 0xe4, 0xc5, 0xce, 0x0c, 0xfb, 0x12, 0x04, 0x08, 0xf1, 0x01,
  0xea, 0xfe, 0xf2, 0xfb, 0x03, 0xcf, 0x14, 0xc8, 0x0c, 0xa5, 0x20, 0x1a,
  0xe1, 0xe7, 0xbf, 0x00, 0xf7, 0xad, 0x9e, 0x42, 0x50, 0x2c, 0x43, 0x35,
  0x2e, 0x7f, 0x13, 0x5b, 0x0e, 0x4d, 0xff, 0x2c, 0x0c, 0x5b, 0xf6, 0x43,
  0x01, 0xee, 0x22, 0xe9, 0xec, 0xc5, 0x1f, 0x00, 0x3b, 0xd9, 0x12, 0x43,
  0x2d, 0x0d, 0xfc, 0x07, 0xc7, 0x24, 0xed, 0x67, 0x0b, 0x58, 0xd7, 0x0d,
  0x07, 0x3f, 0xe0, 0x0d, 0xf1, 0x2f, 0xe0, 0xfd, 0x0b, 0xf4, 0x27, 0xde,
  0xd8, 0xb7, 0xe0, 0xe5, 0x18, 0xac, 0xc9, 0x10, 0xf6, 0xd3, 0xfe, 0xdc,
  0xad, 0x86, 0x0f, 0x04, 0x2e, 0x3c, 0xe8, 0x27, 0xfc, 0x2c, 0xf5, 0x12,
  0x18, 0x4f, 0xe0, 0x2a, 0x1c, 0xd7, 0xdc, 0xbf, 0xfc, 0x30, 0xfc, 0x19,
  0x8a, 0x63, 0x3f, 0x22, 0xa9, 0x63, 0x0f, 0xfd, 0xb0, 0xc1, 0x93, 0x64,
  0xf2, 0xe1, 0x12, 0x44, 0xff, 0xef, 0x14, 0x1d, 0xf0, 0xd8, 0x12, 0x1c,
  0x23, 0xf0, 0xf4, 0xe2, 0x0d, 0x57, 0x2a, 0xed, 0xba, 0x41, 0x45, 0x34,
  0xea, 0x3b, 0x65, 0x27, 0x35, 0x17, 0x3c, 0x64, 0xef, 0xda, 0x0e, 0x1e,
  0xfd, 0xe2, 0xf4, 0x0d, 0xea, 0xc5, 0x11, 0x0a, 0x17, 0xec, 0xd7, 0xbc,
  0xe1, 0x19, 0x12, 0xdc, 0xac, 0x41, 0x05, 0xe2, 0xe5, 0x22, 0xfc, 0xe7,
  0xa7, 0x28, 0xba, 0xb9, 0x06, 0xd3, 0x1d, 0x68, 0xf9, 0xda, 0x10, 0x32,
  0x03, 0xe4, 0x28, 0x45, 0xd6, 0xf8, 0xd3, 0xbb, 0xe6, 0x14, 0x12, 0xbd,
  0xd6, 0x1c, 0xdf, 0x02, 0xe0, 0x05, 0x18, 0x11, 0xe7, 0x2e, 0x9e, 0xca,
  0x36, 0xf9, 0x22, 0x3d, 0x1a, 0x00, 0x0e, 0x29, 0x28, 0xf8, 0x2d, 0x4b,
  0xf7, 0x07, 0xfe, 0xf1, 0x00, 0x48, 0x3b, 0x18, 0x1d, 0x0e, 0x54, 0x58,
  0x01, 0x5c, 0x2e, 0x35, 0x41, 0x9a, 0xdf, 0x19, 0x26, 0xcf, 0x05, 0x1b,
  0x1a, 0xd4, 0x14, 0x25, 0x0e, 0xda, 0x15, 0x0a, 0xcb, 0x08, 0xd8, 0xd1,
  0xc6, 0xfe, 0x14, 0xcf, 0xfb, 0x14, 0xf9, 0x27, 0x1d, 0x41, 0xeb, 0x35,
  0xcc, 0xbb, 0xa7, 0x65, 0x46, 0xde, 0x1a, 0x22, 0x35, 0xf8, 0x16, 0x15,
  0x32, 0xe9, 0x15, 0x1f, 0x2e, 0xff, 0xfd, 0xf7, 0x0d, 0x21, 0x1c, 0xf8,
  0x94, 0xee, 0x36, 0x1d, 0xa3, 0x9c, 0x1c, 0xfe, 0xe3, 0xcd, 0x14, 0x47,
  0xed, 0xfe, 0xdd, 0x10, 0xf2, 0x05, 0xe9, 0x05, 0x04, 0x0a, 0xf6, 0x07,
  0x24, 0x0c, 0x04, 0xfe, 0x0a, 0x13, 0x1c, 0x12, 0xd1, 0x0c, 0x62, 0x0d,
  0xc2, 0xdf, 0x5b, 0x0f, 0xc8, 0x61, 0xaa, 0xf7, 0xd8, 0x05, 0xbb, 0x18,
  0xf8, 0x00, 0xdb, 0x06, 0xeb, 0x05, 0xd5, 0xfb, 0x2c, 0x06, 0x0d, 0x08,
  0x01, 0xcf, 0x0b, 0x1a, 0xd0, 0xe9, 0x30, 0x0d, 0xf7, 0xd7, 0x48, 0xf2,
  0x91, 0x23, 0xa2, 0x98, 0xe4, 0x15, 0xe7, 0xe9, 0x09, 0x0d, 0xe5, 0xf3,
  0x0a, 0x21, 0xdf, 0x05, 0x0b, 0xba, 0x20, 0xc7, 0x1b, 0x81, 0xfc, 0x1d,
  0xfd, 0xca, 0xe1, 0x47, 0xcb, 0x81, 0xa1, 0x2e, 0x89, 0x44, 0x9d, 0xd4,
  0x19, 0x53, 0xe9, 0x40, 0x08, 0x51, 0x01, 0x2a, 0x23, 0x6c, 0x01, 0x2d,
  0x10, 0xd9, 0x2b, 0xde, 0x16, 0xa8, 0x2b, 0x40, 0x22, 0xcb, 0x00, 0x59,
  0x38, 0xc7, 0xf4, 0x3c, 0x23, 0xd3, 0x30, 0x45, 0x08, 0x30, 0xfe, 0x15,
  0xf9, 0x34, 0xee, 0x19, 0x12, 0x59, 0xf3, 0x07, 0x0a, 0xc9, 0x1c, 0xdf,
  0xec, 0x8d, 0x02, 0xcb, 0x10, 0xd4, 0xe4, 0x09, 0x12, 0xa4, 0xdd, 0xd3,
  0x3b, 0x23, 0x0f, 0x0c, 0x35, 0x41, 0x01, 0x1e, 0x1e, 0x4d, 0xf0, 0x33,
  0x2d, 0x6b, 0x06, 0x1d, 0x29, 0xda, 0xe5, 0xc8, 0x06, 0x4a, 0x03, 0xff,
  0xb8, 0x42, 0x18, 0x18, 0xae, 0x2b, 0x3d, 0x3a, 0xa7, 0x55, 0x21, 0x21,
  0x0c, 0xfd, 0x26, 0x64, 0x0d, 0xe8, 0x09, 0x2e, 0x09, 0xee, 0x29, 0x4a,
  0x1c, 0xfb, 0xfd, 0xcc, 0xf3, 0x26, 0x33, 0x01, 0x07, 0x6e, 0x4a, 0x0a,
  0x08, 0x4b, 0x69, 0x24, 0x9f, 0x9e, 0x99, 0x13, 0x06, 0xe2, 0x2c, 0x3a,
  0xf4, 0xed, 0xfd, 0x19, 0x11, 0xdf, 0x14, 0x1c, 0x20, 0xf4, 0xeb, 0xbc,
  0xe8, 0x00, 0xef, 0xbb, 0xb9, 0x4d, 0x15, 0xec, 0xaf, 0x25, 0x40, 0xf1,
  0xf0, 0x45, 0xb5, 0x3b, 0x19, 0xe3, 0x27, 0x74, 0x15, 0x00, 0x34, 0x4b,
  0xf8, 0xe4, 0x31, 0x59, 0x10, 0x01, 0x1a, 0x7f, 0x0a, 0x3e, 0x26, 0x98,
  0x24, 0x37, 0xfc, 0x06, 0x28, 0x0d, 0xf2, 0x07, 0x1d, 0xf7, 0x2f, 0x7f,
  0xfa, 0x37, 0x2e, 0xdc, 0x26, 0x00, 0x2e, 0x7f, 0xe3, 0x4d, 0x05, 0xe6,
  0x20, 0xfb, 0x01, 0x19, 0x33, 0x67, 0x38, 0xdf, 0x22, 0x36, 0x13, 0x1e,
  0x33, 0x60, 0x14, 0xfb, 0x14, 0xf9, 0x18, 0x2b, 0x05, 0x5c, 0x2c, 0xf5,
  0x29, 0xed, 0x13, 0x34, 0x14, 0x23, 0x32, 0x1e, 0x1f, 0x0d, 0x30, 0x3b,
  0xeb, 0x26, 0xff, 0x8e, 0xf6, 0x17, 0xfd, 0xf6, 0x03, 0x07, 0x2c, 0xd4,
  0x39, 0x05, 0x2c, 0x34, 0xed, 0x3c, 0x33, 0xcb, 0x38, 0xf8, 0x18, 0x3f,
  0xf2, 0x45, 0x1b, 0xd0, 0xf8, 0x03, 0xf3, 0x07, 0x14, 0xb1, 0x60, 0xe6,
  0xa2, 0xdd, 0x03, 0xfc, 0xa4, 0x96, 0x2c, 0xfe, 0xeb, 0x23, 0xeb, 0xfa,
  0x81, 0xb4, 0x22, 0x06, 0xf0, 0x16, 0xe5, 0x11, 0x8d, 0xa5, 0x39, 0x28,
  0x02, 0xfd, 0xf3, 0x03, 0x31, 0xf1, 0x0c, 0x2e, 0xd0, 0xeb, 0x4f, 0x0f,
  0xee, 0x0e, 0x2b, 0x08, 0xf3, 0x12, 0xcb, 0x11, 0xd8, 0xcd, 0x29, 0xf7,
  0x07, 0xfe, 0xf6, 0x0b, 0xf8, 0xee, 0x4b, 0xea, 0xe0, 0xff, 0x09, 0xe8,
  0xdd, 0xb0, 0x27, 0x2d, 0x15, 0xde, 0x0a, 0xfd, 0xcc, 0xb3, 0x1b, 0x26,
  0xf4, 0x18, 0xe8, 0xff, 0xdc, 0xd7, 0x19, 0xfd, 0xe5, 0x21, 0xff, 0x13,
  0xc8, 0xbb, 0x0b, 0x2c, 0x22, 0x46, 0x04, 0x45, 0xe6, 0x91, 0x3f, 0xd9,
  0x0a, 0x2a, 0xb0, 0x2b, 0xd4, 0xec, 0x81, 0x3a, 0x15, 0x50, 0x03, 0x43,
  0xf7, 0xc2, 0xd9, 0x27, 0x00, 0x57, 0x04, 0x3e, 0xf4, 0xea, 0xb5, 0x46,
  0x06, 0x22, 0xe5, 0x33, 0x2a, 0xe6, 0x05, 0x20, 0x3c, 0xfd, 0x11, 0x03,
  0xff, 0xed, 0xcf, 0x0c, 0x01, 0x23, 0xe4, 0x31, 0x05, 0xc2, 0xde, 0x01,
  0x16, 0x34, 0xf0, 0x2b, 0x30, 0xcd, 0xd7, 0x3c, 0x16, 0x42, 0x03, 0x46,
  0xd0, 0x87, 0xd9, 0x88, 0x0c, 0xaf, 0xfc, 0xd1, 0xf1, 0x92, 0x05, 0xca,
  0x1b, 0x41, 0xdc, 0x2b, 0xc7, 0xaa, 0xf1, 0xc3, 0x05, 0x41, 0xde, 0x4f,
  0xeb, 0x86, 0xf9, 0xe5, 0xf4, 0xef, 0x33, 0x42, 0xf1, 0x38, 0x39, 0xdc,
  0xab, 0x5b, 0xfd, 0xfc, 0xa9, 0x40, 0x53, 0x09, 0xf5, 0x02, 0x37, 0x40,
  0x91, 0x44, 0x1b, 0x33, 0xf8, 0xe2, 0x3c, 0x4a, 0xba, 0x3a, 0x30, 0x04,
  0x0a, 0xe1, 0x1e, 0x22, 0xd7, 0x63, 0x3c, 0x28, 0xfb, 0x2c, 0x36, 0x4a,
  0xb5, 0x79, 0x1d, 0x1e, 0xf5, 0xd4, 0x22, 0x34, 0x12, 0x32, 0x4d, 0x3c,
  0xfa, 0xf3, 0xfd, 0x1b, 0xf8, 0x50, 0x2a, 0x2c, 0xed, 0xff, 0x39, 0x36,
  0xdc, 0x10, 0xf9, 0xa2, 0xdb, 0xf8, 0x22, 0x1d, 0xcb, 0x03, 0x03, 0xda,
  0xf3, 0xf2, 0x20, 0x58, 0xd5, 0x27, 0xff, 0xea, 0xf7, 0xf5, 0x23, 0x59,
  0xb5, 0x02, 0x1c, 0x0b, 0x09, 0xdf, 0x29, 0x55, 0x02, 0x20, 0xe4, 0x9b,
  0x21, 0x13, 0xee, 0x0a, 0xff, 0x4a, 0x0e, 0xdc, 0x1f, 0xd9, 0x1c, 0x5d,
  0x1f, 0x30, 0x2f, 0xed, 0x13, 0xec, 0x0b, 0x46, 0xfd, 0x10, 0x0a, 0xde,
  0x0e, 0xca, 0x0f, 0x1f, 0x3a, 0x22, 0x3d, 0x39, 0x03, 0x59, 0x57, 0x2d,
  0x15, 0x51, 0x58, 0x15, 0xf8, 0xcc, 0xf0, 0x27, 0x13, 0x58, 0x4e, 0x2f,
  0xf4, 0xd5, 0x18, 0x0e, 0x28, 0x5a, 0x14, 0x17, 0x28, 0xff, 0x06, 0x3d,
  0x00, 0x3e, 0x0c, 0xe8, 0x3c, 0x4a, 0x09, 0xeb, 0x17, 0x4c, 0x17, 0x0e,
  0x05, 0xf6, 0x0d, 0x1e, 0x38, 0x34, 0x10, 0xf9, 0x20, 0x01, 0x15, 0x1e,
  0x11, 0x50, 0xfc, 0xc0, 0xea, 0x0d, 0xf1, 0xeb, 0x0b, 0xbb, 0x63, 0xee,
  0x98, 0xab, 0x47, 0xfe, 0x92, 0xac, 0x5a, 0xfd, 0xf7, 0x11, 0xd2, 0x11,
  0xd5, 0xac, 0x20, 0x19, 0xfa, 0x1c, 0xef, 0x0b, 0x9c, 0xd6, 0x2f, 0x1a,
  0xe9, 0xec, 0xd8, 0x12, 0x2f, 0xde, 0x4f, 0xf5, 0x06, 0xfb, 0x31, 0x08,
  0xe6, 0xf9, 0x75, 0x02, 0xf6, 0xf9, 0xc9, 0x09, 0xf7, 0xfa, 0x75, 0xfe,
  0x07, 0x0a, 0xd8, 0x07, 0xd3, 0xd8, 0x36, 0xec, 0xe1, 0x10, 0xe9, 0xfb,
  0xd4, 0xb8, 0x44, 0x0a, 0xde, 0xf0, 0x5a, 0xf6, 0xd4, 0xef, 0x38, 0xe3,
  0xff, 0x09, 0xe7, 0x0d, 0xf5, 0xde, 0x31, 0x05, 0xe7, 0xfd, 0xde, 0x10,
  0xe6, 0xc0, 0x57, 0xf6, 0x21, 0x47, 0x0d, 0x23, 0x0a, 0x9f, 0x07, 0x04,
  0xf0, 0xc7, 0x98, 0x2a, 0xd0, 0x95, 0xee, 0x32, 0x11, 0x46, 0xe7, 0x42,
  0x09, 0xb3, 0xb4, 0x07, 0x1d, 0x34, 0xf7, 0x3c, 0x1f, 0xd9, 0xd2, 0x3f,
  0xf8, 0x31, 0xe5, 0x14, 0x01, 0xa3, 0x14, 0x1a, 0x02, 0xe1, 0xe5, 0x2e,
  0x14, 0xfc, 0xe8, 0x4a, 0x09, 0x1f, 0xfa, 0x09, 0x10, 0xba, 0x0f, 0x21,
  0xfa, 0x20, 0xff, 0x19, 0x22, 0xff, 0xec, 0x43, 0x22, 0x3d, 0xe7, 0x25,
  0x21, 0xd9, 0x12, 0xd1, 0xe6, 0xb8, 0x20, 0x22, 0x1e, 0xb6, 0xeb, 0xfb,
  0xfa, 0x3c, 0xed, 0x30, 0xee, 0xd4, 0x15, 0x11, 0x07, 0x21, 0xde, 0x2e,
  0xe8, 0xb7, 0xc7, 0x0f, 0x0f, 0xe3, 0x08, 0x12, 0xc4, 0x7b, 0x29, 0x00,
  0x81, 0x56, 0x33, 0x04, 0xc6, 0x5e, 0x24, 0xf7, 0x06, 0xdc, 0x16, 0x25,
  0xaf, 0x3d, 0x14, 0xfc, 0xff, 0xd4, 0x33, 0x44, 0x95, 0x70, 0x00, 0x04,
  0xf3, 0xba, 0xf5, 0x25, 0xc9, 0x48, 0x30, 0x29, 0xe1, 0x52, 0x50, 0x1c,
  0xfc, 0x76, 0x27, 0x57, 0x11, 0xeb, 0x0f, 0x28, 0xe3, 0x70, 0x34, 0x26,
  0x14, 0xd6, 0x1c, 0x13, 0xdb, 0x7f, 0x46, 0x32, 0x10, 0xdf, 0x17, 0x2d,
  0x12, 0x56, 0x0e, 0xb5, 0xf3, 0x30, 0x2d, 0x1f, 0xe4, 0x58, 0x10, 0x28,
  0x15, 0xf4, 0x1f, 0x3f, 0xe5, 0x3c, 0x35, 0x1e, 0xfe, 0xe5, 0x28, 0x42,
  0xaf, 0x20, 0x0f, 0xda, 0x27, 0x06, 0x05, 0x51, 0xe2, 0x54, 0x37, 0x93,
  0xd5, 0x0c, 0x16, 0x03, 0xfe, 0x15, 0x22, 0xf6, 0x2d, 0xfd, 0x0c, 0x31,
  0x1f, 0x24, 0xfb, 0x2a, 0x0c, 0xf5, 0x10, 0x4e, 0xec, 0x3c, 0xf3, 0x1e,
  0x0b, 0xea, 0xfc, 0x25, 0x1f, 0x45, 0x5e, 0x44, 0x34, 0x5a, 0x16, 0x53,
  0x06, 0x69, 0x39, 0x25, 0x1f, 0xf1, 0x14, 0xf7, 0x0d, 0x32, 0x1c, 0x68,
  0x14, 0xda, 0xfb, 0x0c, 0x2b, 0x42, 0x4b, 0x54, 0x24, 0x02, 0x28, 0x1b,
  0xd6, 0x2a, 0xe2, 0x0d, 0x12, 0x19, 0x21, 0x39, 0xed, 0x4a, 0x24, 0xf8,
  0x2e, 0x0b, 0x33, 0x28, 0xf8, 0x2d, 0x2a, 0x30, 0x29, 0x02, 0x23, 0x2a,
  0xde, 0x41, 0x2c, 0xf5, 0xf4, 0xf7, 0xeb, 0xfc, 0x1f, 0xf0, 0x5a, 0x0e,
  0x81, 0xae, 0x03, 0xfa, 0xa0, 0xc2, 0x27, 0x1a, 0xe5, 0x09, 0xcf, 0x00,
  0x8d, 0xbc, 0x25, 0xfd, 0xe4, 0xfd, 0xdf, 0xfb, 0xe7, 0xf2, 0x13, 0x00,
  0xf2, 0x0f, 0xd6, 0xf8, 0x07, 0x2c, 0x46, 0x10, 0xff, 0x0d, 0x53, 0x0c,
  0xc1, 0xe7, 0x36, 0x22, 0xea, 0x01, 0xe0, 0xf1, 0xdd, 0xf8, 0x23, 0x07,
  0xe5, 0xf4, 0xe1, 0x10, 0x0d, 0xd2, 0x53, 0x13, 0xf3, 0xf3, 0xfe, 0x11,
  0xf0, 0xbb, 0x01, 0xf8, 0x00, 0xe4, 0x18, 0x1d, 0xd4, 0xcc, 0x46, 0x0e,
  0xf8, 0x05, 0xd5, 0xf3, 0xb2, 0xdb, 0x1f, 0xf4, 0x08, 0x0c, 0xe0, 0xf8,
  0xef, 0xeb, 0x38, 0xe8, 0x24, 0x59, 0xf1, 0x47, 0x27, 0x8d, 0xf9, 0xdc,
  0xfb, 0xd1, 0xaf, 0x2d, 0xf3, 0xad, 0x95, 0x33, 0x0a, 0x54, 0x04, 0x29,
  0xf8, 0x98, 0x9d, 0x14, 0x01, 0x59, 0xed, 0x1e, 0xef, 0xa6, 0x9a, 0x08,
  0xef, 0x2a, 0x07, 0x0d, 0xfa, 0x96, 0x2f, 0x1c, 0x39, 0x00, 0xea, 0x52,
  0xfa, 0xe2, 0xde, 0x4e, 0x0d, 0x2f, 0x01, 0x0f, 0x32, 0xe2, 0xe2, 0x47,
  0xf1, 0x2f, 0x07, 0x0e, 0x2d, 0xcb, 0xde, 0x21, 0x24, 0x49, 0xfc, 0x1c,
  0xd9, 0x81, 0x1d, 0xf0, 0xdd, 0xdd, 0xf2, 0x25, 0x03, 0xc2, 0x00, 0x08,
  0x27, 0x31, 0xdd, 0x2a, 0xd7, 0xc1, 0xed, 0x1f, 0x05, 0x30, 0xea, 0x39,
  0xf3, 0xb4, 0x0e, 0xe3, 0xfe, 0xfc, 0x10, 0x25, 0x0f, 0x56, 0x17, 0x20,
  0x8f, 0x1d, 0x1e, 0x13, 0xd9, 0x70, 0x1f, 0x24, 0xf3, 0xf9, 0x26, 0x31,
  0xd7, 0x33, 0x0a, 0x15, 0xf2, 0xe7, 0x1c, 0x3d, 0xe5, 0x1d, 0x2f, 0x33,
  0x0e, 0xef, 0x02, 0x1a, 0x25, 0x30, 0x33, 0x12, 0xd0, 0x36, 0x59, 0x22,
  0xd7, 0x4b, 0x41, 0x16, 0x00, 0xe2, 0x15, 0x1e, 0xe1, 0x40, 0x37, 0x25,
  0x0c, 0xe1, 0x20, 0x33, 0x0a, 0x29, 0x45, 0x42, 0x09, 0xfb, 0x1e, 0x51,
  0xd4, 0x42, 0x11, 0xad, 0xe4, 0x2d, 0x18, 0x23, 0xdf, 0x4a, 0xf3, 0x0c,
  0x04, 0xe2, 0x0b, 0x30, 0xdf, 0x0a, 0xf1, 0x11, 0x13, 0xed, 0x39, 0x40,
  0xfa, 0x43, 0xf5, 0x01, 0x55, 0x55, 0x55, 0x55, 0x55, 0x55, 0x55, 0x55,
  0x55, 0x00, 0x00, 0x00, 0x40, 0x0e, 0x40, 0x0e, 0x40, 0x0e, 0x40, 0x0e,
  0xb7, 0xfa, 0x6a, 0xcc, 0x69, 0x64, 0xab, 0xe5, 0xe6, 0x47, 0x71, 0x30,
  0x56, 0xec, 0xa0, 0xb8, 0x4c, 0xf8, 0x2a, 0x35, 0xa2, 0x96, 0xa4, 0xa5,
  0x11, 0x94, 0xa3, 0xf7, 0x20, 0x1b, 0x12, 0x77, 0xd4, 0x50, 0x7f, 0x2e,
  0x68, 0x9a, 0xa3, 0xc8, 0xd5, 0x51, 0xc3, 0x1b, 0x60, 0xc4, 0x3a, 0x93,
  0xd8, 0x1a, 0xcc, 0x9a, 0x01, 0x01, 0x00, 0x00, 0x00, 0x00, 0x00, 0x00,
  0x00, 0x00, 0x00, 0x00, 0xc2, 0xfa, 0xff, 0xff, 0x04, 0x00, 0x00, 0x00,
  0xc8, 0x03, 0x00, 0x00, 0x6e, 0x4d, 0x43, 0x64, 0x8b, 0xac, 0x41, 0x6d,
  0x64, 0x03, 0x00, 0x00, 0x00, 0x00, 0x00, 0x00, 0x64, 0x03, 0x00, 0x30,
  0x08, 0x00, 0x00, 0x00, 0xc8, 0x03, 0x00, 0x00, 0xec, 0x14, 0x00, 0x00,
  0x00, 0x00, 0x00, 0x00, 0x80, 0x16, 0x00, 0x00, 0x00, 0x00, 0x00, 0x00,
  0x00, 0x00, 0x00, 0x00, 0x00, 0x00, 0x00, 0x00, 0x01, 0x00, 0x00, 0x00,
  0x01, 0x00, 0x00, 0x00, 0x08, 0x00, 0x00, 0x00, 0x48, 0x00, 0x00, 0x00,
  0x00, 0x00, 0x00, 0x00, 0x00, 0x00, 0x00, 0x00, 0x00, 0x00, 0x00, 0x00,
  0x02, 0x00, 0x05, 0x00, 0x00, 0x00, 0x00, 0x00, 0x04, 0x00, 0x01, 0x01,
  0x01, 0x00, 0x00, 0x00, 0x06, 0x00, 0x26, 0x00, 0x00, 0x00, 0x84, 0x00,
  0x00, 0x00, 0x00, 0x00, 0x00, 0x00, 0x00, 0x00, 0x40, 0x00, 0x00, 0x00,
  0x00, 0x00, 0x00, 0x00, 0x30, 0x00, 0x00, 0x00, 0x18, 0x00, 0x00, 0x00,
  0x18, 0x00, 0x00, 0x00, 0x08, 0x00, 0x00, 0x00, 0x08, 0x00, 0x00, 0x00,
  0x18, 0x00, 0x00, 0x00, 0x18, 0x00, 0x00, 0x00, 0x04, 0x00, 0x00, 0x00,
  0x03, 0x00, 0x00, 0x00, 0x03, 0x00, 0x00, 0x00, 0x01, 0x00, 0x00, 0x00,
  0x01, 0x00, 0x00, 0x00, 0x01, 0x00, 0x00, 0x00, 0x01, 0x00, 0x00, 0x00,
  0x01, 0x00, 0x00, 0x00, 0x01, 0x00, 0x00, 0x00, 0x01, 0x00, 0x00, 0x00,
  0x01, 0x00, 0x00, 0x00, 0x10, 0x01, 0x0f, 0x07, 0x00, 0x00, 0x00, 0x00,
  0x00, 0x00, 0x00, 0x00, 0x01, 0x00, 0x00, 0x00, 0x01, 0x00, 0x00, 0x00,
  0x80, 0xff, 0xff, 0xff, 0x30, 0x80, 0x00, 0x00, 0x00, 0x00, 0x00, 0x00,
  0x00, 0x00, 0x00, 0x00, 0x00, 0x00, 0x00, 0x00, 0x00, 0x00, 0x00, 0x00,
  0x02, 0x00, 0x02, 0x00, 0x00, 0x00, 0x00, 0x00, 0x04, 0x04, 0x00, 0x00,
  0x06, 0x00, 0x3e, 0x00, 0x00, 0x00, 0x4c, 0x00, 0x00, 0x12, 0x00, 0x00,
  0x00, 0x00, 0x00, 0x00, 0x0c, 0x00, 0x00, 0x00, 0x0c, 0x00, 0x00, 0x00,
  0x08, 0x00, 0x00, 0x00, 0x08, 0x00, 0x00, 0x00, 0x18, 0x00, 0x00, 0x00,
  0x18, 0x00, 0x00, 0x00, 0x08, 0x00, 0x00, 0x00, 0x02, 0x00, 0x00, 0x00,
  0x02, 0x00, 0x00, 0x00, 0x02, 0x00, 0x00, 0x00, 0x02, 0x00, 0x00, 0x00,
  0x00, 0x00, 0x00, 0x00, 0x00, 0x00, 0x00, 0x00, 0x00, 0x00, 0x00, 0x00,
  0x00, 0x00, 0x00, 0x00, 0x10, 0x01, 0x09, 0x40, 0x00, 0x00, 0x00, 0x00,
  0x02, 0x00, 0x05, 0x00, 0x00, 0x00, 0x00, 0x00, 0x04, 0x04, 0x01, 0x01,
  0x01, 0x00, 0x00, 0x00, 0x06, 0x00, 0x26, 0x00, 0x00, 0x00, 0x84, 0x00,
  0x00, 0x00, 0x00, 0x00, 0x00, 0x12, 0x00, 0x00, 0xe0, 0x01, 0x00, 0x00,
  0x60, 0x01, 0x00, 0x00, 0xc0, 0x01, 0x00, 0x00, 0x0c, 0x00, 0x00, 0x00,
  0x0c, 0x00, 0x00, 0x00, 0x10, 0x00, 0x00, 0x00, 0x10, 0x00, 0x00, 0x00,
  0x0c, 0x00, 0x00, 0x00, 0x0c, 0x00, 0x00, 0x00, 0x08, 0x00, 0x00, 0x00,
  0x03, 0x00, 0x00, 0x00, 0x03, 0x00, 0x00, 0x00, 0x01, 0x00, 0x00, 0x00,
  0x01, 0x00, 0x00, 0x00, 0x01, 0x00, 0x00, 0x00, 0x01, 0x00, 0x00, 0x00,
  0x01, 0x00, 0x00, 0x00, 0x01, 0x00, 0x00, 0x00, 0x01, 0x00, 0x00, 0x00,
  0x01, 0x00, 0x00, 0x00, 0x10, 0x01, 0x0f, 0x07, 0x00, 0x00, 0x00, 0x00,
  0x00, 0x00, 0x00, 0x00, 0x01, 0x00, 0x00, 0x00, 0x01, 0x00, 0x00, 0x00,
  0x80, 0xff, 0xff, 0xff, 0x30, 0x80, 0x00, 0x00, 0x00, 0x00, 0x00, 0x00,
  0x00, 0x00, 0x00, 0x00, 0x00, 0x00, 0x00, 0x00, 0x00, 0x00, 0x00, 0x00,
  0x02, 0x00, 0x02, 0x00, 0x00, 0x00, 0x00, 0x00, 0x04, 0x04, 0x00, 0x00,
  0x06, 0x00, 0x3e, 0x00, 0x00, 0x00, 0x4c, 0x00, 0x00, 0x09, 0x00, 0x00,
  0x00, 0x00, 0x00, 0x00, 0x06, 0x00, 0x00, 0x00, 0x06, 0x00, 0x00, 0x00,
  0x10, 0x00, 0x00, 0x00, 0x10, 0x00, 0x00, 0x00, 0x0c, 0x00, 0x00, 0x00,
  0x0c, 0x00, 0x00, 0x00, 0x10, 0x00, 0x00, 0x00, 0x02, 0x00, 0x00, 0x00,
  0x02, 0x00, 0x00, 0x00, 0x02, 0x00, 0x00, 0x00, 0x02, 0x00, 0x00, 0x00,
  0x00, 0x00, 0x00, 0x00, 0x00, 0x00, 0x00, 0x00, 0x00, 0x00, 0x00, 0x00,
  0x00, 0x00, 0x00, 0x00, 0x10, 0x01, 0x09, 0x40, 0x00, 0x00, 0x00, 0x00,
  0x02, 0x00, 0x05, 0x00, 0x00, 0x00, 0x00, 0x00, 0x04, 0x04, 0x01, 0x01,
  0x01, 0x00, 0x00, 0x00, 0x06, 0x00, 0x26, 0x00, 0x00, 0x00, 0x84, 0x00,
  0x00, 0x00, 0x00, 0x00, 0x00, 0x09, 0x00, 0x00, 0x20, 0x07, 0x00, 0x00,
  0x60, 0x06, 0x00, 0x00, 0xf0, 0x06, 0x00, 0x00, 0x06, 0x00, 0x00, 0x00,
  0x06, 0x00, 0x00, 0x00, 0x18, 0x00, 0x00, 0x00, 0x18, 0x00, 0x00, 0x00,
  0x06, 0x00, 0x00, 0x00, 0x06, 0x00, 0x00, 0x00, 0x10, 0x00, 0x00, 0x00,
  0x03, 0x00, 0x00, 0x00, 0x03, 0x00, 0x00, 0x00, 0x01, 0x00, 0x00, 0x00,
  0x01, 0x00, 0x00, 0x00, 0x01, 0x00, 0x00, 0x00, 0x01, 0x00, 0x00, 0x00,
  0x01, 0x00, 0x00, 0x00, 0x01, 0x00, 0x00, 0x00, 0x01, 0x00, 0x00, 0x00,
  0x01, 0x00, 0x00, 0x00, 0x10, 0x01, 0x0f, 0x07, 0x00, 0x00, 0x00, 0x00,
  0x00, 0x00, 0x00, 0x00, 0x01, 0x00, 0x00, 0x00, 0x01, 0x00, 0x00, 0x00,
  0x80, 0xff, 0xff, 0xff, 0x30, 0x80, 0x00, 0x00, 0x00, 0x00, 0x00, 0x00,
  0x00, 0x00, 0x00, 0x00, 0x00, 0x00, 0x00, 0x00, 0x00, 0x00, 0x00, 0x00,
  0x02, 0x00, 0x04, 0x00, 0x00, 0x00, 0x00, 0x00, 0x04, 0x04, 0x01, 0x01,
  0x06, 0x00, 0x30, 0x00, 0x00, 0x00, 0x24, 0x00, 0x60, 0x03, 0x00, 0x00,
  0x00, 0x00, 0x00, 0x00, 0xa0, 0x14, 0x00, 0x00, 0xac, 0x14, 0x00, 0x00,
  0x06, 0x00, 0x00, 0x00, 0x06, 0x00, 0x00, 0x00, 0x18, 0x00, 0x00, 0x00,
  0x10, 0x03, 0x0f, 0x07, 0x30, 0x80, 0x8e, 0x3f, 0x02, 0x00, 0x05, 0x00,
  0x00, 0x00, 0x00, 0x00, 0x04, 0x04, 0x01, 0x01, 0x0b, 0x00, 0x00, 0x00,
  0x06, 0x00, 0x2d, 0x00, 0x00, 0x00, 0x3c, 0x00, 0x00, 0x00, 0x00, 0x00,
  0x60, 0x03, 0x00, 0x00, 0xb4, 0x14, 0x00, 0x00, 0xe4, 0x14, 0x00, 0x00,
  0x00, 0x00, 0x00, 0x00, 0x01, 0x00, 0x00, 0x00, 0x02, 0x00, 0x00, 0x00,
  0x02, 0x00, 0x00, 0x00, 0x18, 0x00, 0x00, 0x00, 0x00, 0x00, 0x00, 0x00,
  0x00, 0x00, 0x00, 0x00, 0x10, 0x01, 0x0f, 0x07, 0x30, 0xf4, 0xeb, 0x4a,
  0x00, 0x00, 0x00, 0x00, 0x00, 0x00, 0x00, 0x00, 0x02, 0x00, 0x03, 0x00,
  0x00, 0x00, 0x00, 0x00, 0x02, 0x04, 0x01, 0x00, 0x06, 0x00, 0x4b, 0x00,
  0x00, 0x00, 0x28, 0x00, 0x00, 0x00, 0x00, 0x00, 0x00, 0x00, 0x00, 0x00,
  0xe8, 0x14, 0x00, 0x00, 0x01, 0x00, 0x00, 0x00, 0x01, 0x00, 0x00, 0x00,
  0x02, 0x00, 0x00, 0x00, 0x04, 0x00, 0x00, 0x00, 0x80, 0xff, 0xff, 0xff,
  0x10, 0x01, 0x09, 0x40, 0x00, 0x00, 0x00, 0x00, 0x01, 0x00, 0x00, 0x00,
  0x00, 0x00, 0x00, 0x00, 0x00, 0x00, 0x00, 0x00, 0x00, 0x00, 0x00, 0x00,
  0x00, 0x00, 0x00, 0x00, 0x00, 0x09, 0x00, 0x00, 0x04, 0x00, 0x00, 0x00,
  0x00, 0x00, 0x00, 0x00, 0x00, 0x00, 0x00, 0x00, 0x00, 0x00, 0x00, 0x00,
  0xa2, 0xfe, 0xff, 0xff, 0x04, 0x00, 0x00, 0x00, 0x08, 0x00, 0x00, 0x00,
  0x01, 0x00, 0x00, 0x00, 0x02, 0x00, 0x00, 0x00, 0x00, 0x00, 0x00, 0x00,
  0x00, 0x00, 0x00, 0x00, 0x00, 0x00, 0x00, 0x00, 0xc2, 0xfe, 0xff, 0xff,
  0x04, 0x00, 0x00, 0x00, 0x08, 0x00, 0x00, 0x00, 0x00, 0x00, 0x00, 0x00,
  0x00, 0x00, 0x00, 0x00, 0x00, 0x00, 0x00, 0x00, 0x24, 0xff, 0xff, 0xff,
  0x5f, 0x00, 0x00, 0x00, 0x4d, 0x4c, 0x49, 0x52, 0x20, 0x43, 0x6f, 0x6e,
  0x76, 0x65, 0x72, 0x74, 0x65, 0x64, 0x2e, 0x0a, 0x43, 0x6f, 0x6e, 0x76,
  0x65, 0x72, 0x74, 0x65, 0x64, 0x20, 0x77, 0x69, 0x74, 0x68, 0x20, 0x65,
  0x49, 0x51, 0x20, 0x6e, 0x65, 0x75, 0x74, 0x72, 0x6f, 0x6e, 0x2d, 0x63,
  0x6f, 0x6e, 0x76, 0x65, 0x72, 0x74, 0x65, 0x72, 0x0a, 0x56, 0x65, 0x72,
  0x73, 0x69, 0x6f, 0x6e, 0x3a, 0x20, 0x33, 0x2e, 0x30, 0x2e, 0x30, 0x2b,
  0x30, 0x58, 0x36, 0x64, 0x34, 0x31, 0x61, 0x63, 0x38, 0x62, 0x0a, 0x54,
  0x61, 0x72, 0x67, 0x65, 0x74, 0x3a, 0x20, 0x6d, 0x63, 0x78, 0x6e, 0x39,
  0x34, 0x78, 0x0a, 0x00, 0x01, 0x00, 0x00, 0x00, 0x14, 0x00, 0x00, 0x00,
  0x00, 0x00, 0x0e, 0x00, 0x18, 0x00, 0x04, 0x00, 0x08, 0x00, 0x0c, 0x00,
  0x10, 0x00, 0x14, 0x00, 0x0e, 0x00, 0x00, 0x00, 0x40, 0x01, 0x00, 0x00,
  0x34, 0x01, 0x00, 0x00, 0x28, 0x01, 0x00, 0x00, 0x14, 0x00, 0x00, 0x00,
  0x04, 0x00, 0x00, 0x00, 0x04, 0x00, 0x00, 0x00, 0x6d, 0x61, 0x69, 0x6e,
  0x00, 0x00, 0x00, 0x00, 0x03, 0x00, 0x00, 0x00, 0xac, 0x00, 0x00, 0x00,
  0x60, 0x00, 0x00, 0x00, 0x14, 0x00, 0x00, 0x00, 0x00, 0x00, 0x0e, 0x00,
  0x18, 0x00, 0x08, 0x00, 0x0c, 0x00, 0x10, 0x00, 0x07, 0x00, 0x14, 0x00,
  0x0e, 0x00, 0x00, 0x00, 0x00, 0x00, 0x00, 0x30, 0x02, 0x00, 0x00, 0x00,
  0x1c, 0x00, 0x00, 0x00, 0x10, 0x00, 0x00, 0x00, 0x08, 0x00, 0x00, 0x00,
  0x04, 0x00, 0x04, 0x00, 0x04, 0x00, 0x00, 0x00, 0x01, 0x00, 0x00, 0x00,
  0x03, 0x00, 0x00, 0x00, 0x03, 0x00, 0x00, 0x00, 0x02, 0x00, 0x00, 0x00,
  0x04, 0x00, 0x00, 0x00, 0x05, 0x00, 0x00, 0x00, 0x00, 0x00, 0x0e, 0x00,
  0x1a, 0x00, 0x08, 0x00, 0x0c, 0x00, 0x10, 0x00, 0x07, 0x00, 0x14, 0x00,
  0x0e, 0x00, 0x00, 0x00, 0x00, 0x00, 0x00, 0x09, 0x01, 0x00, 0x00, 0x00,
  0x24, 0x00, 0x00, 0x00, 0x18, 0x00, 0x00, 0x00, 0x0c, 0x00, 0x00, 0x00,
  0x00, 0x00, 0x06, 0x00, 0x08, 0x00, 0x04, 0x00, 0x06, 0x00, 0x00, 0x00,
  0x00, 0x00, 0x80, 0x3f, 0x01, 0x00, 0x00, 0x00, 0x02, 0x00, 0x00, 0x00,
  0x01, 0x00, 0x00, 0x00, 0x01, 0x00, 0x00, 0x00, 0x10, 0x00, 0x10, 0x00,
  0x00, 0x00, 0x04, 0x00, 0x08, 0x00, 0x00, 0x00, 0x00, 0x00, 0x0c, 0x00,
  0x10, 0x00, 0x00, 0x00, 0x48, 0x00, 0x00, 0x00, 0x30, 0x00, 0x00, 0x00,
  0x04, 0x00, 0x00, 0x00, 0x21, 0x00, 0x00, 0x00, 0x73, 0x75, 0x62, 0x67,
  0x72, 0x61, 0x70, 0x68, 0x00, 0x0c, 0x73, 0x75, 0x62, 0x67, 0x72, 0x61,
  0x70, 0x68, 0x5f, 0x30, 0x31, 0x30, 0x00, 0x01, 0x18, 0x01, 0x01, 0x01,
  0x12, 0x14, 0x02, 0x24, 0x01, 0x00, 0x00, 0x00, 0x04, 0x00, 0x00, 0x00,
  0x01, 0x00, 0x00, 0x00, 0x09, 0x00, 0x00, 0x00, 0x0a, 0x00, 0x00, 0x00,
  0x0b, 0x00, 0x00, 0x00, 0x04, 0x00, 0x00, 0x00, 0x00, 0x00, 0x00, 0x00,
  0x06, 0x00, 0x00, 0x00, 0x07, 0x00, 0x00, 0x00, 0x08, 0x00, 0x00, 0x00,
  0x01, 0x00, 0x00, 0x00, 0x03, 0x00, 0x00, 0x00, 0x01, 0x00, 0x00, 0x00,
  0x00, 0x00, 0x00, 0x00, 0x0c, 0x00, 0x00, 0x00, 0x6c, 0x03, 0x00, 0x00,
  0xc4, 0x02, 0x00, 0x00, 0x48, 0x02, 0x00, 0x00, 0xe4, 0x01, 0x00, 0x00,
  0x98, 0x01, 0x00, 0x00, 0x40, 0x01, 0x00, 0x00, 0x08, 0x01, 0x00, 0x00,
  0xd4, 0x00, 0x00, 0x00, 0xa0, 0x00, 0x00, 0x00, 0x70, 0x00, 0x00, 0x00,
  0x34, 0x00, 0x00, 0x00, 0x04, 0x00, 0x00, 0x00, 0xa8, 0xff, 0xff, 0xff,
  0x00, 0x00, 0x00, 0x03, 0x1c, 0x00, 0x00, 0x00, 0x04, 0x00, 0x00, 0x00,
  0x0c, 0x00, 0x00, 0x00, 0x4e, 0x65, 0x75, 0x74, 0x72, 0x6f, 0x6e, 0x44,
  0x65, 0x62, 0x75, 0x67, 0x00, 0x00, 0x00, 0x00, 0x01, 0x00, 0x00, 0x00,
  0x00, 0x00, 0x00, 0x00, 0xd4, 0xff, 0xff, 0xff, 0x00, 0x00, 0x00, 0x03,
  0x1c, 0x00, 0x00, 0x00, 0x04, 0x00, 0x00, 0x00, 0x0e, 0x00, 0x00, 0x00,
  0x4e, 0x65, 0x75, 0x74, 0x72, 0x6f, 0x6e, 0x50, 0x72, 0x6f, 0x66, 0x69,
  0x6c, 0x65, 0x00, 0x00, 0x01, 0x00, 0x00, 0x00, 0x00, 0x00, 0x00, 0x00,
  0x0c, 0x00, 0x10, 0x00, 0x08, 0x00, 0x07, 0x00, 0x00, 0x00, 0x0c, 0x00,
  0x0c, 0x00, 0x00, 0x00, 0x00, 0x00, 0x00, 0x03, 0x1c, 0x00, 0x00, 0x00,
  0x04, 0x00, 0x00, 0x00, 0x0e, 0x00, 0x00, 0x00, 0x4e, 0x65, 0x75, 0x74,
  0x72, 0x6f, 0x6e, 0x53, 0x63, 0x72, 0x61, 0x74, 0x63, 0x68, 0x00, 0x00,
  0x01, 0x00, 0x00, 0x00, 0x80, 0x16, 0x00, 0x00, 0x24, 0xff, 0xff, 0xff,
  0x00, 0x00, 0x00, 0x03, 0x20, 0x00, 0x00, 0x00, 0x05, 0x00, 0x00, 0x00,
  0x04, 0x00, 0x00, 0x00, 0x0e, 0x00, 0x00, 0x00, 0x4e, 0x65, 0x75, 0x74,
  0x72, 0x6f, 0x6e, 0x4b, 0x65, 0x72, 0x6e, 0x65, 0x6c, 0x73, 0x00, 0x00,
  0x01, 0x00, 0x00, 0x00, 0x01, 0x00, 0x00, 0x00, 0x54, 0xff, 0xff, 0xff,
  0x00, 0x00, 0x00, 0x03, 0x20, 0x00, 0x00, 0x00, 0x04, 0x00, 0x00, 0x00,
  0x04, 0x00, 0x00, 0x00, 0x0e, 0x00, 0x00, 0x00, 0x4e, 0x65, 0x75, 0x74,
  0x72, 0x6f, 0x6e, 0x57, 0x65, 0x69, 0x67, 0x68, 0x74, 0x73, 0x00, 0x00,
  0x01, 0x00, 0x00, 0x00, 0xec, 0x14, 0x00, 0x00, 0x84, 0xff, 0xff, 0xff,
  0x00, 0x00, 0x00, 0x03, 0x24, 0x00, 0x00, 0x00, 0x03, 0x00, 0x00, 0x00,
  0x04, 0x00, 0x00, 0x00, 0x10, 0x00, 0x00, 0x00, 0x4e, 0x65, 0x75, 0x74,
  0x72, 0x6f, 0x6e, 0x4d, 0x69, 0x63, 0x72, 0x6f, 0x63, 0x6f, 0x64, 0x65,
  0x00, 0x00, 0x00, 0x00, 0x01, 0x00, 0x00, 0x00, 0xc8, 0x03, 0x00, 0x00,
  0xb8, 0xff, 0xff, 0xff, 0x00, 0x00, 0x00, 0x02, 0x38, 0x00, 0x00, 0x00,
  0x02, 0x00, 0x00, 0x00, 0x04, 0x00, 0x00, 0x00, 0x24, 0x00, 0x00, 0x00,
  0x53, 0x74, 0x61, 0x74, 0x65, 0x66, 0x75, 0x6c, 0x50, 0x61, 0x72, 0x74,
  0x69, 0x74, 0x69, 0x6f, 0x6e, 0x65, 0x64, 0x43, 0x61, 0x6c, 0x6c, 0x5f,
  0x31, 0x3a, 0x30, 0x2f, 0x70, 0x61, 0x64, 0x2f, 0x73, 0x69, 0x7a, 0x65,
  0x00, 0x00, 0x00, 0x00, 0x01, 0x00, 0x00, 0x00, 0x02, 0x00, 0x00, 0x00,
  0x0c, 0x00, 0x14, 0x00, 0x08, 0x00, 0x07, 0x00, 0x0c, 0x00, 0x10, 0x00,
  0x0c, 0x00, 0x00, 0x00, 0x00, 0x00, 0x00, 0x02, 0x38, 0x00, 0x00, 0x00,
  0x01, 0x00, 0x00, 0x00, 0x04, 0x00, 0x00, 0x00, 0x25, 0x00, 0x00, 0x00,
  0x53, 0x74, 0x61, 0x74, 0x65, 0x66, 0x75, 0x6c, 0x50, 0x61, 0x72, 0x74,
  0x69, 0x74, 0x69, 0x6f, 0x6e, 0x65, 0x64, 0x43, 0x61, 0x6c, 0x6c, 0x5f,
  0x31, 0x3a, 0x30, 0x2f, 0x70, 0x61, 0x64, 0x2f, 0x62, 0x65, 0x67, 0x69,
  0x6e, 0x00, 0x00, 0x00, 0x01, 0x00, 0x00, 0x00, 0x02, 0x00, 0x00, 0x00,
  0x36, 0xff, 0xff, 0xff, 0x00, 0x00, 0x00, 0x09, 0x4c, 0x00, 0x00, 0x00,
  0x28, 0x00, 0x00, 0x00, 0x04, 0x00, 0x00, 0x00, 0x6c, 0xfe, 0xff, 0xff,
  0x14, 0x00, 0x00, 0x00, 0x04, 0x00, 0x00, 0x00, 0x01, 0x00, 0x00, 0x00,
  0x80, 0xff, 0xff, 0xff, 0xff, 0xff, 0xff, 0xff, 0x01, 0x00, 0x00, 0x00,
  0x00, 0x00, 0x80, 0x3b, 0x1b, 0x00, 0x00, 0x00, 0x53, 0x74, 0x61, 0x74,
  0x65, 0x66, 0x75, 0x6c, 0x50, 0x61, 0x72, 0x74, 0x69, 0x74, 0x69, 0x6f,
  0x6e, 0x65, 0x64, 0x43, 0x61, 0x6c, 0x6c, 0x5f, 0x31, 0x3a, 0x30, 0x00,
  0x02, 0x00, 0x00, 0x00, 0x01, 0x00, 0x00, 0x00, 0x02, 0x00, 0x00, 0x00,
  0x96, 0xff, 0xff, 0xff, 0x00, 0x00, 0x00, 0x09, 0x54, 0x00, 0x00, 0x00,
  0x2c, 0x00, 0x00, 0x00, 0x04, 0x00, 0x00, 0x00, 0xcc, 0xfe, 0xff, 0xff,
  0x18, 0x00, 0x00, 0x00, 0x04, 0x00, 0x00, 0x00, 0x01, 0x00, 0x00, 0x00,
  0x80, 0xff, 0xff, 0xff, 0xff, 0xff, 0xff, 0xff, 0x00, 0x00, 0x00, 0x00,
  0x01, 0x00, 0x00, 0x00, 0x00, 0x00, 0x80, 0x3b, 0x1f, 0x00, 0x00, 0x00,
  0x53, 0x74, 0x61, 0x74, 0x65, 0x66, 0x75, 0x6c, 0x50, 0x61, 0x72, 0x74,
  0x69, 0x74, 0x69, 0x6f, 0x6e, 0x65, 0x64, 0x43, 0x61, 0x6c, 0x6c, 0x5f,
  0x31, 0x3a, 0x30, 0x2f, 0x70, 0x61, 0x64, 0x00, 0x02, 0x00, 0x00, 0x00,
  0x01, 0x00, 0x00, 0x00, 0x04, 0x00, 0x00, 0x00, 0x00, 0x00, 0x0e, 0x00,
  0x14, 0x00, 0x08, 0x00, 0x07, 0x00, 0x00, 0x00, 0x0c, 0x00, 0x10, 0x00,
  0x0e, 0x00, 0x00, 0x00, 0x00, 0x00, 0x00, 0x09, 0x78, 0x00, 0x00, 0x00,
  0x28, 0x00, 0x00, 0x00, 0x04, 0x00, 0x00, 0x00, 0x44, 0xff, 0xff, 0xff,
  0x14, 0x00, 0x00, 0x00, 0x04, 0x00, 0x00, 0x00, 0x01, 0x00, 0x00, 0x00,
  0xf4, 0xff, 0xff, 0xff, 0xff, 0xff, 0xff, 0xff, 0x01, 0x00, 0x00, 0x00,
  0x9a, 0xbb, 0x98, 0x3f, 0x44, 0x00, 0x00, 0x00, 0x74, 0x65, 0x72, 0x72,
  0x61, 0x5f, 0x67, 0x75, 0x61, 0x72, 0x64, 0x5f, 0x63, 0x72, 0x6f, 0x77,
  0x5f, 0x31, 0x2f, 0x63, 0x6c, 0x73, 0x5f, 0x31, 0x2f, 0x4d, 0x61, 0x74,
  0x4d, 0x75, 0x6c, 0x3b, 0x74, 0x65, 0x72, 0x72, 0x61, 0x5f, 0x67, 0x75,
  0x61, 0x72, 0x64, 0x5f, 0x63, 0x72, 0x6f, 0x77, 0x5f, 0x31, 0x2f, 0x63,
  0x6c, 0x73, 0x5f, 0x31, 0x2f, 0x42, 0x69, 0x61, 0x73, 0x41, 0x64, 0x64,
  0x2f, 0x70, 0x61, 0x64, 0x00, 0x00, 0x00, 0x00, 0x02, 0x00, 0x00, 0x00,
  0x01, 0x00, 0x00, 0x00, 0x04, 0x00, 0x00, 0x00, 0x00, 0x00, 0x16, 0x00,
  0x18, 0x00, 0x08, 0x00, 0x06, 0x00, 0x00, 0x00, 0x0c, 0x00, 0x10, 0x00,
  0x00, 0x00, 0x00, 0x00, 0x14, 0x00, 0x07, 0x00, 0x16, 0x00, 0x00, 0x00,
  0x00, 0x00, 0x09, 0x01, 0x70, 0x00, 0x00, 0x00, 0x4c, 0x00, 0x00, 0x00,
  0x28, 0x00, 0x00, 0x00, 0x04, 0x00, 0x00, 0x00, 0x04, 0x00, 0x00, 0x00,
  0x01, 0x00, 0x00, 0x00, 0x18, 0x00, 0x00, 0x00, 0x18, 0x00, 0x00, 0x00,
  0x04, 0x00, 0x00, 0x00, 0x0c, 0x00, 0x0c, 0x00, 0x00, 0x00, 0x00, 0x00,
  0x04, 0x00, 0x08, 0x00, 0x0c, 0x00, 0x00, 0x00, 0x14, 0x00, 0x00, 0x00,
  0x04, 0x00, 0x00, 0x00, 0x01, 0x00, 0x00, 0x00, 0x80, 0xff, 0xff, 0xff,
  0xff, 0xff, 0xff, 0xff, 0x01, 0x00, 0x00, 0x00, 0x81, 0x80, 0x80, 0x3b,
  0x1a, 0x00, 0x00, 0x00, 0x73, 0x65, 0x72, 0x76, 0x69, 0x6e, 0x67, 0x5f,
  0x64, 0x65, 0x66, 0x61, 0x75, 0x6c, 0x74, 0x5f, 0x74, 0x65, 0x72, 0x72,
  0x61, 0x5f, 0x69, 0x6e, 0x3a, 0x30, 0x00, 0x00, 0x04, 0x00, 0x00, 0x00,
  0x01, 0x00, 0x00, 0x00, 0x18, 0x00, 0x00, 0x00, 0x18, 0x00, 0x00, 0x00,
  0x04, 0x00, 0x00, 0x00, 0x03, 0x00, 0x00, 0x00, 0x4c, 0x00, 0x00, 0x00,
  0x2c, 0x00, 0x00, 0x00, 0x10, 0x00, 0x00, 0x00, 0x0c, 0x00, 0x0c, 0x00,
  0x07, 0x00, 0x00, 0x00, 0x00, 0x00, 0x08, 0x00, 0x0c, 0x00, 0x00, 0x00,
  0x00, 0x00, 0x00, 0x41, 0x41, 0x00, 0x00, 0x00, 0x0c, 0x00, 0x10, 0x00,
  0x07, 0x00, 0x00, 0x00, 0x08, 0x00, 0x0c, 0x00, 0x0c, 0x00, 0x00, 0x00,
  0x00, 0x00, 0x00, 0x19, 0x02, 0x00, 0x00, 0x00, 0x19, 0x00, 0x00, 0x00,
  0x0c, 0x00, 0x10, 0x00, 0x07, 0x00, 0x08, 0x00, 0x00, 0x00, 0x0c, 0x00,
  0x0c, 0x00, 0x00, 0x00, 0x00, 0x00, 0x00, 0x20, 0x08, 0x00, 0x00, 0x00,
  0x20, 0x00, 0x00, 0x00, 0x0c, 0x00, 0x00, 0x00, 0x4e, 0x65, 0x75, 0x74,
  0x72, 0x6f, 0x6e, 0x47, 0x72, 0x61, 0x70, 0x68, 0x00, 0x00, 0x00, 0x00
};

static const unsigned int model_data_len = 8208;
