/*
 * Copyright 2026 NXP
 *
 * SPDX-License-Identifier: BSD-3-Clause
 */

// 自作モデル（TerraGuard 3クラス: none/crow/human）を neutron-converter(mcxn94x)
// で NPU 変換し、tools/ml/make_model_data_h.py で SDK 枠に流し込んだもの。
// 元 op resolver スニペット（model_cifarnet_ops_npu.cpp を合わせること）:
/*
// Register operators for TFLite Micro.
static tflite::MicroMutableOpResolver<3> s_microOpResolver;
s_microOpResolver.AddSoftmax();
s_microOpResolver.AddSlice();
s_microOpResolver.AddCustom(tflite::GetString_NEUTRON_GRAPH(), tflite::Register_NEUTRON_GRAPH());
*/

#ifdef __arm__
#include <cmsis_compiler.h>
#else
#define __ALIGNED(x) __attribute__((aligned(x)))
#endif

#if defined(MCXN947_cm33_core0_SERIES)
#define __PLACEMENT __attribute__((section(".model")))
#else
#define __PLACEMENT
#endif

#define MODEL_NAME "terra_guard_crow"
// int8 入力をそのまま使う想定（前段で量子化済み）。MODEL_ConvertInput が
// (x - MEAN)/STD を行うため、恒等変換になるよう 0/1 にしておく。
#define MODEL_INPUT_MEAN 0.0f
#define MODEL_INPUT_STD 1.0f

constexpr int kTensorArenaSize = 65536;

static const uint8_t model_data[] __ALIGNED(16) __PLACEMENT = {
  0x20, 0x00, 0x00, 0x00, 0x54, 0x46, 0x4c, 0x33, 0x00, 0x00, 0x00, 0x00,
  0x00, 0x00, 0x12, 0x00, 0x1c, 0x00, 0x04, 0x00, 0x08, 0x00, 0x0c, 0x00,
  0x10, 0x00, 0x14, 0x00, 0x00, 0x00, 0x18, 0x00, 0x12, 0x00, 0x00, 0x00,
  0x03, 0x00, 0x00, 0x00, 0x74, 0x1f, 0x00, 0x00, 0x18, 0x1a, 0x00, 0x00,
  0xb0, 0x19, 0x00, 0x00, 0x50, 0x00, 0x00, 0x00, 0x04, 0x00, 0x00, 0x00,
  0x01, 0x00, 0x00, 0x00, 0x0c, 0x00, 0x00, 0x00, 0x08, 0x00, 0x0c, 0x00,
  0x04, 0x00, 0x08, 0x00, 0x08, 0x00, 0x00, 0x00, 0x08, 0x00, 0x00, 0x00,
  0x06, 0x00, 0x00, 0x00, 0x26, 0x00, 0x00, 0x00, 0x67, 0x72, 0x61, 0x70,
  0x68, 0x5f, 0x30, 0x5f, 0x6f, 0x70, 0x65, 0x72, 0x61, 0x74, 0x6f, 0x72,
  0x5f, 0x31, 0x5f, 0x4f, 0x72, 0x69, 0x67, 0x69, 0x6e, 0x61, 0x6c, 0x4e,
  0x75, 0x6d, 0x43, 0x68, 0x61, 0x6e, 0x6e, 0x65, 0x6c, 0x73, 0x00, 0x00,
  0x07, 0x00, 0x00, 0x00, 0x54, 0x19, 0x00, 0x00, 0x38, 0x19, 0x00, 0x00,
  0x14, 0x19, 0x00, 0x00, 0x30, 0x15, 0x00, 0x00, 0x2c, 0x00, 0x00, 0x00,
  0x18, 0x00, 0x00, 0x00, 0x04, 0x00, 0x00, 0x00, 0xa2, 0xe5, 0xff, 0xff,
  0x04, 0x00, 0x00, 0x00, 0x04, 0x00, 0x00, 0x00, 0x02, 0x00, 0x00, 0x00,
  0xb2, 0xe5, 0xff, 0xff, 0x04, 0x00, 0x00, 0x00, 0x01, 0x00, 0x00, 0x00,
  0x00, 0x00, 0x00, 0x00, 0xc2, 0xe5, 0xff, 0xff, 0x04, 0x00, 0x00, 0x00,
  0xec, 0x14, 0x00, 0x00, 0x7f, 0x9a, 0xc0, 0x97, 0x20, 0x1e, 0x8c, 0x1e,
  0xf2, 0x1b, 0xe0, 0x1a, 0xb2, 0x16, 0x9c, 0x1e, 0xd2, 0x93, 0x6e, 0x8f,
  0x91, 0x1e, 0xb0, 0x1f, 0xc1, 0x1e, 0xb5, 0x1e, 0xf7, 0x8e, 0x56, 0x1f,
  0x6e, 0x13, 0xc5, 0x16, 0x0d, 0x1b, 0x5e, 0x1e, 0x8e, 0x1b, 0xd4, 0x1a,
  0x2b, 0x9a, 0x49, 0x1e, 0x6b, 0x52, 0xa1, 0x52, 0x56, 0x4e, 0x08, 0x4e,
  0x0c, 0x52, 0x14, 0x52, 0x69, 0x52, 0x10, 0x52, 0x3a, 0x2a, 0xe9, 0x56,
  0x2a, 0xdf, 0x38, 0x36, 0xe8, 0x2b, 0x03, 0x0f, 0x0b, 0x57, 0xd3, 0x01,
  0x24, 0x70, 0xe1, 0xaa, 0xd7, 0x6c, 0x25, 0x06, 0xd6, 0xb2, 0x21, 0xcc,
  0x5c, 0x6d, 0xb3, 0x00, 0xeb, 0x81, 0xc6, 0x4c, 0x3e, 0xd8, 0x16, 0xdc,
  0xdd, 0x3a, 0x04, 0xf9, 0xf8, 0x7f, 0x19, 0x2a, 0x0b, 0x21, 0x3e, 0x3f,
  0x12, 0x7f, 0x56, 0x01, 0xc5, 0xc7, 0xd0, 0x68, 0xa8, 0x3a, 0xb9, 0xf9,
  0x1c, 0x17, 0x2c, 0x45, 0x0e, 0x3d, 0xbf, 0x30, 0x17, 0x16, 0x00, 0x0b,
  0xf4, 0x23, 0xf2, 0x2b, 0xa6, 0x65, 0xf6, 0xff, 0xd3, 0x4a, 0x29, 0xa9,
  0xee, 0x44, 0xc7, 0xf2, 0x53, 0x3a, 0xfc, 0x21, 0x32, 0x02, 0x48, 0xce,
  0xe7, 0xbd, 0x0e, 0x0f, 0x0b, 0x58, 0xfb, 0xec, 0xee, 0x6b, 0xc8, 0x36,
  0x3e, 0x3c, 0x08, 0x05, 0xe1, 0x34, 0x4a, 0xe4, 0xf1, 0xab, 0x46, 0x41,
  0x49, 0x6b, 0x43, 0x3c, 0xc8, 0x9a, 0xfe, 0xf0, 0xd2, 0xb7, 0x47, 0x43,
  0x00, 0x78, 0x08, 0x34, 0xe4, 0x71, 0xf7, 0x3d, 0xc8, 0x67, 0xd2, 0x53,
  0xf4, 0x2a, 0xbf, 0xf5, 0xda, 0x9b, 0xbb, 0x22, 0x57, 0x20, 0x11, 0xc1,
  0x3d, 0xd4, 0xf3, 0xfa, 0x19, 0x32, 0xed, 0xde, 0xf8, 0x38, 0xde, 0x25,
  0xef, 0x19, 0x23, 0x33, 0x0f, 0x64, 0xf0, 0xe2, 0x05, 0x5f, 0xd6, 0xc8,
  0x39, 0x9e, 0xfa, 0x59, 0xe5, 0x51, 0x32, 0xc6, 0xc3, 0xc9, 0xe5, 0xf6,
  0x07, 0x09, 0xfb, 0x37, 0x07, 0x51, 0xe5, 0xef, 0xd7, 0x40, 0xfb, 0x11,
  0xea, 0x54, 0xe6, 0x0d, 0x38, 0x3e, 0xc9, 0x13, 0x37, 0x52, 0x4d, 0x64,
  0x4b, 0x7f, 0xa3, 0xc2, 0xc6, 0xa1, 0x0a, 0x16, 0xbd, 0x81, 0x48, 0x01,
  0xf4, 0x7f, 0xfd, 0x1e, 0x0e, 0x66, 0x06, 0x0a, 0xc8, 0x7f, 0x0f, 0xe4,
  0xca, 0x77, 0x3c, 0x07, 0x01, 0xee, 0xd1, 0x40, 0xc1, 0x09, 0xd6, 0x1d,
  0xe4, 0x4f, 0x33, 0xc4, 0x09, 0xa0, 0xd9, 0xcd, 0xf3, 0x40, 0x1a, 0x04,
  0x15, 0x6a, 0x15, 0x17, 0x32, 0x28, 0x0b, 0x2a, 0x19, 0x50, 0xfa, 0x12,
  0x53, 0x81, 0x00, 0xd8, 0x40, 0x6d, 0x52, 0x22, 0x86, 0x1f, 0x00, 0x0b,
  0x9a, 0x1f, 0x0b, 0x9a, 0x37, 0x1f, 0xe1, 0x0e, 0x1f, 0x1a, 0xd6, 0x12,
  0x60, 0x22, 0x01, 0x1f, 0xd4, 0x22, 0x49, 0x9a, 0x93, 0x1f, 0x40, 0x97,
  0x5f, 0x1a, 0xe7, 0x17, 0x55, 0x1f, 0x5a, 0x1f, 0x03, 0x1f, 0x16, 0x97,
  0x07, 0x1b, 0xac, 0x97, 0xb4, 0x93, 0x86, 0x12, 0x08, 0x1e, 0xd6, 0x9a,
  0xff, 0x17, 0xff, 0x1f, 0xba, 0x1e, 0x2a, 0x17, 0xe9, 0x1a, 0xcd, 0x16,
  0xb5, 0x1f, 0xd1, 0x97, 0xed, 0x1b, 0x3d, 0x22, 0xee, 0x1f, 0xc6, 0x16,
  0xa0, 0x1f, 0x04, 0x1a, 0x93, 0x1e, 0xb5, 0x07, 0xb7, 0x16, 0xed, 0x1e,
  0x02, 0x1f, 0xc8, 0x8e, 0x71, 0x1f, 0x05, 0x16, 0xdd, 0x56, 0xec, 0x56,
  0xfc, 0x52, 0xcc, 0x57, 0xce, 0x53, 0xf5, 0x56, 0x08, 0x57, 0xe9, 0x56,
  0x90, 0x57, 0x1d, 0x52, 0x7a, 0x57, 0x24, 0x57, 0x22, 0x52, 0x27, 0x57,
  0xad, 0x57, 0xbe, 0x56, 0x02, 0x54, 0x23, 0xe5, 0x23, 0x40, 0x15, 0x2c,
  0xe5, 0xd7, 0x45, 0x2e, 0xb4, 0xc0, 0x28, 0x29, 0xe4, 0x08, 0xeb, 0xed,
  0xf7, 0xd3, 0xfc, 0x04, 0xd8, 0xae, 0x2e, 0xd6, 0xcd, 0x07, 0x30, 0x1e,
  0xfd, 0xb8, 0x25, 0xe6, 0x48, 0x2e, 0x69, 0x1b, 0xea, 0xd1, 0x64, 0x55,
  0xe5, 0xd4, 0x49, 0x38, 0xe1, 0xff, 0x2a, 0x3c, 0xcb, 0xfe, 0xf7, 0xfb,
  0xf7, 0x15, 0x2f, 0x1d, 0xcf, 0x21, 0x18, 0x10, 0xe0, 0xdb, 0x68, 0x76,
  0xea, 0xf9, 0x2a, 0x3c, 0x4a, 0xed, 0x39, 0x68, 0x18, 0x14, 0x15, 0x49,
  0xef, 0xe3, 0x3f, 0x2b, 0xc9, 0xd5, 0xf6, 0x15, 0x08, 0xf6, 0x1d, 0xad,
  0xd7, 0x3d, 0x02, 0x09, 0xb6, 0x1f, 0x2b, 0x19, 0xc8, 0xfa, 0x7f, 0xcf,
  0x0a, 0x11, 0x06, 0xea, 0x3b, 0x07, 0x81, 0x13, 0x08, 0xee, 0x04, 0xf4,
  0x1b, 0x1f, 0x8b, 0x09, 0x0c, 0x6b, 0x8d, 0x4a, 0x1f, 0x2f, 0xac, 0x2f,
  0x40, 0xd2, 0x69, 0x9f, 0xed, 0xf7, 0x31, 0x1b, 0x4b, 0xfa, 0x04, 0xf9,
  0xf6, 0x28, 0xa3, 0x17, 0x30, 0x14, 0xdc, 0x0b, 0x13, 0x42, 0xb5, 0x5b,
  0x28, 0x18, 0xa5, 0x02, 0x14, 0x01, 0xd4, 0x1f, 0x31, 0xf2, 0x53, 0xda,
  0x67, 0xb6, 0x63, 0x42, 0x0d, 0x26, 0x05, 0x0e, 0xf7, 0x2b, 0xaf, 0xd9,
  0x17, 0xef, 0xec, 0x0b, 0xcf, 0x20, 0x94, 0x1e, 0xd6, 0x2a, 0x20, 0x21,
  0x2e, 0xf0, 0xd7, 0x20, 0x2f, 0x39, 0x48, 0xec, 0xfc, 0x31, 0xd2, 0xcb,
  0xf4, 0xd2, 0x5a, 0x16, 0xe5, 0xc5, 0x28, 0xf1, 0xe8, 0xfa, 0x23, 0x0f,
  0xf3, 0xf3, 0x05, 0xea, 0xf0, 0xaf, 0x44, 0x07, 0xcb, 0x08, 0xf2, 0xeb,
  0x1f, 0xbb, 0x74, 0xe4, 0x31, 0x3e, 0xfb, 0x8b, 0xc1, 0xbe, 0x4f, 0xff,
  0xd2, 0xe2, 0x0b, 0xfc, 0xf0, 0xd7, 0x26, 0x3c, 0x07, 0xc5, 0xdd, 0x20,
  0xb7, 0xba, 0xe3, 0xff, 0xde, 0xd8, 0xf6, 0x30, 0x12, 0x26, 0x7e, 0x50,
  0x56, 0xde, 0x25, 0x77, 0xdd, 0xfa, 0x50, 0x2b, 0xe5, 0xbe, 0x23, 0xe8,
  0x01, 0x08, 0x2a, 0x37, 0x37, 0x0d, 0x09, 0x12, 0xfd, 0x2d, 0xc1, 0x01,
  0xc7, 0xc1, 0xcc, 0x22, 0xc2, 0x33, 0xd7, 0xe1, 0xf4, 0x3e, 0x06, 0x12,
  0x42, 0x18, 0xd8, 0x14, 0x36, 0xf0, 0xb7, 0x18, 0x0c, 0x19, 0xed, 0xe3,
  0x03, 0x72, 0x81, 0x36, 0x5b, 0x50, 0xad, 0xdb, 0xff, 0x35, 0x98, 0x56,
  0xd3, 0xef, 0x1a, 0x3b, 0xb6, 0xfd, 0xdc, 0xae, 0x54, 0x1d, 0xcd, 0xeb,
  0x16, 0x02, 0xb7, 0x20, 0x1d, 0x2f, 0xf0, 0x13, 0x2f, 0x2d, 0x9d, 0x17,
  0x11, 0x53, 0x81, 0x3a, 0x40, 0x18, 0xeb, 0xf5, 0x05, 0x14, 0x23, 0x49,
  0x1b, 0x0d, 0x0b, 0x28, 0x10, 0xfd, 0x02, 0x2a, 0x29, 0x10, 0x13, 0x07,
  0x1b, 0x1c, 0xf6, 0x17, 0xf0, 0x39, 0x8d, 0x26, 0xcb, 0x58, 0xa3, 0x28,
  0x36, 0xfc, 0x0c, 0x1f, 0x56, 0x4b, 0x34, 0xe2, 0x46, 0xcd, 0x35, 0x4d,
  0xeb, 0xe0, 0x7f, 0x5d, 0xeb, 0xa3, 0x01, 0x10, 0xcf, 0x00, 0x33, 0x05,
  0xf5, 0xbf, 0x1f, 0x3b, 0xd1, 0x0a, 0x6d, 0x42, 0xfb, 0x9b, 0x56, 0x26,
  0xce, 0x25, 0x1a, 0x16, 0x2e, 0x2f, 0x9a, 0x87, 0xb8, 0xea, 0x56, 0x71,
  0xba, 0xde, 0x53, 0xee, 0xfb, 0xf2, 0x61, 0x5d, 0x95, 0xa1, 0x30, 0x05,
  0xa1, 0x19, 0x24, 0xdc, 0xff, 0xf0, 0x37, 0x55, 0x3f, 0xba, 0x62, 0x7f,
  0xee, 0xfa, 0xe5, 0xf3, 0x09, 0xfd, 0x4a, 0x51, 0xea, 0xf0, 0x35, 0x27,
  0x0d, 0xdf, 0x42, 0x7f, 0xec, 0xcf, 0x09, 0x17, 0xd5, 0x2b, 0x33, 0x1d,
  0x1f, 0x3e, 0xf0, 0x28, 0x10, 0xb4, 0x53, 0xe0, 0x0a, 0xe4, 0x52, 0xff,
  0x34, 0x4a, 0xe6, 0xf2, 0x49, 0xe4, 0xf3, 0x25, 0x28, 0x0c, 0xe9, 0xf4,
  0x5e, 0x3d, 0xc7, 0x28, 0x7a, 0x24, 0xbf, 0xfd, 0xfe, 0x5d, 0xd4, 0x3d,
  0x07, 0xb4, 0xdb, 0x33, 0x33, 0x3d, 0x02, 0xc6, 0x2c, 0x42, 0xcd, 0x2b,
  0x11, 0x06, 0x1b, 0xbe, 0x29, 0x2f, 0xe0, 0xf1, 0x05, 0x09, 0xbc, 0x36,
  0x45, 0x59, 0xca, 0x33, 0x14, 0x34, 0x81, 0xce, 0x50, 0xea, 0xec, 0xd1,
  0xcb, 0xe2, 0xe9, 0xc7, 0x36, 0x0b, 0xd8, 0x1f, 0xdd, 0x19, 0xe1, 0xe7,
  0x15, 0x31, 0x14, 0x1d, 0xef, 0x61, 0xe7, 0x06, 0x2f, 0x26, 0x9a, 0x2e,
  0x47, 0xd4, 0xd6, 0xb3, 0x20, 0x1c, 0x5d, 0x03, 0xc6, 0xb9, 0x69, 0x09,
  0x19, 0xfa, 0x26, 0x02, 0x4c, 0xd0, 0x05, 0xef, 0x06, 0x37, 0x01, 0xcb,
  0xad, 0xac, 0x7e, 0x21, 0x0b, 0x49, 0x3d, 0x27, 0xae, 0xc1, 0x55, 0xe3,
  0x34, 0x2a, 0xad, 0xb5, 0xce, 0xe6, 0x37, 0x48, 0x04, 0xcd, 0x01, 0x1e,
  0x11, 0x4c, 0xac, 0x09, 0xf8, 0xef, 0x15, 0x23, 0xb3, 0xc3, 0x24, 0x4a,
  0x3c, 0x28, 0xd4, 0x1a, 0xc1, 0x1b, 0x38, 0x39, 0x32, 0x00, 0x2a, 0x7f,
  0xeb, 0xc6, 0x59, 0x6b, 0x39, 0x40, 0xd8, 0x10, 0x17, 0xc9, 0x74, 0x7f,
  0x4d, 0xff, 0x59, 0x7f, 0xcf, 0xbe, 0x16, 0x64, 0x20, 0x15, 0x28, 0x24,
  0x07, 0xe1, 0xd8, 0x27, 0xe9, 0x0a, 0x1f, 0x0d, 0x39, 0x20, 0x81, 0xdf,
  0x48, 0x38, 0xe2, 0x38, 0xbc, 0xb7, 0x41, 0xef, 0xe3, 0xc7, 0xea, 0x0f,
  0x5a, 0x4e, 0x81, 0xda, 0xd1, 0x09, 0x76, 0xea, 0x52, 0x15, 0x8c, 0x46,
  0xf7, 0xb7, 0x45, 0xd7, 0x55, 0x07, 0xf6, 0xde, 0x59, 0x10, 0xac, 0xd1,
  0xe2, 0xb8, 0x12, 0x14, 0xda, 0xc8, 0x48, 0xee, 0x4c, 0x38, 0xb7, 0xfe,
  0x0e, 0xac, 0x4b, 0x2f, 0x1e, 0x5e, 0xac, 0xd4, 0x3b, 0x10, 0x1c, 0x26,
  0x26, 0xfa, 0xea, 0xeb, 0x18, 0xe9, 0xff, 0xeb, 0x22, 0xbd, 0x33, 0x11,
  0x29, 0x28, 0x42, 0xda, 0xf2, 0xe6, 0xd4, 0x1c, 0xd8, 0x0b, 0x1d, 0x33,
  0x05, 0x4a, 0x14, 0xdc, 0xe4, 0xf2, 0xe5, 0x30, 0x91, 0xc6, 0x1c, 0x3b,
  0xfc, 0xf5, 0x21, 0x09, 0x23, 0x25, 0x75, 0x0e, 0x29, 0x0f, 0xd6, 0x0d,
  0xd4, 0xf5, 0xf3, 0x2d, 0x46, 0xdf, 0x52, 0xd9, 0x1e, 0x9b, 0x40, 0x11,
  0xf7, 0x34, 0x0e, 0x1a, 0xe0, 0xde, 0x26, 0x26, 0xd8, 0x02, 0xd7, 0x01,
  0x51, 0x3f, 0xc8, 0xb3, 0xd8, 0x2e, 0x0e, 0x1f, 0xcb, 0xd7, 0x3e, 0x4e,
  0x0e, 0xdf, 0x29, 0xbe, 0xe7, 0xac, 0x2b, 0x1d, 0xf7, 0x2a, 0x67, 0x35,
  0xdb, 0x09, 0x16, 0x17, 0x3c, 0xd1, 0xed, 0x20, 0x2a, 0xfb, 0x6e, 0x39,
  0x1c, 0x05, 0x56, 0x3e, 0x1e, 0x2b, 0x3c, 0xf8, 0x39, 0xdc, 0x6c, 0x0e,
  0xff, 0x37, 0x0d, 0x28, 0x28, 0x35, 0x65, 0xe4, 0x4f, 0xef, 0x89, 0x10,
  0x25, 0x41, 0x81, 0x4b, 0x42, 0x45, 0x46, 0xbe, 0x01, 0xe4, 0x0e, 0xdc,
  0x4b, 0x0b, 0xa6, 0x0d, 0xeb, 0x2c, 0x4e, 0x3b, 0x29, 0x58, 0x9d, 0x4a,
  0x05, 0xc2, 0x12, 0xf7, 0x1d, 0x33, 0xdd, 0x26, 0xe4, 0x38, 0xc6, 0x04,
  0xd4, 0x03, 0x41, 0xfb, 0xfb, 0xfe, 0x18, 0x0e, 0xf9, 0xe2, 0xfb, 0xf4,
  0xc6, 0xba, 0x14, 0x0b, 0xef, 0x39, 0x82, 0x29, 0xec, 0xdc, 0xe7, 0xc5,
  0xd9, 0xe9, 0xda, 0x16, 0x12, 0xf0, 0x9a, 0x1e, 0x34, 0xf2, 0xe9, 0x1f,
  0x59, 0x23, 0x48, 0x19, 0xdc, 0xd4, 0xe9, 0x01, 0x2f, 0x21, 0x19, 0xe8,
  0xb7, 0x12, 0x99, 0x4d, 0x14, 0x22, 0x09, 0x2b, 0xd0, 0x9f, 0x42, 0x25,
  0xe4, 0xbf, 0x4a, 0xeb, 0x45, 0x1c, 0xc7, 0x3e, 0xdc, 0x23, 0x07, 0xf9,
  0xf7, 0xd0, 0x7a, 0x56, 0x14, 0x28, 0xd9, 0xf3, 0xa9, 0xd3, 0x45, 0x7f,
  0x45, 0x1e, 0xcb, 0xf5, 0xae, 0xe0, 0x11, 0x43, 0xdb, 0xe9, 0x29, 0x3d,
  0x42, 0x0a, 0xb3, 0xe1, 0xf5, 0xd0, 0x25, 0x0d, 0xca, 0x03, 0x55, 0x02,
  0x2f, 0xf9, 0xda, 0xa8, 0x83, 0xf7, 0x52, 0x11, 0x0f, 0xf5, 0x01, 0xf1,
  0x05, 0xe4, 0x20, 0x2c, 0x37, 0xe8, 0xf1, 0x29, 0x12, 0x3e, 0xcf, 0x41,
  0x19, 0xf2, 0x4c, 0x40, 0x0b, 0x04, 0x23, 0x72, 0x2f, 0x23, 0x0d, 0x7f,
  0x41, 0xae, 0xe6, 0x21, 0xfc, 0xd1, 0x4a, 0xf1, 0xff, 0xe2, 0xa7, 0xfd,
  0x5a, 0x27, 0xc7, 0x1d, 0xeb, 0xdb, 0x02, 0x49, 0x08, 0x1b, 0x1f, 0xf7,
  0x3d, 0xfd, 0xfb, 0xdb, 0xd3, 0x29, 0x1b, 0xea, 0x46, 0xee, 0x89, 0x66,
  0x02, 0x16, 0x2c, 0xc9, 0x03, 0xfe, 0xa8, 0x25, 0x0f, 0x38, 0xf7, 0x16,
  0xde, 0x28, 0x2f, 0x2d, 0xeb, 0xd7, 0xd8, 0xef, 0x15, 0xbe, 0xd4, 0xf4,
  0xdb, 0xb2, 0x06, 0xbf, 0x08, 0x37, 0xc6, 0x5c, 0x36, 0x3a, 0x15, 0x05,
  0x38, 0xd6, 0xbe, 0xf1, 0xed, 0x56, 0xe5, 0x2d, 0xda, 0x37, 0x2e, 0x35,
  0x49, 0x2d, 0x55, 0xd2, 0x00, 0x06, 0x2d, 0xa1, 0x39, 0xe0, 0xff, 0x34,
  0x04, 0x5b, 0xb2, 0xd9, 0x88, 0x22, 0xa5, 0x1f, 0x25, 0x1b, 0xc9, 0x1b,
  0x69, 0x16, 0x55, 0x1f, 0x71, 0x1f, 0x5f, 0xa6, 0xd0, 0x23, 0xa5, 0x22,
  0x10, 0x1f, 0x4a, 0x1e, 0x33, 0x1a, 0xdc, 0x22, 0x64, 0x23, 0xe6, 0xa6,
  0x20, 0x22, 0x2a, 0x1f, 0x77, 0x1f, 0x21, 0x1a, 0x32, 0x13, 0x6a, 0x1f,
  0x2c, 0x22, 0x54, 0xa3, 0x56, 0x1f, 0xe7, 0x1f, 0xfc, 0xa6, 0x3f, 0x22,
  0x20, 0x22, 0x80, 0x22, 0x12, 0x1f, 0xf4, 0x1f, 0x28, 0x23, 0x29, 0x22,
  0xd4, 0xa7, 0x71, 0x22, 0x97, 0x23, 0x02, 0x26, 0xe8, 0x1f, 0x39, 0x22,
  0x2b, 0x22, 0x1c, 0x1f, 0x5a, 0xa6, 0x12, 0x1f, 0xb9, 0x22, 0xae, 0x22,
  0xb1, 0x1e, 0x95, 0x1e, 0xb5, 0x1f, 0x4d, 0x1f, 0xe0, 0x1a, 0x95, 0x22,
  0x6e, 0x22, 0xa6, 0x1f, 0xe4, 0x1e, 0x22, 0x1b, 0x4d, 0x22, 0x15, 0x1f,
  0x3b, 0x1e, 0xc7, 0x23, 0x0a, 0x23, 0x62, 0x23, 0x09, 0x22, 0x26, 0x1b,
  0x35, 0x1e, 0x0c, 0x1e, 0x00, 0x1b, 0x4b, 0x22, 0x1a, 0x1f, 0x29, 0x22,
  0xad, 0x1b, 0x90, 0x1a, 0x88, 0x53, 0x14, 0x4e, 0x3e, 0x4e, 0x1c, 0x4e,
  0x6a, 0x4e, 0x58, 0x4e, 0x0c, 0x4e, 0xc8, 0x57, 0x48, 0x4e, 0xe9, 0x53,
  0x32, 0x52, 0x91, 0x53, 0xcb, 0x53, 0xbb, 0x53, 0x46, 0x4e, 0xd2, 0x53,
  0xaf, 0x53, 0xe1, 0x53, 0x7c, 0x4e, 0x1c, 0x4e, 0x17, 0x4e, 0x37, 0x4e,
  0xbd, 0x53, 0xf4, 0x53, 0x70, 0xf3, 0x40, 0xbc, 0xce, 0x98, 0x32, 0x46,
  0xed, 0x92, 0x16, 0x7f, 0xb9, 0xc4, 0x07, 0x7a, 0xbd, 0x8c, 0x50, 0x46,
  0x20, 0x12, 0x55, 0xd0, 0x2b, 0x1b, 0x1c, 0xda, 0xd9, 0xc8, 0xe0, 0xd6,
  0x19, 0xf8, 0x52, 0xea, 0xc6, 0xec, 0x0e, 0x61, 0xea, 0xff, 0x21, 0x5f,
  0x15, 0xe8, 0x46, 0x7f, 0x1d, 0xdd, 0x65, 0x73, 0x19, 0x24, 0x3e, 0xed,
  0xe7, 0xed, 0x4c, 0xc3, 0xde, 0xab, 0xbc, 0xc3, 0x3b, 0x46, 0x6a, 0x27,
  0xf9, 0xa3, 0xc3, 0x58, 0xd0, 0xe8, 0x06, 0x50, 0xcb, 0x98, 0xf8, 0x2b,
  0xf5, 0xb8, 0x08, 0x25, 0x04, 0xfe, 0x52, 0xfd, 0x62, 0x28, 0x5d, 0xec,
  0xbc, 0xdf, 0x8c, 0xd0, 0xf3, 0x09, 0xb8, 0xd8, 0x0d, 0x2d, 0x09, 0xfc,
  0xfc, 0x3d, 0xfc, 0x37, 0x2b, 0xfa, 0x2c, 0xfe, 0xf0, 0xee, 0x10, 0x2b,
  0x1d, 0xca, 0x09, 0xef, 0x18, 0xf8, 0x1f, 0x2d, 0xee, 0x94, 0x0a, 0x1c,
  0xec, 0xc3, 0xc8, 0x1c, 0xf6, 0x33, 0x4d, 0x52, 0xfb, 0x35, 0x0c, 0x0e,
  0x43, 0x59, 0x3e, 0xed, 0x25, 0x27, 0xfa, 0x30, 0xfd, 0x02, 0xce, 0x08,
  0x15, 0xb3, 0x10, 0x1b, 0x27, 0x1f, 0x3e, 0x22, 0x7f, 0xc9, 0xf4, 0x0c,
  0x15, 0x22, 0x40, 0xed, 0x00, 0x41, 0x36, 0xfb, 0xdd, 0x09, 0x32, 0xe1,
  0xfa, 0x2f, 0xf5, 0x28, 0x46, 0x07, 0x19, 0xdd, 0x58, 0x14, 0xdb, 0x37,
  0xd1, 0xab, 0x10, 0x05, 0x05, 0x30, 0x18, 0x4b, 0x95, 0x2d, 0xfe, 0xbd,
  0xea, 0x45, 0x36, 0xa5, 0xa6, 0x2d, 0xef, 0xb8, 0xa6, 0x4b, 0xf8, 0x81,
  0x2a, 0xf0, 0x0f, 0xe9, 0x28, 0xe9, 0xdc, 0xec, 0xde, 0x1d, 0x6f, 0xc9,
  0xeb, 0xf9, 0xf7, 0xc0, 0x06, 0x49, 0x5f, 0xd4, 0xe4, 0x32, 0x04, 0x00,
  0xd4, 0x59, 0x08, 0xa8, 0xdb, 0x64, 0xfc, 0xb5, 0x17, 0xeb, 0x18, 0xf8,
  0xe1, 0x30, 0xe6, 0x22, 0x83, 0x0e, 0xdb, 0x0e, 0xe9, 0x65, 0x36, 0x17,
  0x04, 0x2b, 0x3f, 0xfe, 0xc5, 0x14, 0x04, 0xf1, 0xba, 0x1b, 0xf8, 0xe3,
  0x09, 0x0e, 0x3c, 0xf0, 0xef, 0x10, 0x30, 0xe2, 0xfb, 0x53, 0x0f, 0x23,
  0x97, 0x68, 0xde, 0xab, 0x29, 0x09, 0x31, 0x03, 0xdc, 0x2a, 0x96, 0x42,
  0xae, 0x39, 0xbe, 0x2e, 0xa8, 0x32, 0x9e, 0x1a, 0xcd, 0x36, 0xc0, 0xfa,
  0x2a, 0x10, 0x44, 0x34, 0x43, 0xdb, 0xfc, 0xf7, 0x28, 0x04, 0x0a, 0x53,
  0xfc, 0xc0, 0xcf, 0x07, 0xca, 0x73, 0xd9, 0x51, 0xd6, 0x2f, 0xf0, 0x60,
  0xf5, 0x5a, 0xec, 0x3e, 0xed, 0x4c, 0xc9, 0x36, 0xf8, 0x0e, 0xdd, 0x00,
  0x45, 0xf0, 0xfa, 0x20, 0x47, 0x4e, 0x6b, 0xfb, 0x67, 0xf8, 0x3b, 0x0b,
  0x94, 0x55, 0xe1, 0x09, 0xae, 0x48, 0xc6, 0xf4, 0xce, 0x40, 0xcd, 0x23,
  0xb2, 0x4b, 0xa9, 0xe7, 0x50, 0x26, 0x12, 0x0a, 0x71, 0xf4, 0x3d, 0x24,
  0x1e, 0x5b, 0xa6, 0xd7, 0x17, 0x1a, 0x4d, 0xab, 0xe9, 0xdf, 0x3f, 0x24,
  0xb0, 0xb6, 0x48, 0x4c, 0xd2, 0x90, 0x39, 0x2e, 0xcb, 0xc8, 0x37, 0x1b,
  0x12, 0xea, 0x46, 0xe8, 0x19, 0x01, 0x4d, 0x13, 0x02, 0x05, 0xd7, 0xc9,
  0x29, 0xd3, 0x1e, 0x15, 0x0f, 0xc0, 0x4c, 0x2a, 0x01, 0xda, 0x25, 0x74,
  0x06, 0xae, 0x27, 0x46, 0xf5, 0xe2, 0x14, 0x2d, 0x07, 0x29, 0x19, 0x03,
  0xfc, 0xf0, 0xd6, 0x05, 0xae, 0x94, 0x47, 0x29, 0x66, 0x34, 0x0e, 0x2f,
  0xdc, 0xc1, 0x33, 0x19, 0xe3, 0x13, 0x48, 0x2f, 0xf9, 0xf5, 0xec, 0x42,
  0x03, 0xe6, 0x2b, 0x28, 0x42, 0xe2, 0x3d, 0x08, 0x4e, 0xfd, 0x10, 0xd6,
  0x50, 0x57, 0x67, 0xdf, 0xf7, 0xd0, 0x00, 0xd1, 0xf3, 0x14, 0x25, 0x4b,
  0x1f, 0x46, 0xf8, 0x38, 0xd6, 0x30, 0x1f, 0xe2, 0x28, 0xe8, 0xdf, 0xf5,
  0x32, 0x02, 0xfb, 0xd8, 0x32, 0x03, 0xec, 0x37, 0xd1, 0xc2, 0x36, 0xc6,
  0x1c, 0xd2, 0xe5, 0xc5, 0x0a, 0x41, 0x4b, 0xf7, 0x1e, 0x30, 0x2d, 0xf5,
  0x54, 0x04, 0x49, 0x17, 0x31, 0x3c, 0xfb, 0x42, 0xd9, 0xe9, 0xdf, 0xec,
  0xe7, 0x07, 0xbd, 0xf7, 0x9b, 0xc1, 0xfb, 0xc7, 0x57, 0x0c, 0xc8, 0x0f,
  0xe5, 0x4a, 0x43, 0x3c, 0x17, 0x0d, 0x18, 0xf3, 0x24, 0x20, 0xfa, 0x21,
  0x01, 0x21, 0xe4, 0xfa, 0x1b, 0x1b, 0x0a, 0xfb, 0x4a, 0xc4, 0x23, 0xfc,
  0x96, 0x14, 0xd0, 0x2f, 0x46, 0xfd, 0xd3, 0x3f, 0x81, 0x1d, 0x37, 0xa5,
  0xd5, 0x5b, 0xe7, 0x94, 0xb2, 0x4b, 0x0a, 0x9b, 0xa3, 0x0d, 0xe7, 0xbd,
  0x32, 0xf7, 0xe4, 0xe4, 0xff, 0xf3, 0xef, 0xed, 0x8e, 0x97, 0x71, 0xc1,
  0xd0, 0xc8, 0xc8, 0xf1, 0xc2, 0x5c, 0x14, 0x0b, 0xd3, 0x30, 0x28, 0xc4,
  0xfc, 0x2f, 0x08, 0xb3, 0xc5, 0x50, 0x21, 0xb0, 0xe7, 0x17, 0xff, 0x21,
  0x18, 0x24, 0xcf, 0xff, 0x2a, 0xb8, 0xbb, 0xa8, 0x21, 0x16, 0x35, 0x22,
  0x1a, 0x3d, 0x18, 0xbb, 0x1f, 0x15, 0x2c, 0xe9, 0xd8, 0xfa, 0xe7, 0xce,
  0x0e, 0x24, 0x16, 0xb3, 0x0e, 0x06, 0xf0, 0xcd, 0xf8, 0xe0, 0x3d, 0xd6,
  0x4b, 0xf8, 0x32, 0x95, 0x63, 0x18, 0x0f, 0x09, 0xb6, 0x53, 0x86, 0x0a,
  0xdf, 0x00, 0xb5, 0x0e, 0xa2, 0x46, 0xa8, 0x2b, 0xd4, 0x10, 0xa1, 0xf4,
  0x24, 0x0a, 0x03, 0x01, 0x32, 0x17, 0x37, 0xd0, 0xb7, 0xb5, 0x71, 0xa1,
  0x1b, 0x0e, 0xfe, 0xbe, 0x0b, 0x6a, 0xa8, 0x16, 0x12, 0x77, 0xe5, 0x5e,
  0xfd, 0x78, 0x00, 0x41, 0x29, 0x3e, 0xb3, 0x2d, 0x17, 0x0c, 0x1b, 0x07,
  0xed, 0xbc, 0x0f, 0xfe, 0xe2, 0xfc, 0x8c, 0x87, 0x1f, 0xfd, 0x04, 0x4c,
  0xb2, 0x1d, 0xd3, 0x2e, 0xbb, 0x24, 0xc8, 0xf5, 0xf3, 0x52, 0xdb, 0xea,
  0xed, 0x41, 0xc8, 0x38, 0x29, 0xe9, 0x06, 0xec, 0x77, 0x0a, 0xfc, 0x24,
  0xa2, 0x2b, 0x13, 0xe4, 0xee, 0x10, 0x31, 0x11, 0x04, 0x96, 0x46, 0x43,
  0xc1, 0xb8, 0x46, 0x34, 0xe4, 0x97, 0x3b, 0x5c, 0xdd, 0xa8, 0x4f, 0x14,
  0x3e, 0xee, 0x5b, 0xed, 0x45, 0x41, 0x0a, 0x1d, 0x9b, 0x93, 0x05, 0xc5,
  0x44, 0x42, 0xd2, 0xd4, 0xde, 0xff, 0x17, 0x15, 0xef, 0xe3, 0x33, 0x2a,
  0xc5, 0x07, 0x57, 0x3e, 0xf7, 0xc5, 0x4c, 0x5a, 0x03, 0x2a, 0x35, 0xd5,
  0xee, 0xfd, 0x3d, 0xe0, 0xf5, 0x05, 0x0d, 0x50, 0x6d, 0x2c, 0x79, 0x4b,
  0xe9, 0xd5, 0x12, 0x32, 0xef, 0xc8, 0x05, 0x3b, 0x02, 0xb3, 0x2b, 0xf4,
  0x08, 0x09, 0xf0, 0x27, 0x4c, 0xda, 0x7f, 0x26, 0x22, 0x41, 0x7f, 0x43,
  0xa8, 0x8d, 0xf0, 0xc5, 0x4d, 0xf6, 0xf5, 0xcc, 0x38, 0x0e, 0xfe, 0x13,
  0xed, 0xe9, 0xe3, 0x0d, 0xe2, 0x5c, 0x2b, 0x1b, 0x08, 0x1d, 0x1a, 0xdf,
  0x16, 0xd4, 0xdc, 0xed, 0x02, 0x26, 0xcd, 0xdf, 0x26, 0xf3, 0xa2, 0x11,
  0x41, 0xd9, 0x06, 0x19, 0xe2, 0x2c, 0x6d, 0x0b, 0xec, 0x06, 0x1f, 0x2a,
  0xfd, 0x16, 0x65, 0x10, 0x36, 0x36, 0x21, 0x21, 0x03, 0x16, 0xd5, 0xd3,
  0x3d, 0xf1, 0xf4, 0x22, 0x89, 0xec, 0x19, 0x81, 0x59, 0x2d, 0xb5, 0x15,
  0x26, 0xeb, 0x2d, 0x2d, 0x25, 0x1a, 0x1d, 0x0b, 0xe1, 0x0f, 0x14, 0xf1,
  0x07, 0xe1, 0x39, 0x1b, 0x4c, 0x23, 0x06, 0xe9, 0x4e, 0xd2, 0xd0, 0x22,
  0xe6, 0xba, 0x2d, 0x95, 0xf0, 0x09, 0x1a, 0x16, 0xd0, 0x58, 0x5d, 0xa0,
  0xa7, 0x1c, 0xd4, 0xd6, 0xaa, 0x0f, 0x10, 0x86, 0xd0, 0x2f, 0x0b, 0xb1,
  0xe6, 0x23, 0x02, 0x2c, 0xec, 0x20, 0x19, 0xd4, 0x93, 0xec, 0xff, 0xfe,
  0x2f, 0xd8, 0xda, 0x20, 0x0b, 0x20, 0x25, 0xd9, 0xd8, 0x22, 0x40, 0xf1,
  0xf9, 0x2b, 0x5a, 0xc0, 0xf3, 0x0d, 0x0c, 0xb0, 0xe5, 0x02, 0x2d, 0xdc,
  0x1b, 0xd2, 0xe2, 0x03, 0xaa, 0x31, 0x38, 0xc6, 0xfc, 0x54, 0xca, 0x3c,
  0xd9, 0xf1, 0x28, 0xf2, 0xf4, 0x00, 0xfa, 0xbd, 0xcb, 0x2f, 0x37, 0xa7,
  0xf6, 0x29, 0xfe, 0xe8, 0xdb, 0x16, 0xe3, 0xf6, 0x20, 0xff, 0x30, 0xf5,
  0x2a, 0x3b, 0xdc, 0x91, 0xfc, 0xcb, 0x2e, 0xd7, 0x08, 0x33, 0xd6, 0x45,
  0x09, 0x20, 0x99, 0xfd, 0xb7, 0x3f, 0xca, 0x33, 0xba, 0x29, 0xb6, 0xf2,
  0x53, 0x2d, 0x39, 0xe6, 0x00, 0x0b, 0xd8, 0xd8, 0xd0, 0xb4, 0xdd, 0xb8,
  0xf1, 0xf8, 0x0d, 0xeb, 0xb1, 0x34, 0xfd, 0x2e, 0x12, 0x61, 0xa8, 0x10,
  0x1d, 0x40, 0xf3, 0x57, 0x1a, 0x40, 0xc2, 0x4a, 0x1f, 0x00, 0xdf, 0xf4,
  0x0c, 0xf2, 0xcd, 0x1c, 0x5b, 0x49, 0xca, 0x12, 0x48, 0x60, 0x43, 0xf2,
  0x93, 0x2b, 0x1c, 0x37, 0xe4, 0x49, 0xbb, 0x03, 0xf4, 0x2c, 0xda, 0xf8,
  0xe6, 0x19, 0xd5, 0xf8, 0x47, 0xf4, 0x19, 0x30, 0x53, 0x16, 0x17, 0x3a,
  0x2d, 0xf2, 0xa0, 0x1b, 0x1c, 0x10, 0x11, 0x0c, 0x81, 0xca, 0x26, 0x1b,
  0x61, 0x3d, 0xcf, 0xa8, 0xd5, 0xd0, 0x17, 0x26, 0x37, 0x3e, 0x3a, 0xbc,
  0x4c, 0x2f, 0x61, 0xec, 0xc5, 0xed, 0x01, 0x63, 0xb9, 0xc6, 0x35, 0x13,
  0x35, 0x41, 0x0c, 0xe5, 0x13, 0xa5, 0x2b, 0x1e, 0xaf, 0xaf, 0xe7, 0x91,
  0x02, 0x0f, 0xe9, 0x18, 0xf3, 0x4e, 0x02, 0xba, 0x24, 0xe4, 0xf0, 0xf7,
  0xdd, 0xbb, 0x4e, 0x1b, 0xbd, 0xc7, 0xf9, 0x76, 0x2b, 0x3d, 0x67, 0x19,
  0xf4, 0xb3, 0xaf, 0x44, 0x16, 0xc4, 0xd6, 0xb6, 0xda, 0xbd, 0xf9, 0xef,
  0x3a, 0x19, 0x54, 0x20, 0x24, 0xf7, 0x52, 0x0b, 0xb7, 0xef, 0xbe, 0xe4,
  0xaa, 0xc6, 0xc9, 0x00, 0x35, 0xb1, 0xeb, 0xf6, 0x2e, 0x30, 0x4b, 0x2a,
  0xdf, 0xa9, 0x4c, 0xa9, 0xfd, 0x5c, 0x17, 0xe9, 0x5b, 0xe4, 0xcc, 0x12,
  0x34, 0xde, 0xd5, 0xcf, 0xef, 0x48, 0x61, 0x33, 0xfa, 0x10, 0x4e, 0x1f,
  0xed, 0xe9, 0xf5, 0xe8, 0xed, 0x72, 0x5a, 0xf8, 0x9c, 0x48, 0x88, 0x85,
  0x16, 0x3c, 0x28, 0x03, 0x20, 0xdd, 0xf0, 0x0f, 0xe0, 0xca, 0x0a, 0xd5,
  0xe9, 0x58, 0x0c, 0x29, 0x33, 0x57, 0x3e, 0x4a, 0x29, 0x00, 0xea, 0xf5,
  0xd0, 0x43, 0x42, 0xdf, 0xc6, 0x19, 0x25, 0xf7, 0xa7, 0x26, 0x4e, 0x3b,
  0x79, 0xdb, 0xc8, 0x0b, 0x3d, 0xd5, 0xde, 0x49, 0x02, 0x41, 0x4b, 0x18,
  0x01, 0x0d, 0x1a, 0x2a, 0x13, 0x1a, 0x09, 0x31, 0xa0, 0xf3, 0x02, 0xc4,
  0x51, 0x5c, 0xb0, 0xfd, 0xe8, 0x3b, 0x46, 0xb3, 0x4f, 0xfd, 0xe7, 0x23,
  0x0a, 0xef, 0xfa, 0x29, 0xda, 0x3e, 0x33, 0xd1, 0x81, 0x2c, 0xfb, 0xaa,
  0x15, 0x20, 0xc5, 0x1c, 0xf0, 0x1e, 0x3b, 0xd4, 0xa4, 0x42, 0xcd, 0xdc,
  0xda, 0x3d, 0x42, 0xf6, 0xda, 0xe9, 0x2d, 0xd7, 0x4d, 0x27, 0xca, 0x26,
  0xd0, 0x04, 0x37, 0x27, 0xf2, 0x2e, 0x4b, 0xdd, 0x26, 0x29, 0xea, 0x38,
  0xa5, 0x2a, 0x1d, 0xe9, 0x13, 0xde, 0x18, 0xb7, 0xbe, 0x28, 0x33, 0xdc,
  0xf8, 0x45, 0x29, 0x0b, 0x1c, 0x60, 0x1c, 0x4a, 0x03, 0x20, 0x23, 0xf9,
  0x06, 0x0f, 0x38, 0xd0, 0x1b, 0x0c, 0x02, 0xd8, 0x9f, 0xf5, 0xec, 0x2a,
  0x9a, 0xb3, 0x30, 0xc6, 0xa1, 0x07, 0xfc, 0x58, 0x11, 0x1b, 0x2e, 0x13,
  0x38, 0xfc, 0xd9, 0xd7, 0xd4, 0x2c, 0xad, 0x14, 0xc2, 0x0d, 0xee, 0x1c,
  0x3f, 0x0f, 0xde, 0x24, 0xfe, 0x41, 0x08, 0x5d, 0x1e, 0x0c, 0x3c, 0xf6,
  0x91, 0x09, 0xb5, 0x57, 0xfd, 0xcc, 0xeb, 0xd1, 0x4c, 0xcb, 0x24, 0x31,
  0xc9, 0xff, 0xf0, 0x31, 0xed, 0x13, 0xe9, 0x53, 0x7f, 0x03, 0xe3, 0x3d,
  0xd5, 0x36, 0xdc, 0x0c, 0x2c, 0x34, 0x3a, 0x01, 0xbd, 0x40, 0xec, 0xd9,
  0x7a, 0x2d, 0xfc, 0x5b, 0x7f, 0xff, 0x39, 0xf7, 0x81, 0xfc, 0xd0, 0x0c,
  0x92, 0x12, 0x03, 0x3e, 0x2b, 0xfa, 0x20, 0x00, 0xa6, 0xc5, 0xfb, 0x6d,
  0x39, 0xfd, 0x60, 0xc7, 0xc6, 0xc5, 0x27, 0x16, 0xef, 0xf6, 0x57, 0xed,
  0x01, 0x18, 0x37, 0x15, 0xf0, 0xf4, 0x09, 0x31, 0xbc, 0xd3, 0x2a, 0x78,
  0xe8, 0x33, 0x24, 0xb5, 0xe5, 0x01, 0x47, 0x4a, 0x98, 0x15, 0xb8, 0x25,
  0xcf, 0xa9, 0x5a, 0x31, 0xeb, 0x0e, 0x0b, 0xc4, 0x1e, 0xd2, 0x3d, 0xbc,
  0xc8, 0xe6, 0x11, 0x24, 0xe5, 0xc3, 0x1a, 0x41, 0x59, 0x3c, 0x4e, 0x01,
  0xb1, 0xc5, 0x02, 0x12, 0x2b, 0x95, 0xd1, 0xed, 0xf8, 0xbb, 0x3a, 0x6a,
  0x35, 0xee, 0x7c, 0xd3, 0x5e, 0x23, 0x54, 0xdf, 0xb7, 0xf8, 0x28, 0x11,
  0xbd, 0xe5, 0x26, 0x5e, 0xfe, 0x0d, 0xcd, 0x07, 0x08, 0x12, 0x6b, 0x28,
  0x23, 0xd7, 0x3b, 0xbd, 0x36, 0x23, 0x5a, 0x24, 0x2f, 0xbe, 0xd6, 0x15,
  0x0e, 0xb6, 0x0d, 0xe5, 0xea, 0x13, 0x63, 0x4b, 0x22, 0x59, 0x2a, 0x38,
  0xe3, 0xbd, 0x01, 0xff, 0x2c, 0x2e, 0x10, 0x14, 0xf0, 0x8f, 0x8c, 0x86,
  0x05, 0x4f, 0x70, 0x4f, 0xfe, 0xe1, 0xcd, 0x26, 0x1a, 0xf7, 0xb0, 0xf5,
  0x32, 0x55, 0x11, 0xf8, 0x2f, 0x25, 0x40, 0x17, 0x3e, 0xf3, 0xee, 0x1a,
  0xf2, 0x13, 0x52, 0xd7, 0x83, 0x8d, 0xf5, 0xe1, 0xe7, 0x52, 0x21, 0x46,
  0x25, 0x14, 0x10, 0x05, 0x18, 0xae, 0xed, 0x3f, 0x30, 0xf8, 0x29, 0x1e,
  0x08, 0x27, 0x26, 0x04, 0xf5, 0x25, 0xd3, 0xe8, 0xa7, 0x24, 0x32, 0xe3,
  0x16, 0x10, 0x41, 0x0c, 0xf1, 0xeb, 0x0f, 0x07, 0x44, 0x0d, 0xf4, 0xf7,
  0x4e, 0x0c, 0xe8, 0x19, 0xc4, 0x34, 0x12, 0xd2, 0x9c, 0x4e, 0x5c, 0x92,
  0xf2, 0xcd, 0x21, 0x06, 0x1e, 0x25, 0x3d, 0xef, 0xf8, 0xc7, 0xc4, 0xe2,
  0xb0, 0x36, 0x26, 0x2e, 0x25, 0x25, 0x07, 0x1f, 0xfd, 0x37, 0xe7, 0xe9,
  0xe6, 0x45, 0x43, 0xe8, 0xbb, 0x13, 0x11, 0xfa, 0x2d, 0x1d, 0x0e, 0x15,
  0x1f, 0xe0, 0x45, 0xd6, 0x00, 0xd5, 0x01, 0xb8, 0xad, 0x2c, 0x51, 0xe0,
  0x49, 0x3f, 0x31, 0x35, 0xf6, 0x30, 0x10, 0x16, 0xc9, 0x27, 0x42, 0xd2,
  0x0b, 0x00, 0x3e, 0xdf, 0x55, 0x0a, 0xf1, 0xd1, 0xf3, 0x2e, 0xd1, 0x5c,
  0xa1, 0xf4, 0x1f, 0xce, 0xa4, 0x16, 0x03, 0x55, 0x55, 0x2e, 0xde, 0xf8,
  0xfd, 0x34, 0xfe, 0xe6, 0xcb, 0x3f, 0xe2, 0x1d, 0xfd, 0x0f, 0xe6, 0xf4,
  0x06, 0xdd, 0x15, 0x0e, 0xe8, 0x50, 0xf2, 0x18, 0xe2, 0x81, 0xaa, 0xfd,
  0xd1, 0x6b, 0xed, 0xee, 0x0e, 0xcb, 0xd6, 0xc1, 0x3b, 0x33, 0x19, 0xf4,
  0xed, 0x1d, 0xd6, 0x45, 0xfc, 0x11, 0x10, 0x59, 0x34, 0x10, 0xf5, 0xff,
  0xfc, 0x49, 0x13, 0x33, 0xba, 0xe1, 0xb6, 0xea, 0xb4, 0x17, 0xe7, 0xf2,
  0x68, 0xf1, 0x28, 0x48, 0x59, 0x4b, 0x1d, 0xfa, 0xac, 0x24, 0x1f, 0xf4,
  0xb4, 0x13, 0xe0, 0xff, 0x15, 0x1a, 0x34, 0xc6, 0x94, 0x8d, 0x3c, 0x68,
  0x98, 0x1a, 0x0a, 0xdf, 0xa8, 0xc3, 0x51, 0x56, 0x4a, 0xfa, 0x53, 0xea,
  0xf4, 0x21, 0x13, 0xde, 0xb4, 0xd1, 0x05, 0x1c, 0xcd, 0x89, 0x35, 0x07,
  0x38, 0x22, 0x3e, 0xd0, 0x25, 0xe5, 0x47, 0x64, 0xe3, 0x4e, 0x00, 0x29,
  0x29, 0xf2, 0x32, 0x63, 0xeb, 0x26, 0x4a, 0xd4, 0x08, 0xda, 0xf0, 0xb9,
  0xc8, 0xc6, 0x41, 0x5b, 0xbf, 0xae, 0x16, 0x5a, 0xff, 0x3b, 0x56, 0xe3,
  0xc5, 0xf1, 0xea, 0xe9, 0xdd, 0xa1, 0xb3, 0xd4, 0xc2, 0x10, 0xe3, 0x31,
  0x71, 0x12, 0x7f, 0x0a, 0x04, 0x27, 0x71, 0x19, 0xd2, 0xbd, 0x1e, 0x06,
  0xca, 0x1e, 0x08, 0x5d, 0x01, 0xed, 0xdc, 0x20, 0xec, 0x5c, 0x10, 0x09,
  0x94, 0x3f, 0xeb, 0x12, 0x3f, 0x7f, 0x38, 0x20, 0xee, 0xbc, 0xd4, 0xdb,
  0xf5, 0xe2, 0xd3, 0xe4, 0x38, 0x24, 0x54, 0x27, 0xff, 0x59, 0x47, 0x2a,
  0x31, 0xc1, 0xed, 0xee, 0x1a, 0x2f, 0x64, 0x39, 0xf0, 0xce, 0x89, 0x4f,
  0x2d, 0x56, 0x11, 0x1a, 0x37, 0xbe, 0xfb, 0x27, 0x24, 0xde, 0xd5, 0x38,
  0x10, 0x47, 0x4d, 0x50, 0x27, 0x65, 0x19, 0xfa, 0x23, 0x0c, 0x19, 0xed,
  0xfd, 0x43, 0x25, 0x1c, 0x9f, 0xc7, 0x38, 0xbe, 0xe0, 0x41, 0x2b, 0x09,
  0x0f, 0xd0, 0xec, 0x48, 0x3b, 0x2a, 0xc2, 0xf9, 0xd5, 0x4a, 0x24, 0xf7,
  0xde, 0x22, 0xfb, 0x25, 0x1a, 0xfe, 0x08, 0x29, 0xd0, 0x1f, 0x09, 0xa9,
  0xef, 0x41, 0xa3, 0xad, 0x8b, 0x09, 0x35, 0x0c, 0xf8, 0x0f, 0x0d, 0xfe,
  0x12, 0xe1, 0x08, 0xea, 0xaa, 0x13, 0x08, 0xda, 0x87, 0x4a, 0x03, 0xca,
  0xf2, 0xe4, 0xd0, 0x1b, 0xd2, 0x35, 0x21, 0xc7, 0xbf, 0x0a, 0xb7, 0xa6,
  0xab, 0x4c, 0x15, 0xef, 0xe8, 0xdc, 0xdb, 0xe0, 0x30, 0xf8, 0xfc, 0x35,
  0x0a, 0x19, 0x2c, 0xf4, 0xfe, 0x39, 0x37, 0x02, 0x3c, 0x2c, 0x25, 0xf4,
  0xc4, 0xf2, 0x0c, 0xcb, 0xeb, 0xf9, 0x48, 0xc2, 0x1d, 0x08, 0xe6, 0xea,
  0xe5, 0x1b, 0xea, 0x03, 0xff, 0x69, 0xeb, 0x1a, 0x0b, 0x34, 0x1f, 0xd4,
  0xc0, 0xf5, 0x07, 0xe5, 0xfd, 0x20, 0x14, 0xee, 0xf9, 0x3c, 0x99, 0x5f,
  0x2f, 0xd2, 0xd5, 0xaf, 0xe1, 0x54, 0xb7, 0xf7, 0x3d, 0x1d, 0xe9, 0xd8,
  0x4a, 0x4b, 0x30, 0xcf, 0xb6, 0x04, 0xc4, 0x40, 0xe7, 0x0e, 0x00, 0x45,
  0x4a, 0xd1, 0x13, 0xea, 0x08, 0x0d, 0xb9, 0x2f, 0xbb, 0xf9, 0x8e, 0xc1,
  0xc4, 0x54, 0xbb, 0xee, 0x3c, 0xd7, 0x3a, 0x0f, 0x52, 0x1e, 0x32, 0x17,
  0xd3, 0x42, 0x06, 0x2a, 0xc8, 0x60, 0x04, 0x6b, 0x54, 0x01, 0xf3, 0x01,
  0xbf, 0x31, 0x12, 0x22, 0xa8, 0xe7, 0x13, 0x9e, 0xca, 0xe9, 0xc9, 0x29,
  0x58, 0xf6, 0x27, 0x12, 0x43, 0x46, 0x0f, 0x18, 0xd5, 0xe6, 0xf5, 0xe8,
  0xfe, 0x1c, 0xc2, 0x3e, 0xba, 0x8e, 0xec, 0x21, 0xbd, 0xc0, 0x3a, 0x3d,
  0xda, 0x81, 0x28, 0x3d, 0x20, 0x3b, 0x1a, 0xdf, 0xac, 0xe0, 0x02, 0x71,
  0x40, 0x43, 0x25, 0x02, 0x96, 0xca, 0x1b, 0x6b, 0xc4, 0xb4, 0x3a, 0x54,
  0xb2, 0xbd, 0x48, 0x7f, 0x01, 0x07, 0xf4, 0x15, 0x0a, 0xc6, 0x58, 0x7d,
  0x40, 0x04, 0x2b, 0xc5, 0xe8, 0xd3, 0x1c, 0x6a, 0xfa, 0x06, 0x0c, 0x06,
  0xfe, 0xaf, 0x28, 0x41, 0x03, 0xe9, 0x36, 0x63, 0xa3, 0xe4, 0xc0, 0xe3,
  0xdb, 0x99, 0xbf, 0x3d, 0xcf, 0xd6, 0xec, 0x0a, 0x3f, 0xec, 0x7f, 0xdc,
  0xd2, 0x02, 0x15, 0x13, 0x38, 0x08, 0x29, 0xfc, 0xdc, 0xf3, 0xf8, 0xfd,
  0xb7, 0xdd, 0x22, 0x0e, 0x05, 0x4a, 0x0a, 0xee, 0xec, 0x52, 0x5f, 0xef,
  0xf2, 0x30, 0x25, 0x20, 0x2f, 0x04, 0xb0, 0x2d, 0xf3, 0x14, 0x1c, 0x3b,
  0xfc, 0xbe, 0x08, 0x10, 0xd3, 0x32, 0x11, 0x33, 0x07, 0x35, 0x0f, 0x30,
  0x46, 0x58, 0x67, 0x35, 0x3f, 0x3f, 0x3f, 0x41, 0x2f, 0x17, 0x13, 0x28,
  0x0b, 0xc8, 0xe5, 0x0f, 0x04, 0x3c, 0x2a, 0x39, 0x3e, 0xb1, 0xe2, 0x12,
  0xf5, 0x49, 0x59, 0x21, 0x39, 0x3f, 0x4c, 0xf6, 0xd7, 0x5d, 0x4b, 0x36,
  0x0c, 0xdf, 0x1b, 0x33, 0xe9, 0x09, 0x27, 0xf7, 0x39, 0xf1, 0x0f, 0xf0,
  0xcd, 0x33, 0x4f, 0xe3, 0x5b, 0xef, 0xf5, 0x3e, 0xac, 0xfe, 0x3a, 0x05,
  0xfb, 0x30, 0xf9, 0xe6, 0x90, 0x54, 0x66, 0xb4, 0x8e, 0x12, 0xee, 0xaa,
  0xd4, 0x3c, 0xd5, 0x97, 0x11, 0x05, 0xf6, 0xe7, 0x9e, 0x51, 0x06, 0xba,
  0x19, 0x22, 0xd1, 0xdc, 0xec, 0x38, 0x22, 0xe2, 0xc3, 0x1c, 0x41, 0xb1,
  0xc1, 0x00, 0x56, 0xd0, 0x08, 0x57, 0x09, 0xbd, 0x19, 0x27, 0x40, 0xea,
  0xeb, 0xe1, 0xea, 0xe5, 0x0a, 0x16, 0x09, 0xbf, 0x37, 0xf2, 0xe8, 0x1f,
  0xfb, 0x0f, 0x1d, 0xec, 0xcd, 0x53, 0x15, 0xf3, 0xc0, 0x3b, 0xfa, 0xd9,
  0xe6, 0xda, 0xf5, 0xaf, 0xd0, 0xf1, 0x0a, 0xae, 0x3d, 0x34, 0xe1, 0x06,
  0xec, 0xd9, 0xec, 0xb7, 0x45, 0xfe, 0x23, 0x03, 0x04, 0x1c, 0x44, 0x10,
  0xc6, 0xd5, 0x39, 0x9e, 0xca, 0x05, 0xeb, 0x3a, 0xef, 0x2c, 0xf7, 0xf4,
  0xbb, 0x5a, 0xa1, 0x18, 0x52, 0x07, 0xf2, 0x2d, 0xf6, 0x57, 0xb4, 0x41,
  0x0d, 0x21, 0x39, 0x2b, 0xc1, 0x10, 0x9d, 0x53, 0xac, 0x46, 0x92, 0xec,
  0x05, 0x11, 0xf0, 0x10, 0xfd, 0x33, 0xd6, 0x27, 0xee, 0x6b, 0xe5, 0x4d,
  0x4f, 0x23, 0xdc, 0x1b, 0xdc, 0x5e, 0x07, 0x50, 0x40, 0x1d, 0xf2, 0xe9,
  0xf9, 0x35, 0xe9, 0x2d, 0xe3, 0x15, 0xde, 0x55, 0xb5, 0x50, 0xf1, 0x47,
  0xce, 0xe5, 0xbb, 0x2e, 0xef, 0x50, 0xc7, 0x15, 0x39, 0x40, 0x25, 0xf1,
  0xb6, 0x22, 0x18, 0x07, 0x7f, 0xe6, 0x28, 0xf3, 0x8e, 0xf7, 0x10, 0x3b,
  0xce, 0x0a, 0xc7, 0xcf, 0xbe, 0xd6, 0x3b, 0x5b, 0xa4, 0x82, 0x1c, 0x3f,
  0xae, 0xa5, 0x34, 0x62, 0x13, 0x44, 0x48, 0xc6, 0xb8, 0xbf, 0x1e, 0x7f,
  0xef, 0xe8, 0x37, 0xf2, 0x92, 0x81, 0x55, 0x70, 0xf2, 0xbb, 0x00, 0x7a,
  0xdb, 0xb7, 0x3f, 0x1e, 0xf0, 0xdb, 0x50, 0x6f, 0x25, 0xda, 0x57, 0x76,
  0xfc, 0x1f, 0x27, 0x07, 0xfc, 0xb3, 0x24, 0x67, 0xfa, 0x20, 0xfd, 0xf4,
  0xdf, 0xeb, 0x4d, 0x47, 0xd5, 0xc0, 0x63, 0x3a, 0xbc, 0x00, 0x10, 0xf4,
  0xfb, 0x0e, 0xec, 0x3f, 0xf1, 0xff, 0xf4, 0x33, 0x3f, 0x06, 0x38, 0xc5,
  0xd3, 0xd7, 0x10, 0x49, 0x49, 0xfe, 0x2a, 0xf9, 0x00, 0xf3, 0xf6, 0x64,
  0xef, 0xee, 0x09, 0x4e, 0xdc, 0x47, 0xfb, 0x4b, 0x36, 0x3a, 0x16, 0x02,
  0xee, 0x14, 0xfd, 0xed, 0xe8, 0xef, 0xdb, 0xf8, 0x01, 0x23, 0x1e, 0x02,
  0x15, 0xb5, 0x0f, 0x21, 0xe8, 0x59, 0xf3, 0x12, 0xd4, 0x4c, 0x1c, 0x06,
  0x0f, 0x36, 0x3b, 0x1e, 0x42, 0x30, 0xf2, 0x4c, 0x0a, 0x1c, 0x24, 0xfb,
  0xe1, 0xdc, 0x13, 0x2e, 0x22, 0x70, 0x51, 0x3f, 0xe0, 0xfb, 0xd4, 0xfd,
  0x32, 0x1b, 0x1f, 0x2b, 0x1c, 0x09, 0x2a, 0x2c, 0x20, 0x41, 0x3c, 0x21,
  0xde, 0x4b, 0x55, 0x26, 0xe9, 0x37, 0xf5, 0xda, 0x2e, 0xf1, 0xed, 0xe9,
  0xe8, 0x25, 0xf2, 0xf5, 0x37, 0xd0, 0xcd, 0x3b, 0x13, 0x08, 0xf6, 0xd6,
  0x26, 0x41, 0x33, 0x29, 0xe7, 0x3b, 0x31, 0x06, 0xdc, 0xfd, 0xf9, 0xae,
  0x92, 0x4e, 0xdb, 0x83, 0x45, 0xe7, 0xf6, 0x12, 0xe9, 0x08, 0x23, 0xeb,
  0xe8, 0xdc, 0x1e, 0x06, 0xa7, 0x16, 0x21, 0xfa, 0x85, 0x44, 0x24, 0x81,
  0xbc, 0x02, 0x15, 0xbf, 0xac, 0x1f, 0x4a, 0xec, 0xf6, 0x6b, 0x10, 0xcf,
  0x07, 0x31, 0xce, 0xf2, 0x00, 0x37, 0xf9, 0xb9, 0xe0, 0x26, 0x09, 0x11,
  0xe1, 0xfe, 0x24, 0xb6, 0xbe, 0x5c, 0xf7, 0xb9, 0x0d, 0x42, 0xfc, 0x02,
  0xd0, 0xed, 0x30, 0xbb, 0xe3, 0x40, 0x28, 0xe5, 0x49, 0x47, 0xf7, 0x27,
  0xdf, 0x1b, 0x4e, 0xea, 0x3a, 0x2b, 0xd9, 0x03, 0x1d, 0xee, 0x2b, 0xc6,
  0xe6, 0x51, 0x09, 0xf1, 0xcd, 0x58, 0xc8, 0x29, 0xff, 0x3f, 0xe7, 0x06,
  0xc0, 0x1e, 0xc3, 0x33, 0x5f, 0x2c, 0xe3, 0x04, 0xb1, 0x5f, 0xa6, 0x20,
  0x17, 0xec, 0xfd, 0xfa, 0xe4, 0xfd, 0xce, 0x5e, 0xf6, 0x07, 0xc2, 0x51,
  0xc3, 0x18, 0xed, 0xff, 0x22, 0x54, 0x07, 0x3b, 0x14, 0x64, 0xb7, 0x20,
  0x35, 0xcd, 0xdb, 0x07, 0x0c, 0x5f, 0xf3, 0x33, 0x1d, 0x10, 0x05, 0x22,
  0x1a, 0x5d, 0xb4, 0x49, 0xeb, 0x3e, 0xb6, 0x31, 0x97, 0xfd, 0xcb, 0x3f,
  0xce, 0x37, 0x23, 0xf6, 0xd2, 0x25, 0xed, 0x17, 0x45, 0xf1, 0x31, 0x0f,
  0xc0, 0x3b, 0xbc, 0x00, 0x71, 0xf3, 0x1e, 0xf2, 0xa3, 0xf9, 0xb2, 0x06,
  0xf0, 0x12, 0xac, 0x04, 0x94, 0x90, 0x66, 0x2a, 0xf9, 0x81, 0x53, 0x4e,
  0xc0, 0x88, 0x14, 0x1d, 0x34, 0x37, 0x53, 0x02, 0xb4, 0xb1, 0x34, 0x4d,
  0x1d, 0xfe, 0x03, 0x19, 0xa7, 0xd5, 0x17, 0x15, 0xa9, 0xdb, 0x2d, 0x18,
  0x03, 0x10, 0x5b, 0x49, 0x06, 0xe4, 0x03, 0x15, 0x13, 0xea, 0x5c, 0x5d,
  0x4c, 0xdb, 0x05, 0xc8, 0x04, 0xc7, 0x5a, 0x4a, 0xe5, 0x0c, 0x02, 0x02,
  0xf7, 0xb9, 0x06, 0x27, 0xdb, 0x99, 0x49, 0x2b, 0xf7, 0x0d, 0xe7, 0x37,
  0xf0, 0x0f, 0x0e, 0x0d, 0x02, 0x11, 0x23, 0x0c, 0x50, 0x40, 0x74, 0x12,
  0xc4, 0x09, 0xc3, 0x41, 0x4f, 0x45, 0x24, 0x12, 0xc8, 0x08, 0xf8, 0xf1,
  0xe1, 0xaf, 0x01, 0x33, 0x02, 0x13, 0x06, 0x3b, 0x3a, 0x47, 0x33, 0x20,
  0x31, 0x17, 0x0c, 0x0b, 0x06, 0xe4, 0xc7, 0xef, 0x24, 0x2f, 0x01, 0xed,
  0x45, 0xf8, 0xd6, 0x01, 0x3e, 0x0d, 0x66, 0x4a, 0xe8, 0x5f, 0xec, 0xf0,
  0x15, 0x44, 0x72, 0x2a, 0xf6, 0x1d, 0x4e, 0x1a, 0x3c, 0x2c, 0x1e, 0xfd,
  0x1b, 0xbe, 0xb0, 0x07, 0xf1, 0x06, 0x25, 0x3e, 0xec, 0x06, 0xec, 0xf0,
  0x35, 0x3e, 0x0e, 0xfc, 0x4d, 0x31, 0x34, 0x12, 0xf6, 0x2b, 0x4d, 0x30,
  0x19, 0xe0, 0x23, 0x1e, 0xe9, 0x2c, 0x0b, 0x25, 0x71, 0xe8, 0x16, 0x2e,
  0x1f, 0x36, 0x48, 0x33, 0x64, 0xde, 0x09, 0x1a, 0xf5, 0x4e, 0x59, 0x06,
  0x19, 0xda, 0x29, 0x29, 0xa9, 0x16, 0xfd, 0x00, 0x9b, 0x11, 0x3b, 0xb8,
  0x9f, 0x4d, 0xd5, 0x8a, 0x40, 0x05, 0x0e, 0xf1, 0xe1, 0xff, 0x3c, 0xc7,
  0x45, 0xe8, 0xea, 0xfb, 0xdd, 0x47, 0x42, 0x98, 0xdd, 0x17, 0x32, 0xa7,
  0xbf, 0x49, 0x45, 0xe1, 0x11, 0x06, 0xf0, 0xd4, 0xe4, 0x53, 0x01, 0xe5,
  0xe6, 0x33, 0xca, 0x2c, 0x03, 0x22, 0x59, 0xe1, 0xdf, 0x16, 0xc7, 0xd9,
  0x29, 0x47, 0x40, 0x31, 0xb7, 0x10, 0x11, 0xc7, 0x06, 0x11, 0xef, 0x18,
  0xba, 0x18, 0x05, 0xff, 0x0f, 0xf3, 0x07, 0xc9, 0xe6, 0x24, 0xef, 0x0f,
  0xf9, 0x1e, 0x35, 0x17, 0x23, 0x22, 0x13, 0x1f, 0xd4, 0x41, 0xf0, 0xdf,
  0xed, 0x35, 0xdd, 0xd7, 0xb4, 0x06, 0xb1, 0x14, 0x9d, 0x51, 0xd7, 0xf8,
  0xef, 0x0e, 0x88, 0xf9, 0x2b, 0x3d, 0x04, 0xf3, 0xca, 0x46, 0xa9, 0x62,
  0x3c, 0x30, 0x20, 0xdd, 0xf0, 0xed, 0xba, 0x26, 0xd6, 0x0d, 0xdb, 0x41,
  0xe9, 0x62, 0xb2, 0x51, 0xdc, 0x3c, 0xb9, 0x5b, 0x13, 0x69, 0xbb, 0x1d,
  0x28, 0x05, 0x00, 0xe5, 0xcf, 0x42, 0x09, 0x5c, 0xff, 0x2a, 0xd7, 0x16,
  0xd9, 0x60, 0xdb, 0x6a, 0x10, 0x67, 0xdd, 0x60, 0x98, 0x40, 0x18, 0x2a,
  0xd3, 0x35, 0xc5, 0x43, 0xbf, 0x3d, 0xf3, 0x28, 0x2d, 0x20, 0x33, 0x16,
  0xf0, 0x36, 0xd1, 0x3c, 0x28, 0x1a, 0x36, 0x20, 0xdb, 0x39, 0xf2, 0xe0,
  0x99, 0x11, 0x18, 0xf3, 0x55, 0x55, 0x55, 0x55, 0x55, 0x55, 0x55, 0x55,
  0x55, 0x00, 0x00, 0x00, 0x40, 0x0e, 0x40, 0x0e, 0x40, 0x0e, 0x40, 0x0e,
  0xad, 0x16, 0x45, 0x1d, 0x20, 0xbc, 0xdb, 0xba, 0x7f, 0xab, 0xdc, 0x00,
  0xce, 0x0d, 0x59, 0x06, 0xb6, 0x23, 0xe2, 0x50, 0x02, 0xb4, 0x05, 0xf2,
  0xab, 0xc1, 0x58, 0x34, 0x4a, 0xfb, 0xbb, 0xec, 0x5d, 0x3a, 0x24, 0xd4,
  0xa7, 0x99, 0xb2, 0x13, 0x19, 0xd9, 0x1a, 0x1b, 0xbc, 0x39, 0x9c, 0xcf,
  0x91, 0x17, 0x57, 0x9e, 0x01, 0x01, 0x00, 0x00, 0x00, 0x00, 0x00, 0x00,
  0x00, 0x00, 0x00, 0x00, 0xc2, 0xfa, 0xff, 0xff, 0x04, 0x00, 0x00, 0x00,
  0xc8, 0x03, 0x00, 0x00, 0x6e, 0x4d, 0x43, 0x64, 0x8b, 0xac, 0x41, 0x6d,
  0x64, 0x03, 0x00, 0x00, 0x00, 0x00, 0x00, 0x00, 0x64, 0x03, 0x00, 0x30,
  0x08, 0x00, 0x00, 0x00, 0xc8, 0x03, 0x00, 0x00, 0xec, 0x14, 0x00, 0x00,
  0x00, 0x00, 0x00, 0x00, 0x80, 0x16, 0x00, 0x00, 0x00, 0x00, 0x00, 0x00,
  0x00, 0x00, 0x00, 0x00, 0x00, 0x00, 0x00, 0x00, 0x01, 0x00, 0x00, 0x00,
  0x01, 0x00, 0x00, 0x00, 0x08, 0x00, 0x00, 0x00, 0x48, 0x00, 0x00, 0x00,
  0x00, 0x00, 0x00, 0x00, 0x00, 0x00, 0x00, 0x00, 0x00, 0x00, 0x00, 0x00,
  0x02, 0x00, 0x05, 0x00, 0x00, 0x00, 0x00, 0x00, 0x04, 0x00, 0x01, 0x01,
  0x01, 0x00, 0x00, 0x00, 0x06, 0x00, 0x26, 0x00, 0x00, 0x00, 0x84, 0x00,
  0x00, 0x00, 0x00, 0x00, 0x00, 0x00, 0x00, 0x00, 0x40, 0x00, 0x00, 0x00,
  0x00, 0x00, 0x00, 0x00, 0x30, 0x00, 0x00, 0x00, 0x18, 0x00, 0x00, 0x00,
  0x18, 0x00, 0x00, 0x00, 0x08, 0x00, 0x00, 0x00, 0x08, 0x00, 0x00, 0x00,
  0x18, 0x00, 0x00, 0x00, 0x18, 0x00, 0x00, 0x00, 0x04, 0x00, 0x00, 0x00,
  0x03, 0x00, 0x00, 0x00, 0x03, 0x00, 0x00, 0x00, 0x01, 0x00, 0x00, 0x00,
  0x01, 0x00, 0x00, 0x00, 0x01, 0x00, 0x00, 0x00, 0x01, 0x00, 0x00, 0x00,
  0x01, 0x00, 0x00, 0x00, 0x01, 0x00, 0x00, 0x00, 0x01, 0x00, 0x00, 0x00,
  0x01, 0x00, 0x00, 0x00, 0x10, 0x01, 0x0f, 0x07, 0x00, 0x00, 0x00, 0x00,
  0x00, 0x00, 0x00, 0x00, 0x01, 0x00, 0x00, 0x00, 0x01, 0x00, 0x00, 0x00,
  0x80, 0xff, 0xff, 0xff, 0x30, 0x80, 0x00, 0x00, 0x00, 0x00, 0x00, 0x00,
  0x00, 0x00, 0x00, 0x00, 0x00, 0x00, 0x00, 0x00, 0x00, 0x00, 0x00, 0x00,
  0x02, 0x00, 0x02, 0x00, 0x00, 0x00, 0x00, 0x00, 0x04, 0x04, 0x00, 0x00,
  0x06, 0x00, 0x3e, 0x00, 0x00, 0x00, 0x4c, 0x00, 0x00, 0x12, 0x00, 0x00,
  0x00, 0x00, 0x00, 0x00, 0x0c, 0x00, 0x00, 0x00, 0x0c, 0x00, 0x00, 0x00,
  0x08, 0x00, 0x00, 0x00, 0x08, 0x00, 0x00, 0x00, 0x18, 0x00, 0x00, 0x00,
  0x18, 0x00, 0x00, 0x00, 0x08, 0x00, 0x00, 0x00, 0x02, 0x00, 0x00, 0x00,
  0x02, 0x00, 0x00, 0x00, 0x02, 0x00, 0x00, 0x00, 0x02, 0x00, 0x00, 0x00,
  0x00, 0x00, 0x00, 0x00, 0x00, 0x00, 0x00, 0x00, 0x00, 0x00, 0x00, 0x00,
  0x00, 0x00, 0x00, 0x00, 0x10, 0x01, 0x09, 0x40, 0x00, 0x00, 0x00, 0x00,
  0x02, 0x00, 0x05, 0x00, 0x00, 0x00, 0x00, 0x00, 0x04, 0x04, 0x01, 0x01,
  0x01, 0x00, 0x00, 0x00, 0x06, 0x00, 0x26, 0x00, 0x00, 0x00, 0x84, 0x00,
  0x00, 0x00, 0x00, 0x00, 0x00, 0x12, 0x00, 0x00, 0xe0, 0x01, 0x00, 0x00,
  0x60, 0x01, 0x00, 0x00, 0xc0, 0x01, 0x00, 0x00, 0x0c, 0x00, 0x00, 0x00,
  0x0c, 0x00, 0x00, 0x00, 0x10, 0x00, 0x00, 0x00, 0x10, 0x00, 0x00, 0x00,
  0x0c, 0x00, 0x00, 0x00, 0x0c, 0x00, 0x00, 0x00, 0x08, 0x00, 0x00, 0x00,
  0x03, 0x00, 0x00, 0x00, 0x03, 0x00, 0x00, 0x00, 0x01, 0x00, 0x00, 0x00,
  0x01, 0x00, 0x00, 0x00, 0x01, 0x00, 0x00, 0x00, 0x01, 0x00, 0x00, 0x00,
  0x01, 0x00, 0x00, 0x00, 0x01, 0x00, 0x00, 0x00, 0x01, 0x00, 0x00, 0x00,
  0x01, 0x00, 0x00, 0x00, 0x10, 0x01, 0x0f, 0x07, 0x00, 0x00, 0x00, 0x00,
  0x00, 0x00, 0x00, 0x00, 0x01, 0x00, 0x00, 0x00, 0x01, 0x00, 0x00, 0x00,
  0x80, 0xff, 0xff, 0xff, 0x30, 0x80, 0x00, 0x00, 0x00, 0x00, 0x00, 0x00,
  0x00, 0x00, 0x00, 0x00, 0x00, 0x00, 0x00, 0x00, 0x00, 0x00, 0x00, 0x00,
  0x02, 0x00, 0x02, 0x00, 0x00, 0x00, 0x00, 0x00, 0x04, 0x04, 0x00, 0x00,
  0x06, 0x00, 0x3e, 0x00, 0x00, 0x00, 0x4c, 0x00, 0x00, 0x09, 0x00, 0x00,
  0x00, 0x00, 0x00, 0x00, 0x06, 0x00, 0x00, 0x00, 0x06, 0x00, 0x00, 0x00,
  0x10, 0x00, 0x00, 0x00, 0x10, 0x00, 0x00, 0x00, 0x0c, 0x00, 0x00, 0x00,
  0x0c, 0x00, 0x00, 0x00, 0x10, 0x00, 0x00, 0x00, 0x02, 0x00, 0x00, 0x00,
  0x02, 0x00, 0x00, 0x00, 0x02, 0x00, 0x00, 0x00, 0x02, 0x00, 0x00, 0x00,
  0x00, 0x00, 0x00, 0x00, 0x00, 0x00, 0x00, 0x00, 0x00, 0x00, 0x00, 0x00,
  0x00, 0x00, 0x00, 0x00, 0x10, 0x01, 0x09, 0x40, 0x00, 0x00, 0x00, 0x00,
  0x02, 0x00, 0x05, 0x00, 0x00, 0x00, 0x00, 0x00, 0x04, 0x04, 0x01, 0x01,
  0x01, 0x00, 0x00, 0x00, 0x06, 0x00, 0x26, 0x00, 0x00, 0x00, 0x84, 0x00,
  0x00, 0x00, 0x00, 0x00, 0x00, 0x09, 0x00, 0x00, 0x20, 0x07, 0x00, 0x00,
  0x60, 0x06, 0x00, 0x00, 0xf0, 0x06, 0x00, 0x00, 0x06, 0x00, 0x00, 0x00,
  0x06, 0x00, 0x00, 0x00, 0x18, 0x00, 0x00, 0x00, 0x18, 0x00, 0x00, 0x00,
  0x06, 0x00, 0x00, 0x00, 0x06, 0x00, 0x00, 0x00, 0x10, 0x00, 0x00, 0x00,
  0x03, 0x00, 0x00, 0x00, 0x03, 0x00, 0x00, 0x00, 0x01, 0x00, 0x00, 0x00,
  0x01, 0x00, 0x00, 0x00, 0x01, 0x00, 0x00, 0x00, 0x01, 0x00, 0x00, 0x00,
  0x01, 0x00, 0x00, 0x00, 0x01, 0x00, 0x00, 0x00, 0x01, 0x00, 0x00, 0x00,
  0x01, 0x00, 0x00, 0x00, 0x10, 0x01, 0x0f, 0x07, 0x00, 0x00, 0x00, 0x00,
  0x00, 0x00, 0x00, 0x00, 0x01, 0x00, 0x00, 0x00, 0x01, 0x00, 0x00, 0x00,
  0x80, 0xff, 0xff, 0xff, 0x30, 0x80, 0x00, 0x00, 0x00, 0x00, 0x00, 0x00,
  0x00, 0x00, 0x00, 0x00, 0x00, 0x00, 0x00, 0x00, 0x00, 0x00, 0x00, 0x00,
  0x02, 0x00, 0x04, 0x00, 0x00, 0x00, 0x00, 0x00, 0x04, 0x04, 0x01, 0x01,
  0x06, 0x00, 0x30, 0x00, 0x00, 0x00, 0x24, 0x00, 0x60, 0x03, 0x00, 0x00,
  0x00, 0x00, 0x00, 0x00, 0xa0, 0x14, 0x00, 0x00, 0xac, 0x14, 0x00, 0x00,
  0x06, 0x00, 0x00, 0x00, 0x06, 0x00, 0x00, 0x00, 0x18, 0x00, 0x00, 0x00,
  0x10, 0x03, 0x0f, 0x07, 0x30, 0x80, 0x8e, 0x3f, 0x02, 0x00, 0x05, 0x00,
  0x00, 0x00, 0x00, 0x00, 0x04, 0x04, 0x01, 0x01, 0x0b, 0x00, 0x00, 0x00,
  0x06, 0x00, 0x2d, 0x00, 0x00, 0x00, 0x3c, 0x00, 0x00, 0x00, 0x00, 0x00,
  0x60, 0x03, 0x00, 0x00, 0xb4, 0x14, 0x00, 0x00, 0xe4, 0x14, 0x00, 0x00,
  0x00, 0x00, 0x00, 0x00, 0x01, 0x00, 0x00, 0x00, 0x02, 0x00, 0x00, 0x00,
  0x02, 0x00, 0x00, 0x00, 0x18, 0x00, 0x00, 0x00, 0x00, 0x00, 0x00, 0x00,
  0x00, 0x00, 0x00, 0x00, 0x10, 0x01, 0x0f, 0x07, 0x30, 0x33, 0xa0, 0x4b,
  0x00, 0x00, 0x00, 0x00, 0x00, 0x00, 0x00, 0x00, 0x02, 0x00, 0x03, 0x00,
  0x00, 0x00, 0x00, 0x00, 0x02, 0x04, 0x01, 0x00, 0x06, 0x00, 0x4b, 0x00,
  0x00, 0x00, 0x28, 0x00, 0x00, 0x00, 0x00, 0x00, 0x00, 0x00, 0x00, 0x00,
  0xe8, 0x14, 0x00, 0x00, 0x01, 0x00, 0x00, 0x00, 0x01, 0x00, 0x00, 0x00,
  0x02, 0x00, 0x00, 0x00, 0x04, 0x00, 0x00, 0x00, 0x80, 0xff, 0xff, 0xff,
  0x10, 0x01, 0x09, 0x40, 0x00, 0x00, 0x00, 0x00, 0x01, 0x00, 0x00, 0x00,
  0x00, 0x00, 0x00, 0x00, 0x00, 0x00, 0x00, 0x00, 0x00, 0x00, 0x00, 0x00,
  0x00, 0x00, 0x00, 0x00, 0x00, 0x09, 0x00, 0x00, 0x04, 0x00, 0x00, 0x00,
  0x00, 0x00, 0x00, 0x00, 0x00, 0x00, 0x00, 0x00, 0x00, 0x00, 0x00, 0x00,
  0xa2, 0xfe, 0xff, 0xff, 0x04, 0x00, 0x00, 0x00, 0x08, 0x00, 0x00, 0x00,
  0x01, 0x00, 0x00, 0x00, 0x02, 0x00, 0x00, 0x00, 0x00, 0x00, 0x00, 0x00,
  0x00, 0x00, 0x00, 0x00, 0x00, 0x00, 0x00, 0x00, 0xc2, 0xfe, 0xff, 0xff,
  0x04, 0x00, 0x00, 0x00, 0x08, 0x00, 0x00, 0x00, 0x00, 0x00, 0x00, 0x00,
  0x00, 0x00, 0x00, 0x00, 0x00, 0x00, 0x00, 0x00, 0x24, 0xff, 0xff, 0xff,
  0x5f, 0x00, 0x00, 0x00, 0x4d, 0x4c, 0x49, 0x52, 0x20, 0x43, 0x6f, 0x6e,
  0x76, 0x65, 0x72, 0x74, 0x65, 0x64, 0x2e, 0x0a, 0x43, 0x6f, 0x6e, 0x76,
  0x65, 0x72, 0x74, 0x65, 0x64, 0x20, 0x77, 0x69, 0x74, 0x68, 0x20, 0x65,
  0x49, 0x51, 0x20, 0x6e, 0x65, 0x75, 0x74, 0x72, 0x6f, 0x6e, 0x2d, 0x63,
  0x6f, 0x6e, 0x76, 0x65, 0x72, 0x74, 0x65, 0x72, 0x0a, 0x56, 0x65, 0x72,
  0x73, 0x69, 0x6f, 0x6e, 0x3a, 0x20, 0x33, 0x2e, 0x30, 0x2e, 0x30, 0x2b,
  0x30, 0x58, 0x36, 0x64, 0x34, 0x31, 0x61, 0x63, 0x38, 0x62, 0x0a, 0x54,
  0x61, 0x72, 0x67, 0x65, 0x74, 0x3a, 0x20, 0x6d, 0x63, 0x78, 0x6e, 0x39,
  0x34, 0x78, 0x0a, 0x00, 0x01, 0x00, 0x00, 0x00, 0x14, 0x00, 0x00, 0x00,
  0x00, 0x00, 0x0e, 0x00, 0x18, 0x00, 0x04, 0x00, 0x08, 0x00, 0x0c, 0x00,
  0x10, 0x00, 0x14, 0x00, 0x0e, 0x00, 0x00, 0x00, 0x40, 0x01, 0x00, 0x00,
  0x34, 0x01, 0x00, 0x00, 0x28, 0x01, 0x00, 0x00, 0x14, 0x00, 0x00, 0x00,
  0x04, 0x00, 0x00, 0x00, 0x04, 0x00, 0x00, 0x00, 0x6d, 0x61, 0x69, 0x6e,
  0x00, 0x00, 0x00, 0x00, 0x03, 0x00, 0x00, 0x00, 0xac, 0x00, 0x00, 0x00,
  0x60, 0x00, 0x00, 0x00, 0x14, 0x00, 0x00, 0x00, 0x00, 0x00, 0x0e, 0x00,
  0x18, 0x00, 0x08, 0x00, 0x0c, 0x00, 0x10, 0x00, 0x07, 0x00, 0x14, 0x00,
  0x0e, 0x00, 0x00, 0x00, 0x00, 0x00, 0x00, 0x30, 0x02, 0x00, 0x00, 0x00,
  0x1c, 0x00, 0x00, 0x00, 0x10, 0x00, 0x00, 0x00, 0x08, 0x00, 0x00, 0x00,
  0x04, 0x00, 0x04, 0x00, 0x04, 0x00, 0x00, 0x00, 0x01, 0x00, 0x00, 0x00,
  0x03, 0x00, 0x00, 0x00, 0x03, 0x00, 0x00, 0x00, 0x02, 0x00, 0x00, 0x00,
  0x04, 0x00, 0x00, 0x00, 0x05, 0x00, 0x00, 0x00, 0x00, 0x00, 0x0e, 0x00,
  0x1a, 0x00, 0x08, 0x00, 0x0c, 0x00, 0x10, 0x00, 0x07, 0x00, 0x14, 0x00,
  0x0e, 0x00, 0x00, 0x00, 0x00, 0x00, 0x00, 0x09, 0x01, 0x00, 0x00, 0x00,
  0x24, 0x00, 0x00, 0x00, 0x18, 0x00, 0x00, 0x00, 0x0c, 0x00, 0x00, 0x00,
  0x00, 0x00, 0x06, 0x00, 0x08, 0x00, 0x04, 0x00, 0x06, 0x00, 0x00, 0x00,
  0x00, 0x00, 0x80, 0x3f, 0x01, 0x00, 0x00, 0x00, 0x02, 0x00, 0x00, 0x00,
  0x01, 0x00, 0x00, 0x00, 0x01, 0x00, 0x00, 0x00, 0x10, 0x00, 0x10, 0x00,
  0x00, 0x00, 0x04, 0x00, 0x08, 0x00, 0x00, 0x00, 0x00, 0x00, 0x0c, 0x00,
  0x10, 0x00, 0x00, 0x00, 0x48, 0x00, 0x00, 0x00, 0x30, 0x00, 0x00, 0x00,
  0x04, 0x00, 0x00, 0x00, 0x21, 0x00, 0x00, 0x00, 0x73, 0x75, 0x62, 0x67,
  0x72, 0x61, 0x70, 0x68, 0x00, 0x0c, 0x73, 0x75, 0x62, 0x67, 0x72, 0x61,
  0x70, 0x68, 0x5f, 0x30, 0x31, 0x30, 0x00, 0x01, 0x18, 0x01, 0x01, 0x01,
  0x12, 0x14, 0x02, 0x24, 0x01, 0x00, 0x00, 0x00, 0x04, 0x00, 0x00, 0x00,
  0x01, 0x00, 0x00, 0x00, 0x09, 0x00, 0x00, 0x00, 0x0a, 0x00, 0x00, 0x00,
  0x0b, 0x00, 0x00, 0x00, 0x04, 0x00, 0x00, 0x00, 0x00, 0x00, 0x00, 0x00,
  0x06, 0x00, 0x00, 0x00, 0x07, 0x00, 0x00, 0x00, 0x08, 0x00, 0x00, 0x00,
  0x01, 0x00, 0x00, 0x00, 0x03, 0x00, 0x00, 0x00, 0x01, 0x00, 0x00, 0x00,
  0x00, 0x00, 0x00, 0x00, 0x0c, 0x00, 0x00, 0x00, 0x6c, 0x03, 0x00, 0x00,
  0xc4, 0x02, 0x00, 0x00, 0x48, 0x02, 0x00, 0x00, 0xe4, 0x01, 0x00, 0x00,
  0x98, 0x01, 0x00, 0x00, 0x40, 0x01, 0x00, 0x00, 0x08, 0x01, 0x00, 0x00,
  0xd4, 0x00, 0x00, 0x00, 0xa0, 0x00, 0x00, 0x00, 0x70, 0x00, 0x00, 0x00,
  0x34, 0x00, 0x00, 0x00, 0x04, 0x00, 0x00, 0x00, 0xa8, 0xff, 0xff, 0xff,
  0x00, 0x00, 0x00, 0x03, 0x1c, 0x00, 0x00, 0x00, 0x04, 0x00, 0x00, 0x00,
  0x0c, 0x00, 0x00, 0x00, 0x4e, 0x65, 0x75, 0x74, 0x72, 0x6f, 0x6e, 0x44,
  0x65, 0x62, 0x75, 0x67, 0x00, 0x00, 0x00, 0x00, 0x01, 0x00, 0x00, 0x00,
  0x00, 0x00, 0x00, 0x00, 0xd4, 0xff, 0xff, 0xff, 0x00, 0x00, 0x00, 0x03,
  0x1c, 0x00, 0x00, 0x00, 0x04, 0x00, 0x00, 0x00, 0x0e, 0x00, 0x00, 0x00,
  0x4e, 0x65, 0x75, 0x74, 0x72, 0x6f, 0x6e, 0x50, 0x72, 0x6f, 0x66, 0x69,
  0x6c, 0x65, 0x00, 0x00, 0x01, 0x00, 0x00, 0x00, 0x00, 0x00, 0x00, 0x00,
  0x0c, 0x00, 0x10, 0x00, 0x08, 0x00, 0x07, 0x00, 0x00, 0x00, 0x0c, 0x00,
  0x0c, 0x00, 0x00, 0x00, 0x00, 0x00, 0x00, 0x03, 0x1c, 0x00, 0x00, 0x00,
  0x04, 0x00, 0x00, 0x00, 0x0e, 0x00, 0x00, 0x00, 0x4e, 0x65, 0x75, 0x74,
  0x72, 0x6f, 0x6e, 0x53, 0x63, 0x72, 0x61, 0x74, 0x63, 0x68, 0x00, 0x00,
  0x01, 0x00, 0x00, 0x00, 0x80, 0x16, 0x00, 0x00, 0x24, 0xff, 0xff, 0xff,
  0x00, 0x00, 0x00, 0x03, 0x20, 0x00, 0x00, 0x00, 0x05, 0x00, 0x00, 0x00,
  0x04, 0x00, 0x00, 0x00, 0x0e, 0x00, 0x00, 0x00, 0x4e, 0x65, 0x75, 0x74,
  0x72, 0x6f, 0x6e, 0x4b, 0x65, 0x72, 0x6e, 0x65, 0x6c, 0x73, 0x00, 0x00,
  0x01, 0x00, 0x00, 0x00, 0x01, 0x00, 0x00, 0x00, 0x54, 0xff, 0xff, 0xff,
  0x00, 0x00, 0x00, 0x03, 0x20, 0x00, 0x00, 0x00, 0x04, 0x00, 0x00, 0x00,
  0x04, 0x00, 0x00, 0x00, 0x0e, 0x00, 0x00, 0x00, 0x4e, 0x65, 0x75, 0x74,
  0x72, 0x6f, 0x6e, 0x57, 0x65, 0x69, 0x67, 0x68, 0x74, 0x73, 0x00, 0x00,
  0x01, 0x00, 0x00, 0x00, 0xec, 0x14, 0x00, 0x00, 0x84, 0xff, 0xff, 0xff,
  0x00, 0x00, 0x00, 0x03, 0x24, 0x00, 0x00, 0x00, 0x03, 0x00, 0x00, 0x00,
  0x04, 0x00, 0x00, 0x00, 0x10, 0x00, 0x00, 0x00, 0x4e, 0x65, 0x75, 0x74,
  0x72, 0x6f, 0x6e, 0x4d, 0x69, 0x63, 0x72, 0x6f, 0x63, 0x6f, 0x64, 0x65,
  0x00, 0x00, 0x00, 0x00, 0x01, 0x00, 0x00, 0x00, 0xc8, 0x03, 0x00, 0x00,
  0xb8, 0xff, 0xff, 0xff, 0x00, 0x00, 0x00, 0x02, 0x38, 0x00, 0x00, 0x00,
  0x02, 0x00, 0x00, 0x00, 0x04, 0x00, 0x00, 0x00, 0x24, 0x00, 0x00, 0x00,
  0x53, 0x74, 0x61, 0x74, 0x65, 0x66, 0x75, 0x6c, 0x50, 0x61, 0x72, 0x74,
  0x69, 0x74, 0x69, 0x6f, 0x6e, 0x65, 0x64, 0x43, 0x61, 0x6c, 0x6c, 0x5f,
  0x31, 0x3a, 0x30, 0x2f, 0x70, 0x61, 0x64, 0x2f, 0x73, 0x69, 0x7a, 0x65,
  0x00, 0x00, 0x00, 0x00, 0x01, 0x00, 0x00, 0x00, 0x02, 0x00, 0x00, 0x00,
  0x0c, 0x00, 0x14, 0x00, 0x08, 0x00, 0x07, 0x00, 0x0c, 0x00, 0x10, 0x00,
  0x0c, 0x00, 0x00, 0x00, 0x00, 0x00, 0x00, 0x02, 0x38, 0x00, 0x00, 0x00,
  0x01, 0x00, 0x00, 0x00, 0x04, 0x00, 0x00, 0x00, 0x25, 0x00, 0x00, 0x00,
  0x53, 0x74, 0x61, 0x74, 0x65, 0x66, 0x75, 0x6c, 0x50, 0x61, 0x72, 0x74,
  0x69, 0x74, 0x69, 0x6f, 0x6e, 0x65, 0x64, 0x43, 0x61, 0x6c, 0x6c, 0x5f,
  0x31, 0x3a, 0x30, 0x2f, 0x70, 0x61, 0x64, 0x2f, 0x62, 0x65, 0x67, 0x69,
  0x6e, 0x00, 0x00, 0x00, 0x01, 0x00, 0x00, 0x00, 0x02, 0x00, 0x00, 0x00,
  0x36, 0xff, 0xff, 0xff, 0x00, 0x00, 0x00, 0x09, 0x4c, 0x00, 0x00, 0x00,
  0x28, 0x00, 0x00, 0x00, 0x04, 0x00, 0x00, 0x00, 0x6c, 0xfe, 0xff, 0xff,
  0x14, 0x00, 0x00, 0x00, 0x04, 0x00, 0x00, 0x00, 0x01, 0x00, 0x00, 0x00,
  0x80, 0xff, 0xff, 0xff, 0xff, 0xff, 0xff, 0xff, 0x01, 0x00, 0x00, 0x00,
  0x00, 0x00, 0x80, 0x3b, 0x1b, 0x00, 0x00, 0x00, 0x53, 0x74, 0x61, 0x74,
  0x65, 0x66, 0x75, 0x6c, 0x50, 0x61, 0x72, 0x74, 0x69, 0x74, 0x69, 0x6f,
  0x6e, 0x65, 0x64, 0x43, 0x61, 0x6c, 0x6c, 0x5f, 0x31, 0x3a, 0x30, 0x00,
  0x02, 0x00, 0x00, 0x00, 0x01, 0x00, 0x00, 0x00, 0x02, 0x00, 0x00, 0x00,
  0x96, 0xff, 0xff, 0xff, 0x00, 0x00, 0x00, 0x09, 0x54, 0x00, 0x00, 0x00,
  0x2c, 0x00, 0x00, 0x00, 0x04, 0x00, 0x00, 0x00, 0xcc, 0xfe, 0xff, 0xff,
  0x18, 0x00, 0x00, 0x00, 0x04, 0x00, 0x00, 0x00, 0x01, 0x00, 0x00, 0x00,
  0x80, 0xff, 0xff, 0xff, 0xff, 0xff, 0xff, 0xff, 0x00, 0x00, 0x00, 0x00,
  0x01, 0x00, 0x00, 0x00, 0x00, 0x00, 0x80, 0x3b, 0x1f, 0x00, 0x00, 0x00,
  0x53, 0x74, 0x61, 0x74, 0x65, 0x66, 0x75, 0x6c, 0x50, 0x61, 0x72, 0x74,
  0x69, 0x74, 0x69, 0x6f, 0x6e, 0x65, 0x64, 0x43, 0x61, 0x6c, 0x6c, 0x5f,
  0x31, 0x3a, 0x30, 0x2f, 0x70, 0x61, 0x64, 0x00, 0x02, 0x00, 0x00, 0x00,
  0x01, 0x00, 0x00, 0x00, 0x04, 0x00, 0x00, 0x00, 0x00, 0x00, 0x0e, 0x00,
  0x14, 0x00, 0x08, 0x00, 0x07, 0x00, 0x00, 0x00, 0x0c, 0x00, 0x10, 0x00,
  0x0e, 0x00, 0x00, 0x00, 0x00, 0x00, 0x00, 0x09, 0x78, 0x00, 0x00, 0x00,
  0x28, 0x00, 0x00, 0x00, 0x04, 0x00, 0x00, 0x00, 0x44, 0xff, 0xff, 0xff,
  0x14, 0x00, 0x00, 0x00, 0x04, 0x00, 0x00, 0x00, 0x01, 0x00, 0x00, 0x00,
  0x33, 0x00, 0x00, 0x00, 0x00, 0x00, 0x00, 0x00, 0x01, 0x00, 0x00, 0x00,
  0xe6, 0x7e, 0x01, 0x3f, 0x44, 0x00, 0x00, 0x00, 0x74, 0x65, 0x72, 0x72,
  0x61, 0x5f, 0x67, 0x75, 0x61, 0x72, 0x64, 0x5f, 0x63, 0x72, 0x6f, 0x77,
  0x5f, 0x31, 0x2f, 0x63, 0x6c, 0x73, 0x5f, 0x31, 0x2f, 0x4d, 0x61, 0x74,
  0x4d, 0x75, 0x6c, 0x3b, 0x74, 0x65, 0x72, 0x72, 0x61, 0x5f, 0x67, 0x75,
  0x61, 0x72, 0x64, 0x5f, 0x63, 0x72, 0x6f, 0x77, 0x5f, 0x31, 0x2f, 0x63,
  0x6c, 0x73, 0x5f, 0x31, 0x2f, 0x42, 0x69, 0x61, 0x73, 0x41, 0x64, 0x64,
  0x2f, 0x70, 0x61, 0x64, 0x00, 0x00, 0x00, 0x00, 0x02, 0x00, 0x00, 0x00,
  0x01, 0x00, 0x00, 0x00, 0x04, 0x00, 0x00, 0x00, 0x00, 0x00, 0x16, 0x00,
  0x18, 0x00, 0x08, 0x00, 0x06, 0x00, 0x00, 0x00, 0x0c, 0x00, 0x10, 0x00,
  0x00, 0x00, 0x00, 0x00, 0x14, 0x00, 0x07, 0x00, 0x16, 0x00, 0x00, 0x00,
  0x00, 0x00, 0x09, 0x01, 0x70, 0x00, 0x00, 0x00, 0x4c, 0x00, 0x00, 0x00,
  0x28, 0x00, 0x00, 0x00, 0x04, 0x00, 0x00, 0x00, 0x04, 0x00, 0x00, 0x00,
  0x01, 0x00, 0x00, 0x00, 0x18, 0x00, 0x00, 0x00, 0x18, 0x00, 0x00, 0x00,
  0x04, 0x00, 0x00, 0x00, 0x0c, 0x00, 0x0c, 0x00, 0x00, 0x00, 0x00, 0x00,
  0x04, 0x00, 0x08, 0x00, 0x0c, 0x00, 0x00, 0x00, 0x14, 0x00, 0x00, 0x00,
  0x04, 0x00, 0x00, 0x00, 0x01, 0x00, 0x00, 0x00, 0x80, 0xff, 0xff, 0xff,
  0xff, 0xff, 0xff, 0xff, 0x01, 0x00, 0x00, 0x00, 0x81, 0x80, 0x80, 0x3b,
  0x1a, 0x00, 0x00, 0x00, 0x73, 0x65, 0x72, 0x76, 0x69, 0x6e, 0x67, 0x5f,
  0x64, 0x65, 0x66, 0x61, 0x75, 0x6c, 0x74, 0x5f, 0x74, 0x65, 0x72, 0x72,
  0x61, 0x5f, 0x69, 0x6e, 0x3a, 0x30, 0x00, 0x00, 0x04, 0x00, 0x00, 0x00,
  0x01, 0x00, 0x00, 0x00, 0x18, 0x00, 0x00, 0x00, 0x18, 0x00, 0x00, 0x00,
  0x04, 0x00, 0x00, 0x00, 0x03, 0x00, 0x00, 0x00, 0x4c, 0x00, 0x00, 0x00,
  0x2c, 0x00, 0x00, 0x00, 0x10, 0x00, 0x00, 0x00, 0x0c, 0x00, 0x0c, 0x00,
  0x07, 0x00, 0x00, 0x00, 0x00, 0x00, 0x08, 0x00, 0x0c, 0x00, 0x00, 0x00,
  0x00, 0x00, 0x00, 0x41, 0x41, 0x00, 0x00, 0x00, 0x0c, 0x00, 0x10, 0x00,
  0x07, 0x00, 0x00, 0x00, 0x08, 0x00, 0x0c, 0x00, 0x0c, 0x00, 0x00, 0x00,
  0x00, 0x00, 0x00, 0x19, 0x02, 0x00, 0x00, 0x00, 0x19, 0x00, 0x00, 0x00,
  0x0c, 0x00, 0x10, 0x00, 0x07, 0x00, 0x08, 0x00, 0x00, 0x00, 0x0c, 0x00,
  0x0c, 0x00, 0x00, 0x00, 0x00, 0x00, 0x00, 0x20, 0x08, 0x00, 0x00, 0x00,
  0x20, 0x00, 0x00, 0x00, 0x0c, 0x00, 0x00, 0x00, 0x4e, 0x65, 0x75, 0x74,
  0x72, 0x6f, 0x6e, 0x47, 0x72, 0x61, 0x70, 0x68, 0x00, 0x00, 0x00, 0x00
};

static const unsigned int model_data_len = 8208;
