/*
 * Copyright 2026 NXP
 *
 * SPDX-License-Identifier: BSD-3-Clause
 */

// 自作モデル（TerraGuard カラス検出 2クラス: not_crow/crow, 入力24×24×4）を
// neutron-converter(mcxn94x, 3.0.0) で NPU 変換し、tools/ml/make_model_data_h.py で
// SDK 枠に流し込んだもの。
// 元 op resolver スニペット（model_cifarnet_ops_npu.cpp を合わせること）:
/*
// Register operators for TFLite Micro.
static tflite::MicroMutableOpResolver<3> s_microOpResolver;
s_microOpResolver.AddSoftmax();
s_microOpResolver.AddSlice();
s_microOpResolver.AddCustom(tflite::GetString_NEUTRON_GRAPH(), tflite::Register_NEUTRON_GRAPH());
*/

#ifdef __arm__
#include <cmsis_compiler.h>
#else
#define __ALIGNED(x) __attribute__((aligned(x)))
#endif

#if defined(MCXN947_cm33_core0_SERIES)
#define __PLACEMENT __attribute__((section(".model")))
#else
#define __PLACEMENT
#endif

#define MODEL_NAME "terra_guard_crow"
// int8 入力をそのまま使う想定（前段で量子化済み）。MODEL_ConvertInput が
// (x - MEAN)/STD を行うため、恒等変換になるよう 0/1 にしておく。
#define MODEL_INPUT_MEAN 0.0f
#define MODEL_INPUT_STD 1.0f

constexpr int kTensorArenaSize = 65536;

static const uint8_t model_data[] __ALIGNED(16) __PLACEMENT = {
  0x20, 0x00, 0x00, 0x00, 0x54, 0x46, 0x4c, 0x33, 0x00, 0x00, 0x00, 0x00,
  0x00, 0x00, 0x12, 0x00, 0x1c, 0x00, 0x04, 0x00, 0x08, 0x00, 0x0c, 0x00,
  0x10, 0x00, 0x14, 0x00, 0x00, 0x00, 0x18, 0x00, 0x12, 0x00, 0x00, 0x00,
  0x03, 0x00, 0x00, 0x00, 0x74, 0x1f, 0x00, 0x00, 0x18, 0x1a, 0x00, 0x00,
  0xb0, 0x19, 0x00, 0x00, 0x50, 0x00, 0x00, 0x00, 0x04, 0x00, 0x00, 0x00,
  0x01, 0x00, 0x00, 0x00, 0x0c, 0x00, 0x00, 0x00, 0x08, 0x00, 0x0c, 0x00,
  0x04, 0x00, 0x08, 0x00, 0x08, 0x00, 0x00, 0x00, 0x08, 0x00, 0x00, 0x00,
  0x06, 0x00, 0x00, 0x00, 0x26, 0x00, 0x00, 0x00, 0x67, 0x72, 0x61, 0x70,
  0x68, 0x5f, 0x30, 0x5f, 0x6f, 0x70, 0x65, 0x72, 0x61, 0x74, 0x6f, 0x72,
  0x5f, 0x31, 0x5f, 0x4f, 0x72, 0x69, 0x67, 0x69, 0x6e, 0x61, 0x6c, 0x4e,
  0x75, 0x6d, 0x43, 0x68, 0x61, 0x6e, 0x6e, 0x65, 0x6c, 0x73, 0x00, 0x00,
  0x07, 0x00, 0x00, 0x00, 0x54, 0x19, 0x00, 0x00, 0x38, 0x19, 0x00, 0x00,
  0x14, 0x19, 0x00, 0x00, 0x30, 0x15, 0x00, 0x00, 0x2c, 0x00, 0x00, 0x00,
  0x18, 0x00, 0x00, 0x00, 0x04, 0x00, 0x00, 0x00, 0xa2, 0xe5, 0xff, 0xff,
  0x04, 0x00, 0x00, 0x00, 0x04, 0x00, 0x00, 0x00, 0x02, 0x00, 0x00, 0x00,
  0xb2, 0xe5, 0xff, 0xff, 0x04, 0x00, 0x00, 0x00, 0x01, 0x00, 0x00, 0x00,
  0x00, 0x00, 0x00, 0x00, 0xc2, 0xe5, 0xff, 0xff, 0x04, 0x00, 0x00, 0x00,
  0xec, 0x14, 0x00, 0x00, 0x00, 0x1e, 0xde, 0x1a, 0xa7, 0x8e, 0xc0, 0x93,
  0x16, 0x1a, 0xab, 0x16, 0x0b, 0x92, 0x80, 0x1e, 0x5e, 0x1f, 0x40, 0x1f,
  0x4e, 0x97, 0xc8, 0x97, 0x1a, 0x1b, 0x37, 0x16, 0xa6, 0x8f, 0x56, 0x22,
  0x26, 0x1e, 0x1c, 0x1f, 0x52, 0x97, 0x80, 0x93, 0xa0, 0x1b, 0x2c, 0x0f,
  0xc2, 0x96, 0x3c, 0x1f, 0x46, 0x52, 0xb8, 0x53, 0xed, 0x57, 0x8d, 0x52,
  0x23, 0x53, 0x11, 0x53, 0x15, 0x52, 0x6c, 0x53, 0x34, 0x1b, 0xb0, 0xfe,
  0x22, 0x6d, 0x22, 0x53, 0x33, 0xa4, 0x1e, 0xf5, 0x5c, 0xbb, 0xee, 0xf3,
  0x2d, 0xb4, 0x2d, 0xed, 0xef, 0x04, 0x03, 0xdc, 0xbc, 0x56, 0xb9, 0x7d,
  0x30, 0x43, 0x28, 0x30, 0x37, 0x69, 0xde, 0x0c, 0xeb, 0x48, 0xe8, 0x24,
  0xa5, 0x99, 0xde, 0x2e, 0x19, 0xb1, 0xf2, 0x45, 0xce, 0x34, 0xd4, 0x2f,
  0x12, 0x01, 0x0b, 0xa0, 0xf9, 0xc5, 0xae, 0xdd, 0xca, 0x7f, 0x14, 0x4b,
  0x3f, 0x7f, 0x17, 0x02, 0x20, 0x72, 0xee, 0x0e, 0xe0, 0x98, 0x5c, 0x4f,
  0x27, 0xbb, 0xe3, 0xc8, 0x1a, 0x0a, 0xf8, 0x66, 0x31, 0xd4, 0xe6, 0x68,
  0x60, 0x04, 0xdb, 0x37, 0xcb, 0x68, 0x36, 0x4f, 0xc2, 0x61, 0x11, 0x51,
  0x05, 0x37, 0xee, 0x44, 0x2f, 0x9e, 0xf9, 0xc3, 0x3a, 0x1a, 0x57, 0xd3,
  0xea, 0x10, 0xd2, 0x05, 0xf2, 0xd6, 0x05, 0xa9, 0x33, 0xa8, 0xe5, 0xdb,
  0xf0, 0x54, 0x06, 0x15, 0xfe, 0x3f, 0x5e, 0x1d, 0xee, 0x45, 0xf7, 0x3b,
  0xd0, 0xbd, 0x48, 0x7f, 0xe8, 0x16, 0x18, 0xd8, 0xd5, 0x58, 0x31, 0xf6,
  0x2a, 0x4c, 0x29, 0xaf, 0x06, 0xda, 0x2e, 0xa1, 0xfc, 0x76, 0xbf, 0x4c,
  0x0d, 0x1c, 0xac, 0xba, 0x20, 0x7f, 0xdc, 0x01, 0xbc, 0xc6, 0xe7, 0x7a,
  0xf8, 0xa9, 0xf7, 0xf7, 0x28, 0x7f, 0xff, 0x71, 0x3d, 0x70, 0xc1, 0x10,
  0x36, 0x8b, 0xa1, 0x7f, 0xd2, 0x42, 0x01, 0x2f, 0x08, 0x16, 0xf2, 0xdc,
  0xdf, 0x13, 0xff, 0x26, 0x11, 0x0d, 0xee, 0x90, 0xe2, 0x81, 0x19, 0xc4,
  0xde, 0xa7, 0xef, 0xd3, 0xff, 0xef, 0x00, 0xf3, 0x72, 0xa1, 0xdf, 0xc6,
  0xef, 0x4f, 0x21, 0x3b, 0x14, 0x36, 0xee, 0xe7, 0xe8, 0xfb, 0xea, 0xfc,
  0x46, 0x1e, 0x0b, 0xd9, 0x0c, 0xa1, 0x37, 0x14, 0xd5, 0x10, 0xcc, 0x16,
  0x01, 0xfe, 0xf2, 0xe7, 0x11, 0x54, 0xf7, 0xf0, 0x2d, 0x31, 0x18, 0x56,
  0x3f, 0x6f, 0x63, 0x1c, 0x0e, 0x1b, 0xfc, 0x1f, 0x50, 0x58, 0xa5, 0xd0,
  0x12, 0xee, 0x18, 0x2e, 0x01, 0x1d, 0x3d, 0x54, 0x0d, 0x7f, 0xbf, 0x57,
  0xaa, 0x16, 0x3a, 0x78, 0xe8, 0x02, 0xdb, 0x44, 0x5f, 0x1e, 0xdf, 0x1a,
  0xbb, 0x13, 0x1b, 0x1f, 0xb0, 0x1f, 0x19, 0x1a, 0xc0, 0x96, 0x27, 0x1e,
  0x73, 0x22, 0x56, 0x1e, 0x3a, 0x9f, 0xdb, 0x1f, 0x25, 0x23, 0x15, 0x13,
  0x90, 0x97, 0x1a, 0x22, 0x70, 0x1f, 0xab, 0x1a, 0x8e, 0x9f, 0x39, 0x1e,
  0x62, 0x22, 0x7b, 0x0f, 0x06, 0x9a, 0x14, 0x1f, 0xd3, 0x1a, 0x32, 0x8f,
  0x3c, 0x93, 0xe3, 0x1e, 0x9e, 0x97, 0x38, 0x96, 0x8f, 0x1f, 0xae, 0x92,
  0x14, 0x1f, 0x1e, 0x1a, 0xfe, 0x97, 0x7a, 0x22, 0xa2, 0x96, 0x54, 0x17,
  0xae, 0x22, 0xdf, 0x9b, 0xbb, 0x1b, 0x8a, 0x1b, 0x95, 0x1b, 0x1c, 0x1f,
  0x37, 0x1a, 0x1a, 0x1a, 0xf4, 0x1e, 0xf7, 0x97, 0x99, 0x52, 0x81, 0x52,
  0xf8, 0x52, 0x36, 0x4e, 0xb5, 0x4e, 0xdc, 0x53, 0x59, 0x53, 0xfb, 0x53,
  0x42, 0x4f, 0xec, 0x4e, 0x75, 0x4e, 0x7f, 0x53, 0xf1, 0x52, 0xf4, 0x4e,
  0xe5, 0x53, 0xa5, 0x53, 0xba, 0xc9, 0xf4, 0x50, 0x20, 0x55, 0x9c, 0xd6,
  0xa1, 0x19, 0xb4, 0x81, 0xd8, 0xf5, 0xf4, 0xe0, 0x11, 0x2d, 0x12, 0x06,
  0x22, 0xf3, 0x11, 0xe7, 0x3e, 0xdf, 0xc4, 0x36, 0x20, 0xdb, 0xeb, 0x30,
  0xe2, 0xd2, 0xee, 0x28, 0xf0, 0xf6, 0xaf, 0x54, 0x21, 0xfb, 0x8f, 0xb1,
  0xd7, 0xe0, 0x06, 0xfa, 0x13, 0x13, 0xf2, 0x12, 0x2c, 0x00, 0x24, 0x13,
  0x40, 0xeb, 0xe7, 0x04, 0xef, 0x35, 0xd7, 0x27, 0xe0, 0x7a, 0x5c, 0x12,
  0x55, 0x2d, 0x3e, 0xca, 0x0e, 0xe5, 0x96, 0xac, 0x23, 0x0f, 0x0b, 0x2a,
  0x0d, 0x45, 0xf0, 0x1e, 0x24, 0xd6, 0xc7, 0xc7, 0x33, 0xd3, 0xcc, 0x24,
  0xde, 0x2a, 0xe3, 0x04, 0x0b, 0x37, 0x70, 0x0c, 0xec, 0x4b, 0xf9, 0x6b,
  0xef, 0xbd, 0x8d, 0xe2, 0x14, 0x08, 0x29, 0xfc, 0x43, 0x25, 0x38, 0xd8,
  0xe0, 0xee, 0x1a, 0xbc, 0xe7, 0xdb, 0xbe, 0x60, 0x55, 0xd6, 0x0d, 0x03,
  0x0c, 0xd1, 0x53, 0xd9, 0xa4, 0x1b, 0xf6, 0x76, 0x50, 0xb6, 0xff, 0x4e,
  0x19, 0x15, 0xe9, 0xee, 0x77, 0xf0, 0x3c, 0x07, 0xec, 0x28, 0x44, 0xe2,
  0xc2, 0x3a, 0xf8, 0x2c, 0x7f, 0x31, 0x23, 0x40, 0x74, 0x49, 0x7f, 0x2c,
  0xb3, 0x35, 0x0c, 0xd2, 0x02, 0x0b, 0x83, 0xd1, 0x7f, 0x37, 0xfd, 0x08,
  0x6e, 0x00, 0xfc, 0x2e, 0xde, 0xe4, 0x15, 0xa9, 0x94, 0xed, 0xe8, 0x40,
  0x64, 0xef, 0x4b, 0xfb, 0xde, 0x1b, 0xc0, 0xce, 0x56, 0x52, 0x08, 0x00,
  0xe9, 0x34, 0xdc, 0xf5, 0x04, 0xcb, 0x33, 0xd6, 0xcf, 0xee, 0xe5, 0x0a,
  0xfc, 0x14, 0x27, 0x20, 0x0b, 0x17, 0xea, 0x00, 0x0f, 0xbd, 0xf0, 0x00,
  0xac, 0xd1, 0x12, 0x2e, 0x1e, 0x2a, 0x04, 0x62, 0x4c, 0x5f, 0xa5, 0xb8,
  0xd6, 0xfb, 0x1e, 0xf0, 0xdd, 0x47, 0x1e, 0xe3, 0x1b, 0x0f, 0x3a, 0xf0,
  0xeb, 0xf2, 0x26, 0x3e, 0xf1, 0xed, 0x1a, 0x06, 0xd6, 0x3a, 0xd0, 0xf1,
  0x14, 0xa7, 0xeb, 0x1b, 0x45, 0xfc, 0xe4, 0x22, 0x22, 0x49, 0x25, 0x0b,
  0xeb, 0x3a, 0x24, 0xfc, 0xc0, 0xe8, 0xc3, 0xc8, 0x33, 0x33, 0xdb, 0x38,
  0x17, 0xfb, 0x00, 0x2b, 0xfc, 0xf9, 0x1b, 0xd3, 0x16, 0x48, 0xe5, 0x10,
  0xa0, 0xbd, 0x02, 0x12, 0x1a, 0x01, 0x3e, 0xd6, 0x47, 0xe0, 0x0e, 0x09,
  0x40, 0x4f, 0x0f, 0xca, 0xd2, 0xec, 0x9b, 0x0a, 0x18, 0x38, 0x51, 0xfb,
  0x23, 0x2f, 0x7b, 0x2e, 0x86, 0xd5, 0xa3, 0x44, 0x16, 0xf4, 0x1b, 0x2d,
  0x4f, 0xf8, 0x4d, 0xf4, 0x6f, 0x14, 0x1d, 0x3f, 0x1e, 0x45, 0x7f, 0x16,
  0x1c, 0xdc, 0x8f, 0x0f, 0x1d, 0xe4, 0x15, 0x19, 0x66, 0x42, 0x0b, 0x46,
  0xb2, 0x29, 0x81, 0x5a, 0xa2, 0x26, 0x12, 0x4e, 0x42, 0xeb, 0xed, 0x57,
  0x7f, 0x0a, 0x2b, 0x46, 0x00, 0xe5, 0x19, 0x9e, 0x81, 0x12, 0xc4, 0x17,
  0x32, 0xd1, 0x27, 0x1b, 0x48, 0x9d, 0x37, 0x3c, 0x2a, 0x30, 0x19, 0xf0,
  0x51, 0x67, 0xa3, 0xd3, 0xf3, 0x3d, 0x1c, 0xd5, 0xf3, 0xfd, 0x0c, 0xea,
  0x00, 0x56, 0x1d, 0x03, 0xe1, 0x1f, 0x2a, 0xfc, 0xe9, 0xe7, 0x03, 0xd1,
  0x23, 0xf8, 0x02, 0xfb, 0x5d, 0x5b, 0x04, 0x0d, 0x36, 0x57, 0xd0, 0xc9,
  0x32, 0x0f, 0xe3, 0x1e, 0x0a, 0x33, 0x13, 0x10, 0xe9, 0x2a, 0xf5, 0x10,
  0x19, 0xe2, 0xf0, 0x2f, 0x0b, 0x04, 0xf3, 0xdb, 0x11, 0xe7, 0x19, 0xee,
  0x0d, 0x04, 0xe5, 0x52, 0x2b, 0x4c, 0x9f, 0xf4, 0xfe, 0x41, 0xdc, 0x17,
  0xd9, 0x3e, 0xfa, 0x11, 0xee, 0x14, 0xcc, 0xc4, 0xec, 0x03, 0xd6, 0x07,
  0xd8, 0x54, 0x12, 0xf2, 0x4d, 0xf6, 0x0a, 0xd5, 0x39, 0xd1, 0x00, 0x4f,
  0xdb, 0x14, 0xb0, 0x0a, 0x24, 0x1a, 0x0a, 0x03, 0x40, 0x06, 0xf9, 0xff,
  0xeb, 0x53, 0x57, 0x1a, 0xe5, 0xdb, 0xa6, 0x26, 0x69, 0x28, 0x05, 0xd6,
  0xfa, 0x39, 0x71, 0x36, 0xf7, 0x22, 0x99, 0xf0, 0xe9, 0x07, 0x18, 0x1e,
  0x27, 0xe8, 0x27, 0x10, 0x50, 0x17, 0x10, 0x26, 0x0d, 0xd3, 0x2f, 0x16,
  0x0d, 0x3c, 0xe6, 0x5a, 0x3a, 0xe0, 0xfd, 0xe3, 0x31, 0xc5, 0xfb, 0x1b,
  0xe4, 0x04, 0x87, 0x22, 0x2b, 0xf7, 0xd7, 0x2e, 0x36, 0xf0, 0x43, 0x13,
  0x2a, 0xf9, 0xfe, 0x23, 0xb0, 0xe0, 0xe6, 0xc1, 0xa5, 0x3c, 0xec, 0x31,
  0x6d, 0x05, 0x3a, 0x5e, 0xe5, 0x22, 0x1d, 0xee, 0xe4, 0xe5, 0x16, 0xf1,
  0xed, 0xfb, 0x20, 0x16, 0xf5, 0xc0, 0xe5, 0x23, 0x21, 0x62, 0x0b, 0x9e,
  0xe7, 0xd6, 0x00, 0xf4, 0x19, 0xf1, 0x1f, 0x0c, 0xc9, 0x39, 0xc9, 0xa3,
  0x16, 0x3e, 0x11, 0x11, 0x05, 0xf1, 0x03, 0x0a, 0xe4, 0x13, 0x34, 0xdf,
  0xf8, 0xe1, 0x1d, 0x37, 0x16, 0xf7, 0xc1, 0xe4, 0xf9, 0x12, 0xe4, 0x00,
  0xcb, 0x27, 0x00, 0x15, 0xde, 0x47, 0xe3, 0xe3, 0xf1, 0x36, 0xf6, 0xda,
  0xf7, 0x4d, 0x1a, 0xdf, 0x15, 0xe2, 0xea, 0xe3, 0xe8, 0x52, 0x4d, 0x11,
  0x54, 0x0b, 0xad, 0xd7, 0x26, 0x42, 0x33, 0xf4, 0xd6, 0x07, 0x0d, 0xc6,
  0x31, 0x04, 0xdb, 0xae, 0x34, 0x06, 0xf1, 0x08, 0x3b, 0x06, 0xfa, 0xe5,
  0xe5, 0xdf, 0xea, 0xec, 0x24, 0x2c, 0x59, 0x0d, 0x35, 0x00, 0xc9, 0x67,
  0x00, 0xdd, 0x04, 0xde, 0x2b, 0xe8, 0x3a, 0x00, 0x16, 0xb0, 0x03, 0x33,
  0x55, 0xff, 0x13, 0xef, 0x2a, 0x1f, 0x00, 0x00, 0x17, 0xdb, 0xe8, 0x2f,
  0x20, 0xbe, 0x75, 0x0a, 0xdb, 0x1b, 0xce, 0x55, 0x40, 0x00, 0x1f, 0xeb,
  0x7b, 0x17, 0x15, 0x0e, 0xfb, 0xad, 0xbd, 0xef, 0x7f, 0xf5, 0x0e, 0x21,
  0x7f, 0xf5, 0x28, 0x2d, 0x1b, 0xf9, 0xd8, 0xed, 0x7f, 0xcb, 0x1f, 0x14,
  0xe4, 0xdd, 0x0a, 0x35, 0x7f, 0x25, 0x35, 0x52, 0x72, 0x27, 0x07, 0x3f,
  0x03, 0x21, 0xee, 0xed, 0x0b, 0x0e, 0xf4, 0x13, 0x14, 0xfa, 0x09, 0x09,
  0xe9, 0x13, 0x3a, 0x1c, 0xed, 0x01, 0xee, 0xe0, 0x32, 0x27, 0x16, 0x0a,
  0x02, 0xe1, 0x15, 0xf3, 0xe8, 0xbd, 0x2c, 0xfa, 0x28, 0x54, 0x8c, 0x9b,
  0xfa, 0x10, 0x05, 0x01, 0xf7, 0x09, 0xeb, 0x00, 0xf7, 0x4f, 0x27, 0xec,
  0x26, 0xbd, 0x3c, 0xfe, 0xd8, 0xfd, 0xec, 0x2c, 0xea, 0xd1, 0x06, 0xf8,
  0x00, 0x1d, 0x03, 0x0b, 0x31, 0x5d, 0xbd, 0xd2, 0xea, 0x09, 0x08, 0xe5,
  0xeb, 0xfa, 0x05, 0x1b, 0x30, 0x44, 0x10, 0x05, 0xbe, 0xec, 0x44, 0xee,
  0x2f, 0x58, 0xdc, 0xd6, 0x14, 0xfe, 0xf6, 0x26, 0xe0, 0x23, 0x2e, 0x05,
  0x18, 0x59, 0xf3, 0x13, 0x12, 0xe0, 0x05, 0x0f, 0x1a, 0xed, 0x00, 0x04,
  0x20, 0x15, 0xf8, 0x3b, 0x5c, 0x01, 0x48, 0xe3, 0x26, 0xc1, 0xe1, 0x7f,
  0xdc, 0xee, 0xdb, 0xde, 0x33, 0x23, 0x22, 0xf5, 0x26, 0xfc, 0xa8, 0x03,
  0x32, 0xe6, 0x05, 0xf4, 0x1f, 0x07, 0x01, 0x1a, 0x05, 0x17, 0xf9, 0x3a,
  0x26, 0x2c, 0x52, 0x05, 0x08, 0x13, 0x8a, 0x6b, 0xd8, 0xe8, 0x05, 0x15,
  0x54, 0xf3, 0x4f, 0xde, 0x35, 0xdb, 0xd7, 0x5d, 0x23, 0xf2, 0xfe, 0xfb,
  0xff, 0xfc, 0x26, 0x08, 0x35, 0x17, 0x0e, 0x1c, 0x51, 0xd1, 0x23, 0xe2,
  0x4b, 0x01, 0x9d, 0x08, 0x69, 0x00, 0x10, 0x02, 0x66, 0xd5, 0xf7, 0xe9,
  0x08, 0x0a, 0xeb, 0x57, 0x19, 0xf1, 0xfe, 0x14, 0x0e, 0xe3, 0x0e, 0xe5,
  0x8e, 0x0b, 0x95, 0x81, 0x2c, 0xef, 0xec, 0x17, 0xcc, 0x4e, 0x1a, 0xed,
  0xe2, 0xdf, 0xe7, 0x23, 0xd9, 0x14, 0x2a, 0x2c, 0x37, 0x03, 0x81, 0xce,
  0x0d, 0x2b, 0x02, 0xfc, 0x1e, 0xfc, 0x06, 0x0c, 0xf5, 0x07, 0xad, 0xfa,
  0x2d, 0x1e, 0x35, 0x22, 0xb1, 0x15, 0xba, 0xaf, 0x18, 0x0e, 0xda, 0xef,
  0xe6, 0x01, 0xfc, 0xeb, 0x20, 0x28, 0x03, 0xb3, 0x00, 0x1f, 0x1d, 0x15,
  0xdf, 0xdb, 0xf4, 0x18, 0xd1, 0x1f, 0xde, 0xc8, 0xf5, 0xf5, 0xdd, 0x28,
  0xb0, 0xfe, 0xa4, 0x0f, 0x14, 0x07, 0xfa, 0xe4, 0x32, 0x5d, 0x0e, 0xeb,
  0xe6, 0x10, 0xdb, 0xdd, 0x04, 0x0f, 0x14, 0xd8, 0xd0, 0xdf, 0xeb, 0xe8,
  0xad, 0xbd, 0x0c, 0xc1, 0x08, 0xe9, 0x32, 0xb8, 0x2a, 0x97, 0x1b, 0x47,
  0x04, 0xe2, 0xd6, 0xd9, 0x08, 0x1f, 0xf5, 0xf0, 0xe2, 0xd5, 0xb8, 0x4c,
  0x15, 0x0c, 0x03, 0x13, 0xed, 0xd9, 0xd8, 0x0f, 0x46, 0xdc, 0x32, 0x25,
  0x5d, 0xf3, 0x6f, 0xfa, 0x3d, 0xa2, 0xcb, 0x39, 0xe1, 0x01, 0xfe, 0xda,
  0x73, 0x3b, 0x17, 0x1a, 0x26, 0xf8, 0xc4, 0x57, 0x18, 0x00, 0x13, 0x33,
  0x25, 0x16, 0x14, 0xf6, 0xec, 0xd5, 0xd6, 0x07, 0x2b, 0x19, 0x2f, 0x23,
  0xe0, 0xa5, 0x93, 0x6d, 0x67, 0x25, 0x2e, 0x0c, 0x7f, 0x2d, 0x27, 0x11,
  0x0b, 0x2c, 0xa1, 0x0d, 0xb0, 0x1a, 0x65, 0x22, 0xc6, 0x1e, 0x34, 0x22,
  0x66, 0x22, 0x6d, 0x22, 0x4c, 0x22, 0x7e, 0x17, 0xa2, 0x1b, 0x15, 0x23,
  0x86, 0x1e, 0x96, 0x23, 0xe6, 0x23, 0xd9, 0x23, 0xee, 0x22, 0x2f, 0x1a,
  0xae, 0x1b, 0xd5, 0x1e, 0xb3, 0x1e, 0xa1, 0x1f, 0x3c, 0x22, 0xc9, 0x1f,
  0x7b, 0x22, 0x96, 0x17, 0x57, 0x9f, 0x61, 0x22, 0x18, 0x1f, 0x36, 0x1b,
  0x8b, 0x22, 0xdd, 0x1b, 0x18, 0x1e, 0x14, 0x1f, 0x87, 0xa2, 0x39, 0x23,
  0xd9, 0x1e, 0xe7, 0x1e, 0x99, 0x23, 0x64, 0x1e, 0x7d, 0x22, 0x35, 0x1f,
  0x7d, 0xa2, 0x56, 0x1f, 0x76, 0x1e, 0x28, 0x1f, 0x3b, 0x1f, 0x38, 0x1e,
  0x09, 0x22, 0x11, 0x1f, 0x0c, 0x1f, 0xbe, 0x0e, 0x83, 0x1b, 0xe0, 0x1b,
  0x42, 0x22, 0xda, 0x17, 0x71, 0x1e, 0x58, 0x22, 0xba, 0x22, 0xf9, 0x96,
  0xa9, 0x1e, 0x3a, 0x1e, 0xbc, 0x23, 0x75, 0x1a, 0x23, 0x1f, 0xbd, 0x23,
  0xcc, 0x1e, 0x9f, 0x17, 0xc2, 0x1e, 0x1e, 0x1e, 0x1b, 0x22, 0x1a, 0x17,
  0xee, 0x1e, 0x56, 0x1f, 0x7d, 0x4e, 0x29, 0x4e, 0xfe, 0x53, 0x86, 0x4e,
  0xe4, 0x53, 0x88, 0x4e, 0x0d, 0x4e, 0x71, 0x4e, 0xce, 0x56, 0x5b, 0x4e,
  0x67, 0x4e, 0x74, 0x4e, 0x35, 0x4e, 0x6d, 0x4e, 0x0a, 0x4e, 0xd0, 0x53,
  0xe8, 0x4e, 0x23, 0x4e, 0x5a, 0x4e, 0x50, 0x4e, 0x49, 0x4e, 0xe5, 0x53,
  0x25, 0x4e, 0x47, 0x4e, 0xec, 0xfa, 0x3e, 0xcc, 0xf4, 0xec, 0xf9, 0x36,
  0xd6, 0x2a, 0x2d, 0xce, 0x2d, 0xff, 0xbf, 0x46, 0x15, 0x03, 0xd5, 0x53,
  0xf3, 0x0f, 0xbf, 0x57, 0xe5, 0xff, 0x4f, 0xe7, 0xd9, 0x04, 0x3f, 0xf6,
  0x0a, 0x24, 0x4d, 0xdf, 0xf9, 0x00, 0xe1, 0x2b, 0xf1, 0xfb, 0x19, 0xe7,
  0xfa, 0x0f, 0xcd, 0x21, 0x2a, 0xeb, 0xc4, 0x35, 0x25, 0x0d, 0xce, 0x3f,
  0x01, 0xf9, 0x43, 0xe6, 0xd9, 0x24, 0x21, 0xce, 0x01, 0x19, 0x25, 0xdd,
  0x03, 0x0f, 0x11, 0x5e, 0xdf, 0x08, 0x23, 0xd9, 0x07, 0x0c, 0xe7, 0x58,
  0x32, 0xfb, 0xdb, 0x53, 0x1c, 0x23, 0xe4, 0x48, 0xde, 0xec, 0x49, 0xcf,
  0x09, 0x1a, 0x2c, 0xea, 0xec, 0xdd, 0x1b, 0xd5, 0x35, 0x2f, 0x17, 0x13,
  0x08, 0x9d, 0xf7, 0xc8, 0x21, 0x34, 0xfe, 0x0d, 0x40, 0x2a, 0x0b, 0x0b,
  0x2d, 0x31, 0x01, 0x45, 0xe8, 0xe1, 0xfc, 0xcf, 0xfe, 0xe6, 0x1e, 0xd6,
  0x0d, 0xac, 0x1c, 0x15, 0x0f, 0xf5, 0xdb, 0xf7, 0xe2, 0xba, 0xf9, 0xf4,
  0xfa, 0x0b, 0x04, 0x3a, 0x2a, 0xee, 0xdd, 0x1a, 0x1b, 0xf1, 0xf4, 0x2f,
  0x19, 0xe1, 0x18, 0xe3, 0x0b, 0xc9, 0x0f, 0xe8, 0xe7, 0x04, 0xf1, 0x0d,
  0x0b, 0xd2, 0xeb, 0x41, 0xfd, 0xb9, 0x16, 0xe1, 0x2e, 0x1b, 0x16, 0x5f,
  0x4f, 0xfd, 0xee, 0x47, 0x28, 0x0b, 0x05, 0x50, 0xfd, 0xb4, 0x21, 0xdc,
  0xea, 0xf1, 0x29, 0xf0, 0xe9, 0x07, 0x7f, 0xd9, 0x14, 0xf4, 0xae, 0x0c,
  0x22, 0x09, 0x78, 0xf5, 0x1a, 0x29, 0x9a, 0x05, 0xf7, 0x0f, 0xac, 0x27,
  0x35, 0x18, 0xbb, 0xee, 0x21, 0xd3, 0x7f, 0xc8, 0x0a, 0xe3, 0x7f, 0xd1,
  0x10, 0xdb, 0x62, 0xe9, 0x26, 0x33, 0xb2, 0xe1, 0xe1, 0x0e, 0x73, 0xe7,
  0xfb, 0x0d, 0x99, 0x11, 0x0a, 0xf8, 0x81, 0x20, 0x1f, 0xff, 0xbc, 0x0f,
  0xf2, 0x19, 0x79, 0xe0, 0x14, 0xee, 0x56, 0x09, 0xef, 0xd1, 0x0d, 0x22,
  0x16, 0x25, 0x3c, 0xfc, 0xf3, 0xf9, 0xf3, 0x13, 0x48, 0x51, 0x01, 0xf4,
  0x12, 0x15, 0x2a, 0x35, 0x34, 0x24, 0x05, 0x0c, 0xec, 0x06, 0x08, 0xf6,
  0x02, 0xd9, 0xf2, 0x09, 0x3f, 0xc8, 0xf5, 0x47, 0xf0, 0x1c, 0x24, 0xac,
  0x34, 0xf2, 0xed, 0x46, 0xe1, 0x46, 0x0b, 0xca, 0xea, 0x57, 0x50, 0xde,
  0xcf, 0x46, 0x38, 0xb1, 0x3a, 0xf1, 0xd3, 0x61, 0x1b, 0xad, 0xf0, 0x32,
  0x26, 0xdf, 0xdf, 0x3c, 0xd9, 0x1b, 0x0e, 0xe1, 0x4d, 0xa6, 0xdf, 0x7f,
  0xde, 0x42, 0x31, 0xb5, 0xed, 0x30, 0x38, 0xb9, 0xe7, 0x1a, 0x0a, 0xb6,
  0x6f, 0x0c, 0x0b, 0x7b, 0x38, 0xf3, 0xe2, 0x4d, 0xfc, 0xc4, 0xea, 0x0d,
  0x05, 0x5b, 0x34, 0xea, 0x13, 0xc0, 0xc8, 0x44, 0x0b, 0x7f, 0x42, 0xf9,
  0x11, 0x6c, 0x39, 0x11, 0x25, 0x7f, 0x36, 0xd9, 0x3a, 0xaf, 0xdc, 0x39,
  0x11, 0xa5, 0xce, 0x2e, 0x13, 0x09, 0x1b, 0xd6, 0x0f, 0xfe, 0xed, 0x45,
  0xf1, 0x23, 0x59, 0x14, 0xff, 0xfe, 0xb1, 0x43, 0x31, 0xf5, 0xea, 0x2f,
  0x05, 0x09, 0xb6, 0x2d, 0xd9, 0x0c, 0x37, 0xfa, 0x04, 0x0d, 0x48, 0xf0,
  0xf5, 0x06, 0x1b, 0xe9, 0x11, 0x04, 0xc6, 0x19, 0x07, 0xfa, 0x27, 0xe5,
  0x01, 0x15, 0xe0, 0x0e, 0x23, 0x13, 0xbc, 0x3f, 0x17, 0xde, 0xe5, 0x2d,
  0x08, 0x20, 0x5e, 0xf2, 0x0f, 0xff, 0x49, 0xf3, 0x0f, 0x19, 0x1b, 0xd5,
  0x28, 0xf1, 0xd2, 0x52, 0x01, 0x1b, 0x43, 0xdb, 0xf6, 0xef, 0xc9, 0x3d,
  0x1d, 0x0a, 0xde, 0x59, 0x24, 0x1e, 0xe7, 0x38, 0xfa, 0x3c, 0x39, 0x0f,
  0x02, 0x1a, 0x1f, 0xdd, 0x0c, 0x06, 0x03, 0xfd, 0x18, 0xe1, 0x14, 0x07,
  0x0c, 0x0a, 0x37, 0x15, 0x18, 0x03, 0xf6, 0x30, 0x2b, 0xe2, 0xf5, 0x3d,
  0xf8, 0x12, 0xe0, 0x0d, 0x31, 0x32, 0x27, 0x00, 0xfc, 0xc6, 0x16, 0xeb,
  0x03, 0xc9, 0x13, 0x1f, 0x27, 0x05, 0x0f, 0x30, 0x06, 0xf2, 0x20, 0x10,
  0xf1, 0xfc, 0xdc, 0x11, 0xed, 0xde, 0x02, 0x33, 0x00, 0x07, 0x07, 0xfa,
  0x32, 0xeb, 0x22, 0xf4, 0x1c, 0xed, 0x14, 0xeb, 0x0e, 0x01, 0x29, 0xf3,
  0x33, 0xe3, 0xfd, 0x1f, 0x2b, 0xe4, 0x08, 0xe2, 0x29, 0xf7, 0x11, 0x1a,
  0x0e, 0xd9, 0xfc, 0x04, 0x08, 0xe7, 0x20, 0x31, 0x05, 0xb3, 0x19, 0xe7,
  0x02, 0xde, 0x0b, 0xe8, 0x04, 0x02, 0x2f, 0x0a, 0x12, 0x32, 0xca, 0x2b,
  0xfd, 0x18, 0x0e, 0x19, 0x24, 0x01, 0xc8, 0xff, 0x2e, 0x1f, 0xf0, 0x30,
  0xfd, 0x0e, 0xee, 0xec, 0x31, 0xd9, 0x72, 0xdf, 0x05, 0xdd, 0xf9, 0xe9,
  0xf2, 0x03, 0x00, 0x02, 0xf7, 0x02, 0xe2, 0x27, 0x1e, 0x23, 0x23, 0xe5,
  0x04, 0x1e, 0x00, 0x0a, 0x1d, 0x2f, 0xe8, 0xf8, 0x1a, 0x25, 0xf3, 0x23,
  0xf8, 0x07, 0x26, 0xf9, 0x21, 0xe0, 0x13, 0xe7, 0xf7, 0x16, 0x2b, 0xf3,
  0x00, 0x35, 0xda, 0xe8, 0x1f, 0xca, 0x07, 0xdd, 0x36, 0x43, 0x07, 0x2a,
  0x1d, 0x0a, 0xf9, 0x07, 0x29, 0x17, 0xfa, 0x24, 0x05, 0x33, 0x03, 0xe4,
  0xeb, 0xe1, 0x07, 0x13, 0x22, 0xd7, 0xf7, 0x5a, 0xd9, 0x4b, 0x12, 0xc4,
  0x63, 0xdd, 0x06, 0x63, 0xba, 0x56, 0xfb, 0xb3, 0xc9, 0x4b, 0xf5, 0xd2,
  0xcb, 0x38, 0x34, 0xaf, 0x66, 0xe3, 0xf6, 0x7c, 0x1d, 0xf5, 0xd0, 0x3e,
  0x2e, 0xe0, 0xe9, 0x3c, 0xd1, 0x49, 0xef, 0xbd, 0x4e, 0xbb, 0xf9, 0x5c,
  0xc9, 0x12, 0x2d, 0xbf, 0xc4, 0x45, 0xf5, 0xb0, 0xcd, 0x25, 0xf4, 0xac,
  0x68, 0xd7, 0xe1, 0x6e, 0x45, 0xf2, 0xd7, 0x4e, 0x3d, 0xc3, 0xf5, 0x2b,
  0x03, 0x5d, 0x19, 0xea, 0x4a, 0xdb, 0xee, 0x3c, 0xe5, 0x46, 0x36, 0xf0,
  0x22, 0x4f, 0x0c, 0xc0, 0xe9, 0x46, 0x26, 0xf6, 0x25, 0xf0, 0xfb, 0x40,
  0x4b, 0xdc, 0xfe, 0x1e, 0xde, 0x1f, 0x3d, 0xf4, 0x28, 0xf1, 0xe4, 0x27,
  0x14, 0x31, 0x2a, 0x09, 0x10, 0x10, 0xf6, 0x4d, 0x26, 0x0b, 0xdc, 0x43,
  0xf6, 0x18, 0xfc, 0x2c, 0xc7, 0x0e, 0x33, 0xd5, 0xd5, 0xfc, 0x21, 0x02,
  0x0b, 0x19, 0x17, 0x0c, 0xfb, 0xf9, 0x0d, 0x48, 0xfe, 0x09, 0x4a, 0xf3,
  0x15, 0xe9, 0xe3, 0x3b, 0xf8, 0x24, 0xe8, 0x14, 0x0b, 0x13, 0xff, 0x48,
  0xfb, 0x08, 0x28, 0x0b, 0xe3, 0x19, 0x23, 0xf0, 0x1e, 0x02, 0x08, 0xd4,
  0x24, 0xfc, 0x17, 0x56, 0xe6, 0xfa, 0x26, 0xc4, 0x11, 0x27, 0x17, 0x5c,
  0x34, 0x39, 0x04, 0x65, 0x0d, 0x1e, 0x22, 0x55, 0x23, 0x27, 0x11, 0xfe,
  0xef, 0x21, 0xfc, 0xe5, 0xfc, 0xd3, 0x17, 0xe3, 0x2a, 0x1e, 0x05, 0xfa,
  0xe3, 0xcf, 0xfd, 0xe8, 0x25, 0x1c, 0xfe, 0x2d, 0x17, 0xe6, 0x1c, 0x20,
  0x12, 0x18, 0xee, 0x0c, 0x24, 0xf9, 0x06, 0xec, 0x0e, 0xd3, 0xf5, 0xe3,
  0xec, 0xe9, 0x11, 0xf4, 0x2f, 0x10, 0xf7, 0x16, 0x14, 0x9f, 0x32, 0x1b,
  0x29, 0xf1, 0x1f, 0x23, 0x20, 0xf0, 0xde, 0x30, 0x30, 0x15, 0x1a, 0x0a,
  0xe4, 0xdb, 0xec, 0xe9, 0x02, 0xee, 0x22, 0xe5, 0xef, 0xeb, 0xfd, 0xdb,
  0x44, 0x1b, 0x04, 0x3a, 0xd7, 0xc3, 0x14, 0xfd, 0x41, 0xf2, 0x09, 0x17,
  0x20, 0xee, 0x0a, 0x57, 0x1f, 0x13, 0x25, 0x30, 0xef, 0xbb, 0x2b, 0xf6,
  0xf4, 0x08, 0x1e, 0xee, 0xdb, 0xe2, 0x21, 0x18, 0xf4, 0x05, 0xbd, 0x0c,
  0x0f, 0x00, 0x41, 0xf3, 0x33, 0x17, 0xda, 0x20, 0xf7, 0x38, 0xd3, 0xf2,
  0x1a, 0x1d, 0x00, 0x11, 0x11, 0xe7, 0x07, 0xd2, 0x13, 0xce, 0x0f, 0x13,
  0xe4, 0xf4, 0x1f, 0xfa, 0x19, 0x11, 0xd9, 0xf2, 0xf3, 0xd2, 0x09, 0xe6,
  0x13, 0x13, 0xdd, 0xee, 0x38, 0x1f, 0xc8, 0xe6, 0x18, 0x01, 0xd3, 0x07,
  0xff, 0x01, 0xff, 0x1d, 0x0b, 0x08, 0x0b, 0x0e, 0xf4, 0xfb, 0x10, 0x03,
  0x2d, 0x36, 0xe2, 0x1d, 0xd2, 0x02, 0x07, 0xec, 0x2a, 0x31, 0xd4, 0x1c,
  0x26, 0x16, 0xff, 0x13, 0x29, 0x51, 0xf1, 0x08, 0xfe, 0x10, 0x28, 0xf1,
  0xfe, 0xff, 0x22, 0xfa, 0x27, 0xdb, 0xd2, 0x44, 0xe3, 0x49, 0x0d, 0xd3,
  0x19, 0xc0, 0xf7, 0x37, 0xe3, 0x4f, 0x09, 0xd4, 0xe5, 0x4e, 0x35, 0xe6,
  0xe3, 0x2e, 0x06, 0xcc, 0x39, 0xf2, 0xfc, 0x43, 0x3b, 0xcf, 0xca, 0x35,
  0x11, 0xf9, 0x0f, 0x35, 0x17, 0x4d, 0x15, 0xdb, 0x4a, 0xe1, 0xd0, 0x57,
  0xed, 0x42, 0xfb, 0xe5, 0xc7, 0x50, 0x36, 0xce, 0xf9, 0x56, 0x0b, 0xd9,
  0x52, 0x09, 0xd2, 0x3b, 0x0f, 0xcf, 0xee, 0x46, 0x30, 0xd0, 0xe8, 0xfd,
  0xf6, 0x7f, 0x1b, 0x22, 0x39, 0xb2, 0xde, 0x2b, 0x15, 0x7a, 0x2b, 0xed,
  0x01, 0x57, 0x20, 0x27, 0x18, 0x7b, 0x41, 0xff, 0x39, 0xbe, 0xe2, 0x4d,
  0x36, 0xc8, 0xec, 0x39, 0x48, 0xf0, 0x1d, 0x11, 0x12, 0xdc, 0xfa, 0x39,
  0xd9, 0xf9, 0x4f, 0xda, 0xf9, 0x27, 0x35, 0xd1, 0xf3, 0xf2, 0xd0, 0x5f,
  0x04, 0x14, 0x46, 0xec, 0xfa, 0x17, 0xcd, 0x2d, 0x1d, 0xf0, 0x51, 0xd6,
  0x05, 0xf6, 0x13, 0x94, 0x18, 0xe2, 0xcf, 0x36, 0xe3, 0x08, 0x23, 0xea,
  0x07, 0x21, 0x27, 0xd1, 0x0d, 0x19, 0xf1, 0x4b, 0x00, 0x14, 0x36, 0xee,
  0x11, 0xd6, 0xca, 0x1d, 0xf8, 0x16, 0x3f, 0xac, 0x58, 0x13, 0xfb, 0x31,
  0x14, 0xf1, 0x0d, 0x49, 0x06, 0x0e, 0x3a, 0xe8, 0x0d, 0xf8, 0x29, 0xbb,
  0x10, 0xfa, 0xfb, 0x5d, 0x00, 0x0b, 0x17, 0xb3, 0x19, 0x22, 0xee, 0x77,
  0x08, 0x09, 0x17, 0xd3, 0x8a, 0xf6, 0x2b, 0xbc, 0x36, 0x06, 0xe9, 0x03,
  0x09, 0xa9, 0x12, 0x0a, 0xd9, 0xe5, 0x16, 0xe7, 0x28, 0x03, 0xe0, 0x3a,
  0xe5, 0xfc, 0x1d, 0xd6, 0x08, 0x0e, 0xea, 0x39, 0x0c, 0xc0, 0x21, 0xe1,
  0xc8, 0xa0, 0xc1, 0xb4, 0xf6, 0xec, 0xfd, 0xfe, 0x1f, 0xd3, 0xed, 0xda,
  0xeb, 0x20, 0x29, 0xfb, 0x26, 0xe1, 0xe0, 0x02, 0xfb, 0x08, 0x1f, 0xea,
  0x3c, 0x09, 0x03, 0xf9, 0x13, 0xf0, 0xed, 0xd1, 0x1d, 0x9e, 0x0e, 0x62,
  0x29, 0xe0, 0xf6, 0x30, 0x06, 0xdc, 0x18, 0xc7, 0xfb, 0xf7, 0x0f, 0xdf,
  0x35, 0xe1, 0xf9, 0x45, 0xfd, 0x23, 0x17, 0xeb, 0x3a, 0xf9, 0xfe, 0x68,
  0x00, 0xea, 0x32, 0xe5, 0x26, 0x88, 0x4c, 0x0d, 0x2a, 0x23, 0x81, 0x2b,
  0xfb, 0x0e, 0x56, 0xf6, 0x02, 0xdc, 0x7f, 0x11, 0x37, 0x1b, 0xb5, 0xf9,
  0xdf, 0xdc, 0x63, 0x15, 0xf1, 0xf8, 0x8d, 0x12, 0x06, 0xda, 0x62, 0x15,
  0x0e, 0xe7, 0x2c, 0xd5, 0x1e, 0xfe, 0x9d, 0xec, 0xe8, 0xf2, 0x53, 0xdb,
  0x0c, 0x14, 0x71, 0x1f, 0xfe, 0x35, 0x8f, 0xf5, 0xe8, 0xe6, 0x7f, 0xf5,
  0x24, 0x22, 0x90, 0x28, 0xfb, 0x14, 0x7a, 0x04, 0x92, 0x87, 0x62, 0xd1,
  0x2c, 0x3d, 0xf7, 0x1b, 0xea, 0xff, 0xf7, 0xe8, 0xd6, 0xcc, 0xfb, 0x17,
  0x31, 0x4d, 0x20, 0xfc, 0xff, 0xfe, 0x09, 0xed, 0x1a, 0x14, 0x38, 0x11,
  0xe5, 0xd8, 0xdb, 0x10, 0x1c, 0xd4, 0x47, 0xe9, 0xe8, 0x1c, 0x2c, 0xe8,
  0x37, 0xbb, 0xd1, 0x50, 0x1c, 0xd1, 0xe4, 0x44, 0xe0, 0x53, 0x14, 0xab,
  0x11, 0xc3, 0xce, 0x22, 0xe7, 0x3c, 0x46, 0xc1, 0x3a, 0xa4, 0xc8, 0x4a,
  0xea, 0xe3, 0x1b, 0xe7, 0xfb, 0x1e, 0x15, 0xc0, 0x3f, 0xee, 0xc9, 0x63,
  0x42, 0xdb, 0xd7, 0x55, 0xcd, 0x31, 0x15, 0xc3, 0x36, 0xcb, 0xed, 0x4c,
  0xed, 0x59, 0x08, 0xd9, 0x42, 0xb0, 0xd8, 0x6b, 0x08, 0x24, 0xf3, 0xe4,
  0x21, 0x6c, 0x42, 0x13, 0x24, 0x91, 0xf0, 0x1a, 0x1e, 0xd7, 0xf7, 0x37,
  0x2e, 0x7f, 0x1c, 0xdf, 0xf9, 0xbd, 0xd9, 0x28, 0x2b, 0x7f, 0x53, 0x0c,
  0x14, 0xb9, 0xc8, 0x23, 0x0c, 0xdc, 0x46, 0x67, 0x0c, 0x17, 0xf3, 0x14,
  0xe7, 0x17, 0x5e, 0x1c, 0xef, 0x00, 0x17, 0xdf, 0x24, 0x13, 0xcb, 0x27,
  0xf0, 0x2e, 0x13, 0xce, 0xeb, 0x17, 0xe3, 0x43, 0x25, 0x27, 0x5a, 0x0d,
  0x08, 0xee, 0x18, 0x2a, 0x1a, 0x07, 0xc4, 0x3d, 0xe3, 0x3a, 0x3c, 0xdf,
  0x08, 0x1e, 0x39, 0xf1, 0x1d, 0xdd, 0xd9, 0x46, 0x0a, 0x02, 0x11, 0xdc,
  0x0e, 0x15, 0xeb, 0x40, 0xf0, 0x1b, 0x27, 0xd4, 0xbd, 0x45, 0x5c, 0xad,
  0x17, 0xe7, 0xfe, 0x3b, 0xf9, 0x10, 0x20, 0xe7, 0xf0, 0x06, 0x21, 0xd8,
  0xfb, 0xef, 0xcb, 0x30, 0x09, 0x1b, 0x27, 0xdb, 0x1a, 0x1e, 0x08, 0x52,
  0xe8, 0x38, 0x1a, 0xc6, 0x0c, 0xdb, 0x8c, 0x47, 0xf1, 0xf0, 0x13, 0x2a,
  0x1c, 0x03, 0x06, 0x0b, 0xe9, 0x1a, 0x2e, 0xf2, 0x19, 0x03, 0xef, 0x46,
  0x10, 0xf8, 0x2c, 0xdf, 0x0d, 0x17, 0xde, 0x2f, 0xed, 0x13, 0xf1, 0xf5,
  0x98, 0xb7, 0xbe, 0xbf, 0xea, 0xe7, 0x1e, 0x0d, 0x0e, 0xe0, 0x24, 0x1e,
  0xee, 0x0e, 0x1f, 0x15, 0x08, 0xfc, 0x14, 0x1c, 0x21, 0x05, 0xff, 0x05,
  0x26, 0xed, 0xea, 0xf9, 0x29, 0x01, 0x3a, 0x05, 0x2c, 0xf8, 0xdb, 0x9a,
  0x3f, 0xed, 0x0f, 0x3c, 0x18, 0xbf, 0x00, 0x03, 0xeb, 0xf6, 0x12, 0xf1,
  0x32, 0xe7, 0x0b, 0x39, 0xfb, 0x06, 0x11, 0xe7, 0x09, 0xff, 0x15, 0x08,
  0x06, 0x22, 0x0f, 0xd7, 0xf2, 0xa3, 0xf3, 0x31, 0x05, 0x35, 0xe8, 0xee,
  0x03, 0xfc, 0x7f, 0xdf, 0x17, 0x06, 0x12, 0xe7, 0xf5, 0x1a, 0xe6, 0xf8,
  0x04, 0x18, 0x13, 0xf4, 0xfd, 0xf3, 0xe5, 0x23, 0xfb, 0xdd, 0x54, 0xdd,
  0xd1, 0x1f, 0x6b, 0xfa, 0x0f, 0xfc, 0xdc, 0xf6, 0x0d, 0xf4, 0x1f, 0xf5,
  0x1d, 0xfc, 0x29, 0x11, 0x14, 0x2c, 0xc5, 0xe8, 0x0a, 0xeb, 0x0f, 0x1a,
  0xfa, 0x0d, 0xb7, 0xda, 0x10, 0x19, 0x23, 0xff, 0xc8, 0x9a, 0xc9, 0xbe,
  0x06, 0x2b, 0x05, 0x19, 0x0f, 0x19, 0xe3, 0xfa, 0xf0, 0x16, 0x21, 0xf6,
  0x20, 0x48, 0xfd, 0x25, 0xfc, 0xdd, 0x37, 0x25, 0x29, 0x28, 0xc8, 0x13,
  0x09, 0x09, 0x3a, 0x06, 0xdb, 0x1e, 0xad, 0x0a, 0xdc, 0x17, 0x2e, 0xb2,
  0x43, 0xe5, 0x05, 0x5c, 0x3c, 0xf5, 0x04, 0x4f, 0xd6, 0x21, 0x00, 0xc2,
  0x2d, 0xef, 0xdd, 0x28, 0xed, 0x45, 0x26, 0xdd, 0x62, 0xe3, 0xfc, 0x54,
  0xac, 0xd4, 0xab, 0xb3, 0xdb, 0x49, 0x09, 0xd6, 0x3b, 0xf8, 0xe4, 0x5b,
  0x4f, 0xf4, 0x13, 0x5f, 0xb6, 0x0f, 0x11, 0xbb, 0x4b, 0xde, 0x07, 0x56,
  0xc9, 0x19, 0x31, 0xb1, 0x52, 0xce, 0x28, 0x7f, 0x56, 0x33, 0xc2, 0xf7,
  0x14, 0x5d, 0x26, 0xe9, 0x41, 0xb8, 0x02, 0x4e, 0x09, 0xb9, 0xe2, 0x1d,
  0xd4, 0x68, 0x40, 0xed, 0x1b, 0xdf, 0x07, 0x4f, 0xe5, 0x78, 0x0b, 0xc0,
  0x0e, 0xaa, 0xea, 0x34, 0xd0, 0x83, 0x4c, 0x1f, 0xf0, 0xf0, 0xd8, 0x18,
  0xee, 0xfe, 0x14, 0xf5, 0xf2, 0x23, 0xff, 0xd1, 0x08, 0xe9, 0xcc, 0x48,
  0xe1, 0x16, 0x22, 0xc4, 0x04, 0xee, 0x05, 0x3c, 0xf3, 0x2b, 0x40, 0xb2,
  0x43, 0x3e, 0x92, 0xe9, 0xf5, 0x07, 0xf8, 0x2e, 0x00, 0x1c, 0x2b, 0xf1,
  0xee, 0x1f, 0x15, 0xda, 0xf5, 0x0a, 0x06, 0x39, 0xf2, 0xf3, 0x29, 0xd4,
  0xe6, 0x18, 0xd5, 0x0e, 0x1f, 0x2d, 0x19, 0xdf, 0x98, 0xea, 0x51, 0x15,
  0x26, 0x1a, 0x18, 0x56, 0xf1, 0x1c, 0x33, 0xed, 0x0c, 0xee, 0x21, 0xba,
  0xf2, 0x0e, 0x2e, 0x5b, 0x15, 0x02, 0x11, 0xde, 0xec, 0xe8, 0xfe, 0x23,
  0xef, 0x06, 0x06, 0xf3, 0x81, 0x33, 0x43, 0xcc, 0x24, 0x14, 0xef, 0x38,
  0x14, 0xe9, 0x25, 0xfe, 0xf5, 0xe8, 0x2b, 0x09, 0x34, 0xf2, 0x02, 0x3b,
  0x07, 0x14, 0x29, 0x13, 0x02, 0xee, 0xf4, 0x2b, 0xeb, 0xe0, 0x19, 0xfb,
  0xdf, 0xcd, 0xab, 0x04, 0x1f, 0xf2, 0xfc, 0x14, 0xe9, 0xdb, 0x1c, 0x12,
  0x09, 0xe6, 0x09, 0xfb, 0x33, 0xe0, 0x1c, 0x31, 0x07, 0x11, 0x0e, 0xf5,
  0xf1, 0xf5, 0x1e, 0xe6, 0xd7, 0x18, 0x1c, 0x1a, 0xe3, 0x71, 0xa7, 0xc8,
  0x52, 0x01, 0x05, 0x47, 0xeb, 0xdc, 0x1b, 0x07, 0x05, 0xec, 0xfc, 0xef,
  0x1a, 0x04, 0x22, 0x1e, 0xd3, 0x0d, 0x1d, 0xea, 0x14, 0xed, 0x11, 0x16,
  0xd7, 0xe5, 0xf9, 0x13, 0x31, 0x4e, 0x3e, 0x53, 0x0b, 0x0f, 0xe1, 0x2d,
  0xf3, 0xd3, 0x29, 0xf2, 0xd8, 0xd8, 0x33, 0x23, 0x33, 0x4b, 0xbc, 0x0e,
  0xdf, 0xe3, 0x30, 0x12, 0xec, 0x1f, 0xd7, 0xe3, 0xec, 0xca, 0x35, 0x0c,
  0x33, 0x5c, 0x70, 0x20, 0x2d, 0x31, 0x01, 0x07, 0xe5, 0xe6, 0x14, 0x0c,
  0x04, 0xe5, 0x2b, 0xfd, 0x35, 0x23, 0xe9, 0x09, 0x05, 0xf7, 0x37, 0x08,
  0x27, 0x12, 0xfb, 0xdf, 0x24, 0xf8, 0x22, 0xea, 0x58, 0xd9, 0x98, 0x91,
  0x09, 0x58, 0xe6, 0xf1, 0xd7, 0xd5, 0x25, 0xe1, 0x03, 0xfb, 0x03, 0x01,
  0x48, 0x62, 0xf8, 0x09, 0xee, 0xd3, 0x20, 0x0a, 0x3c, 0x48, 0xdb, 0xeb,
  0xd8, 0xec, 0x0a, 0x2c, 0xba, 0x37, 0x4f, 0x3d, 0xf2, 0x46, 0x16, 0xe6,
  0x4a, 0xb8, 0xe2, 0x1d, 0xff, 0xf0, 0xda, 0x37, 0xfe, 0x6f, 0x1d, 0xd8,
  0x14, 0xbc, 0x02, 0x3e, 0xd0, 0x1a, 0x1e, 0xea, 0x30, 0x9c, 0xec, 0x3d,
  0x3f, 0xd2, 0x89, 0x8e, 0xd3, 0x4d, 0xfb, 0xee, 0x50, 0xfa, 0x0b, 0x21,
  0x0a, 0xfa, 0xf6, 0x0f, 0xc2, 0x2b, 0x13, 0xd7, 0x04, 0xf6, 0xdd, 0x46,
  0xcf, 0x3f, 0x26, 0xf5, 0x15, 0xd1, 0xe3, 0x61, 0x14, 0xf0, 0xea, 0x4d,
  0x1d, 0x48, 0x08, 0xee, 0x2c, 0xce, 0xf5, 0x2a, 0x29, 0xce, 0x0a, 0x06,
  0x0d, 0x5a, 0x3f, 0xee, 0xf7, 0xa8, 0x09, 0x0f, 0x06, 0x50, 0x25, 0x06,
  0x1a, 0xb8, 0xe4, 0x28, 0x04, 0x1c, 0xbc, 0x23, 0x24, 0x38, 0x18, 0xc4,
  0x07, 0x23, 0x2e, 0xf2, 0xe8, 0x0d, 0x1f, 0xc8, 0xfd, 0xea, 0xd3, 0x52,
  0xe4, 0x00, 0x42, 0xf6, 0x16, 0x35, 0x48, 0xb2, 0x17, 0x07, 0xc6, 0x56,
  0x01, 0x19, 0xc3, 0x19, 0x1e, 0xe9, 0xfe, 0xc7, 0xea, 0x23, 0x12, 0x03,
  0x0c, 0x35, 0x41, 0xd5, 0x0b, 0xea, 0xc8, 0x36, 0x0a, 0x39, 0x15, 0xec,
  0x24, 0x12, 0x33, 0xf0, 0x07, 0xe0, 0xd8, 0x2b, 0x18, 0x14, 0x07, 0x69,
  0x2a, 0x14, 0xeb, 0xc7, 0x1a, 0xe5, 0x31, 0xe9, 0x03, 0x1a, 0x44, 0xdc,
  0xf8, 0x1d, 0x1f, 0x5f, 0xdc, 0x04, 0x31, 0xb8, 0x0e, 0xef, 0x3b, 0xb8,
  0xf0, 0xf6, 0x0f, 0x47, 0x17, 0x1e, 0xe4, 0x2f, 0x0c, 0xf7, 0x3a, 0xd8,
  0x00, 0xdd, 0x12, 0xec, 0xf7, 0xc0, 0xf3, 0xd3, 0x07, 0x10, 0x09, 0x21,
  0xe3, 0xbd, 0x18, 0xc3, 0xf0, 0xe6, 0xf9, 0xc4, 0x3a, 0x31, 0xe3, 0x05,
  0x1f, 0x0d, 0x02, 0x1f, 0xd5, 0xe6, 0x19, 0xe3, 0x07, 0xfc, 0x1d, 0xd3,
  0x13, 0xcc, 0x25, 0xf1, 0x1a, 0x18, 0xef, 0x24, 0xe1, 0xd2, 0x16, 0xf0,
  0x1a, 0x21, 0xfc, 0xd3, 0xf4, 0x06, 0xdb, 0x32, 0x42, 0x03, 0xf8, 0x4c,
  0xd1, 0x05, 0xff, 0xce, 0xe2, 0xf2, 0xf8, 0xc4, 0xfe, 0x01, 0xf6, 0xf7,
  0x32, 0x19, 0x26, 0x64, 0x0e, 0xfd, 0x03, 0xc2, 0xd7, 0x0a, 0x10, 0xc6,
  0x26, 0xd9, 0x1b, 0x51, 0x18, 0x2e, 0xc9, 0xfe, 0x06, 0x00, 0x7f, 0xf8,
  0x14, 0xd0, 0x64, 0x0e, 0xd8, 0xd4, 0x6d, 0x02, 0x25, 0x22, 0xb8, 0x1a,
  0xf9, 0xcc, 0x7f, 0xd5, 0x0f, 0xdb, 0x65, 0xe1, 0x2c, 0x3d, 0xb6, 0x24,
  0xfb, 0x13, 0x97, 0xf0, 0x15, 0x0b, 0xce, 0x03, 0xf4, 0x02, 0x7f, 0x0d,
  0xed, 0xff, 0x7f, 0xe2, 0xff, 0x33, 0x81, 0x1a, 0x20, 0xec, 0x77, 0xf8,
  0xf2, 0xdb, 0x61, 0x18, 0x15, 0x0c, 0x9a, 0xe3, 0x38, 0x35, 0x24, 0xfb,
  0xf9, 0xf5, 0x02, 0xe1, 0xd1, 0xfb, 0x1c, 0xea, 0x08, 0xf0, 0xed, 0x17,
  0x2f, 0x4f, 0xf5, 0x02, 0x08, 0xe3, 0xf8, 0xed, 0xfd, 0xca, 0x07, 0xfd,
  0x41, 0x15, 0xfe, 0x23, 0xea, 0x2a, 0x23, 0xc7, 0x40, 0xd3, 0xfa, 0x46,
  0x44, 0xe6, 0xe8, 0x37, 0x27, 0xdc, 0xd8, 0x30, 0xec, 0x55, 0x34, 0xc3,
  0x4d, 0xc2, 0xb5, 0x40, 0x23, 0xb3, 0xd8, 0x3c, 0xe7, 0x59, 0x45, 0xe6,
  0xf0, 0x23, 0x14, 0xb3, 0x0e, 0xd3, 0x01, 0x12, 0x37, 0xe1, 0x04, 0x2e,
  0x55, 0xb7, 0xc7, 0x60, 0xd0, 0x1c, 0x1e, 0xd9, 0x41, 0xb2, 0xfa, 0x71,
  0x42, 0xf6, 0xfa, 0x6a, 0xfc, 0x3f, 0x2b, 0xd3, 0x19, 0x7f, 0x3a, 0xe1,
  0xae, 0xaa, 0xf3, 0xe2, 0x19, 0xa3, 0xfd, 0x0f, 0x1c, 0xb6, 0xe1, 0x27,
  0x0c, 0x75, 0x24, 0xed, 0x3b, 0xc8, 0x06, 0x48, 0x20, 0xc6, 0xf0, 0x33,
  0x36, 0x6c, 0x29, 0xdd, 0x00, 0x13, 0xc6, 0x2d, 0x14, 0x2e, 0x2b, 0xed,
  0x14, 0x1c, 0x44, 0xd8, 0xf5, 0x2d, 0x45, 0xe8, 0x04, 0xf8, 0xc5, 0x0e,
  0xfe, 0x2b, 0x61, 0xf9, 0x09, 0x3d, 0x2d, 0xe0, 0xff, 0xee, 0xdd, 0x3e,
  0xf3, 0xea, 0xc7, 0x0f, 0x28, 0x04, 0x54, 0xd8, 0x18, 0x27, 0x30, 0xfc,
  0xeb, 0x23, 0x33, 0xeb, 0xe2, 0xf1, 0xbb, 0x2a, 0x20, 0x18, 0x42, 0xe3,
  0xe4, 0x33, 0x1f, 0xe1, 0xe3, 0x04, 0xf0, 0xfa, 0x14, 0x0d, 0xce, 0x3d,
  0xf7, 0x18, 0x19, 0x04, 0x14, 0x15, 0x35, 0xdf, 0x1f, 0x20, 0x28, 0x06,
  0xf6, 0xf6, 0x02, 0x5f, 0xfc, 0x27, 0x04, 0xbc, 0x11, 0xf3, 0x2b, 0xf3,
  0x1f, 0xe6, 0xfd, 0x5a, 0x14, 0x10, 0xf7, 0x0c, 0x1d, 0xdf, 0x37, 0xe2,
  0xfc, 0xfa, 0x32, 0x0e, 0xf3, 0xe1, 0x02, 0xef, 0x17, 0x20, 0xec, 0x29,
  0x1a, 0xe2, 0x07, 0x14, 0x1c, 0xda, 0x13, 0xdf, 0xf6, 0x04, 0x0b, 0x12,
  0xf6, 0xfd, 0xf6, 0x04, 0xff, 0xfd, 0xef, 0x10, 0xff, 0xf7, 0x2e, 0xe7,
  0x13, 0xf4, 0x01, 0xed, 0x10, 0xf2, 0xea, 0x21, 0xfe, 0x0f, 0xfe, 0x13,
  0x19, 0x0e, 0x0f, 0x01, 0x26, 0x0a, 0xf3, 0xec, 0x30, 0x0d, 0x0d, 0x0d,
  0xf5, 0xea, 0x05, 0xe8, 0x19, 0x13, 0x1d, 0xda, 0xf8, 0x17, 0x00, 0xf4,
  0x2a, 0x0f, 0xe4, 0x48, 0x11, 0xe9, 0x02, 0xda, 0xf7, 0x13, 0x07, 0xe8,
  0x0c, 0xf2, 0x00, 0x31, 0x13, 0x09, 0xd9, 0xed, 0xf3, 0xe7, 0x0e, 0xf6,
  0x03, 0xf9, 0x05, 0xfc, 0xed, 0xf5, 0x15, 0x04, 0x2d, 0x32, 0xc5, 0x28,
  0xe5, 0x04, 0xe9, 0xf8, 0xf9, 0xfe, 0x0c, 0xe2, 0x26, 0x38, 0xd3, 0x18,
  0x05, 0xfa, 0xe9, 0x16, 0xe7, 0x01, 0xf8, 0xe3, 0xf3, 0xea, 0x06, 0x21,
  0x0f, 0x0d, 0x2f, 0x00, 0xee, 0x2a, 0xd7, 0x01, 0xf3, 0xf3, 0xd3, 0xd8,
  0xfa, 0x05, 0x40, 0x1d, 0x08, 0xfa, 0xbd, 0x0f, 0x10, 0x52, 0xe4, 0xed,
  0x0c, 0xf2, 0x2f, 0x15, 0xf7, 0x13, 0x06, 0x26, 0xeb, 0x06, 0x02, 0x27,
  0x08, 0x36, 0xe5, 0x28, 0x1a, 0xeb, 0x87, 0xe5, 0xee, 0x1f, 0x0b, 0x2d,
  0x0e, 0x22, 0xbf, 0xe7, 0xe5, 0x42, 0x07, 0xcc, 0x58, 0xfa, 0x1b, 0x3c,
  0x40, 0xc5, 0xe0, 0x2e, 0x20, 0xf4, 0xe2, 0x49, 0xe7, 0x53, 0x08, 0xd2,
  0x4c, 0xbf, 0xff, 0x68, 0x24, 0xc5, 0xcd, 0x52, 0xdb, 0x54, 0x3a, 0xc6,
  0xcf, 0x29, 0x02, 0xc0, 0x19, 0xdb, 0x04, 0x6a, 0x2a, 0xec, 0xe5, 0x46,
  0x46, 0xe7, 0xfc, 0x59, 0xd2, 0x1e, 0x17, 0xb3, 0x42, 0xfb, 0xf0, 0x4d,
  0x5e, 0xd5, 0x1f, 0x7f, 0xe8, 0x16, 0x00, 0xb3, 0x0b, 0x3e, 0x18, 0xed,
  0x1a, 0xb0, 0x15, 0x49, 0x2d, 0xbb, 0xf2, 0x1c, 0x23, 0xc7, 0xe8, 0x3b,
  0xf4, 0x47, 0x39, 0xe6, 0x19, 0xb9, 0xef, 0x3b, 0x27, 0xd7, 0xe3, 0x56,
  0xed, 0x55, 0x01, 0xf4, 0xec, 0x08, 0xd9, 0x14, 0x06, 0xee, 0x04, 0x09,
  0x0f, 0xfe, 0x04, 0xe0, 0x16, 0x1e, 0x30, 0xcd, 0x1f, 0x09, 0x05, 0x11,
  0xf2, 0x14, 0x31, 0xd2, 0xdb, 0x33, 0x23, 0xdf, 0x03, 0xf9, 0xec, 0x45,
  0x19, 0xfe, 0xf1, 0x2c, 0xf7, 0xe4, 0xd3, 0xb0, 0xe8, 0xf2, 0x2d, 0x0c,
  0x21, 0x06, 0x2a, 0xce, 0xf5, 0x15, 0xfc, 0x45, 0x03, 0x19, 0x11, 0xc8,
  0x07, 0x20, 0x01, 0xe3, 0x18, 0x14, 0xf9, 0x31, 0xfb, 0xfa, 0x00, 0x5a,
  0x2c, 0xdb, 0xc5, 0xc8, 0xfc, 0x16, 0x0b, 0xbf, 0xf7, 0xee, 0x14, 0xf0,
  0xf7, 0x11, 0x00, 0x4a, 0x2a, 0x1b, 0xe8, 0xd9, 0x1f, 0x2e, 0x0d, 0xe5,
  0x01, 0x06, 0x2d, 0x64, 0x29, 0x07, 0x0e, 0x0f, 0xe2, 0x00, 0x30, 0xf1,
  0xe9, 0x17, 0xf2, 0x0b, 0x08, 0xd0, 0xf2, 0x0b, 0x15, 0x29, 0xfe, 0x10,
  0x0f, 0x0e, 0x2e, 0xd7, 0xe8, 0xf8, 0x24, 0xd8, 0x32, 0xfb, 0xe2, 0x16,
  0x0e, 0x18, 0xfb, 0xf5, 0x02, 0x1b, 0x16, 0xef, 0x01, 0xeb, 0x07, 0xe3,
  0x1d, 0xdf, 0xf7, 0xfc, 0xfc, 0x10, 0x25, 0x13, 0xf3, 0xf0, 0x32, 0xdf,
  0x03, 0xea, 0x16, 0x1d, 0x00, 0x17, 0x10, 0x26, 0x44, 0xf7, 0x08, 0x3b,
  0xc9, 0x16, 0x17, 0xcf, 0xe6, 0x0b, 0xfc, 0xf1, 0x0b, 0x00, 0x30, 0x00,
  0x26, 0xda, 0x08, 0x3c, 0xff, 0x10, 0xe8, 0xd8, 0xd7, 0x1c, 0xf9, 0xe5,
  0x1e, 0x1d, 0x20, 0x32, 0x24, 0x1b, 0xf3, 0x0b, 0xf7, 0x10, 0x3e, 0xf6,
  0x08, 0xea, 0x3f, 0xec, 0xcd, 0xf0, 0x1b, 0x05, 0x31, 0x0f, 0xf1, 0x26,
  0xe6, 0xdc, 0x26, 0xf1, 0xe2, 0xd6, 0x11, 0xeb, 0x2d, 0x0f, 0xf3, 0x13,
  0x07, 0x2f, 0xf9, 0xf8, 0x0a, 0xfc, 0x04, 0x1d, 0x13, 0xdc, 0x27, 0xfe,
  0xf4, 0xe1, 0x29, 0xec, 0x04, 0x0f, 0xf6, 0x28, 0xeb, 0xfb, 0x19, 0x25,
  0xf8, 0xe2, 0x2e, 0xf6, 0x07, 0x0a, 0xf5, 0x21, 0x1f, 0x57, 0xea, 0xf5,
  0xe1, 0xcc, 0x34, 0xf9, 0xe5, 0xf7, 0x3b, 0xfc, 0xe2, 0xeb, 0x35, 0xfc,
  0x33, 0x5f, 0xcd, 0x1d, 0xeb, 0x0b, 0x12, 0x22, 0xd8, 0xd1, 0x25, 0xee,
  0x48, 0x5a, 0xcd, 0x08, 0xe4, 0x2e, 0xf6, 0xe1, 0x23, 0xe1, 0x17, 0x10,
  0x32, 0xcf, 0xf6, 0x17, 0x35, 0xbf, 0xdd, 0x47, 0xf8, 0x26, 0x1c, 0xd2,
  0x4a, 0xbe, 0xea, 0x47, 0x31, 0xd7, 0xd6, 0x4e, 0xeb, 0x5e, 0x2b, 0xde,
  0x04, 0x4d, 0xf6, 0xf2, 0x1e, 0xe3, 0xdc, 0xf3, 0x09, 0xd2, 0x18, 0x25,
  0x0f, 0xdf, 0xec, 0x1a, 0xe4, 0x28, 0x00, 0xd5, 0x19, 0xf4, 0xd1, 0x46,
  0x3a, 0xc2, 0xff, 0x41, 0xf0, 0x40, 0xfe, 0xc7, 0x29, 0x54, 0x16, 0xf5,
  0xd1, 0xa3, 0xed, 0xe5, 0x19, 0xbc, 0xf6, 0x21, 0x36, 0xcb, 0x06, 0x0c,
  0xfa, 0x75, 0x22, 0x12, 0x24, 0xb4, 0xfd, 0x32, 0x36, 0xc7, 0x10, 0x2b,
  0x2b, 0x7f, 0x2f, 0x09, 0x55, 0x55, 0x55, 0x55, 0x55, 0x55, 0x55, 0x55,
  0x55, 0x00, 0x00, 0x00, 0x40, 0x0e, 0x40, 0x0e, 0x40, 0x0e, 0x40, 0x0e,
  0x68, 0xa5, 0x1e, 0x1f, 0xad, 0x34, 0x89, 0x4e, 0xaa, 0x21, 0x7f, 0x58,
  0x39, 0x46, 0xe4, 0xa0, 0xf1, 0xf3, 0x13, 0x47, 0xc1, 0x5f, 0xa2, 0x9e,
  0x08, 0x43, 0x9a, 0x5a, 0x43, 0xd7, 0x19, 0x1c, 0xfd, 0x61, 0x53, 0x65,
  0x4d, 0x21, 0x08, 0xdd, 0xec, 0x2f, 0xe8, 0xb0, 0x23, 0xa6, 0x9f, 0x07,
  0x32, 0x1e, 0x50, 0x97, 0x01, 0x01, 0x00, 0x00, 0x00, 0x00, 0x00, 0x00,
  0x00, 0x00, 0x00, 0x00, 0xc2, 0xfa, 0xff, 0xff, 0x04, 0x00, 0x00, 0x00,
  0xc8, 0x03, 0x00, 0x00, 0x6e, 0x4d, 0x43, 0x64, 0x8b, 0xac, 0x41, 0x6d,
  0x64, 0x03, 0x00, 0x00, 0x00, 0x00, 0x00, 0x00, 0x64, 0x03, 0x00, 0x30,
  0x08, 0x00, 0x00, 0x00, 0xc8, 0x03, 0x00, 0x00, 0xec, 0x14, 0x00, 0x00,
  0x00, 0x00, 0x00, 0x00, 0x80, 0x16, 0x00, 0x00, 0x00, 0x00, 0x00, 0x00,
  0x00, 0x00, 0x00, 0x00, 0x00, 0x00, 0x00, 0x00, 0x01, 0x00, 0x00, 0x00,
  0x01, 0x00, 0x00, 0x00, 0x08, 0x00, 0x00, 0x00, 0x48, 0x00, 0x00, 0x00,
  0x00, 0x00, 0x00, 0x00, 0x00, 0x00, 0x00, 0x00, 0x00, 0x00, 0x00, 0x00,
  0x02, 0x00, 0x05, 0x00, 0x00, 0x00, 0x00, 0x00, 0x04, 0x00, 0x01, 0x01,
  0x01, 0x00, 0x00, 0x00, 0x06, 0x00, 0x26, 0x00, 0x00, 0x00, 0x84, 0x00,
  0x00, 0x00, 0x00, 0x00, 0x00, 0x00, 0x00, 0x00, 0x40, 0x00, 0x00, 0x00,
  0x00, 0x00, 0x00, 0x00, 0x30, 0x00, 0x00, 0x00, 0x18, 0x00, 0x00, 0x00,
  0x18, 0x00, 0x00, 0x00, 0x08, 0x00, 0x00, 0x00, 0x08, 0x00, 0x00, 0x00,
  0x18, 0x00, 0x00, 0x00, 0x18, 0x00, 0x00, 0x00, 0x04, 0x00, 0x00, 0x00,
  0x03, 0x00, 0x00, 0x00, 0x03, 0x00, 0x00, 0x00, 0x01, 0x00, 0x00, 0x00,
  0x01, 0x00, 0x00, 0x00, 0x01, 0x00, 0x00, 0x00, 0x01, 0x00, 0x00, 0x00,
  0x01, 0x00, 0x00, 0x00, 0x01, 0x00, 0x00, 0x00, 0x01, 0x00, 0x00, 0x00,
  0x01, 0x00, 0x00, 0x00, 0x10, 0x01, 0x0f, 0x07, 0x00, 0x00, 0x00, 0x00,
  0x00, 0x00, 0x00, 0x00, 0x01, 0x00, 0x00, 0x00, 0x01, 0x00, 0x00, 0x00,
  0x80, 0xff, 0xff, 0xff, 0x30, 0x80, 0x00, 0x00, 0x00, 0x00, 0x00, 0x00,
  0x00, 0x00, 0x00, 0x00, 0x00, 0x00, 0x00, 0x00, 0x00, 0x00, 0x00, 0x00,
  0x02, 0x00, 0x02, 0x00, 0x00, 0x00, 0x00, 0x00, 0x04, 0x04, 0x00, 0x00,
  0x06, 0x00, 0x3e, 0x00, 0x00, 0x00, 0x4c, 0x00, 0x00, 0x12, 0x00, 0x00,
  0x00, 0x00, 0x00, 0x00, 0x0c, 0x00, 0x00, 0x00, 0x0c, 0x00, 0x00, 0x00,
  0x08, 0x00, 0x00, 0x00, 0x08, 0x00, 0x00, 0x00, 0x18, 0x00, 0x00, 0x00,
  0x18, 0x00, 0x00, 0x00, 0x08, 0x00, 0x00, 0x00, 0x02, 0x00, 0x00, 0x00,
  0x02, 0x00, 0x00, 0x00, 0x02, 0x00, 0x00, 0x00, 0x02, 0x00, 0x00, 0x00,
  0x00, 0x00, 0x00, 0x00, 0x00, 0x00, 0x00, 0x00, 0x00, 0x00, 0x00, 0x00,
  0x00, 0x00, 0x00, 0x00, 0x10, 0x01, 0x09, 0x40, 0x00, 0x00, 0x00, 0x00,
  0x02, 0x00, 0x05, 0x00, 0x00, 0x00, 0x00, 0x00, 0x04, 0x04, 0x01, 0x01,
  0x01, 0x00, 0x00, 0x00, 0x06, 0x00, 0x26, 0x00, 0x00, 0x00, 0x84, 0x00,
  0x00, 0x00, 0x00, 0x00, 0x00, 0x12, 0x00, 0x00, 0xe0, 0x01, 0x00, 0x00,
  0x60, 0x01, 0x00, 0x00, 0xc0, 0x01, 0x00, 0x00, 0x0c, 0x00, 0x00, 0x00,
  0x0c, 0x00, 0x00, 0x00, 0x10, 0x00, 0x00, 0x00, 0x10, 0x00, 0x00, 0x00,
  0x0c, 0x00, 0x00, 0x00, 0x0c, 0x00, 0x00, 0x00, 0x08, 0x00, 0x00, 0x00,
  0x03, 0x00, 0x00, 0x00, 0x03, 0x00, 0x00, 0x00, 0x01, 0x00, 0x00, 0x00,
  0x01, 0x00, 0x00, 0x00, 0x01, 0x00, 0x00, 0x00, 0x01, 0x00, 0x00, 0x00,
  0x01, 0x00, 0x00, 0x00, 0x01, 0x00, 0x00, 0x00, 0x01, 0x00, 0x00, 0x00,
  0x01, 0x00, 0x00, 0x00, 0x10, 0x01, 0x0f, 0x07, 0x00, 0x00, 0x00, 0x00,
  0x00, 0x00, 0x00, 0x00, 0x01, 0x00, 0x00, 0x00, 0x01, 0x00, 0x00, 0x00,
  0x80, 0xff, 0xff, 0xff, 0x30, 0x80, 0x00, 0x00, 0x00, 0x00, 0x00, 0x00,
  0x00, 0x00, 0x00, 0x00, 0x00, 0x00, 0x00, 0x00, 0x00, 0x00, 0x00, 0x00,
  0x02, 0x00, 0x02, 0x00, 0x00, 0x00, 0x00, 0x00, 0x04, 0x04, 0x00, 0x00,
  0x06, 0x00, 0x3e, 0x00, 0x00, 0x00, 0x4c, 0x00, 0x00, 0x09, 0x00, 0x00,
  0x00, 0x00, 0x00, 0x00, 0x06, 0x00, 0x00, 0x00, 0x06, 0x00, 0x00, 0x00,
  0x10, 0x00, 0x00, 0x00, 0x10, 0x00, 0x00, 0x00, 0x0c, 0x00, 0x00, 0x00,
  0x0c, 0x00, 0x00, 0x00, 0x10, 0x00, 0x00, 0x00, 0x02, 0x00, 0x00, 0x00,
  0x02, 0x00, 0x00, 0x00, 0x02, 0x00, 0x00, 0x00, 0x02, 0x00, 0x00, 0x00,
  0x00, 0x00, 0x00, 0x00, 0x00, 0x00, 0x00, 0x00, 0x00, 0x00, 0x00, 0x00,
  0x00, 0x00, 0x00, 0x00, 0x10, 0x01, 0x09, 0x40, 0x00, 0x00, 0x00, 0x00,
  0x02, 0x00, 0x05, 0x00, 0x00, 0x00, 0x00, 0x00, 0x04, 0x04, 0x01, 0x01,
  0x01, 0x00, 0x00, 0x00, 0x06, 0x00, 0x26, 0x00, 0x00, 0x00, 0x84, 0x00,
  0x00, 0x00, 0x00, 0x00, 0x00, 0x09, 0x00, 0x00, 0x20, 0x07, 0x00, 0x00,
  0x60, 0x06, 0x00, 0x00, 0xf0, 0x06, 0x00, 0x00, 0x06, 0x00, 0x00, 0x00,
  0x06, 0x00, 0x00, 0x00, 0x18, 0x00, 0x00, 0x00, 0x18, 0x00, 0x00, 0x00,
  0x06, 0x00, 0x00, 0x00, 0x06, 0x00, 0x00, 0x00, 0x10, 0x00, 0x00, 0x00,
  0x03, 0x00, 0x00, 0x00, 0x03, 0x00, 0x00, 0x00, 0x01, 0x00, 0x00, 0x00,
  0x01, 0x00, 0x00, 0x00, 0x01, 0x00, 0x00, 0x00, 0x01, 0x00, 0x00, 0x00,
  0x01, 0x00, 0x00, 0x00, 0x01, 0x00, 0x00, 0x00, 0x01, 0x00, 0x00, 0x00,
  0x01, 0x00, 0x00, 0x00, 0x10, 0x01, 0x0f, 0x07, 0x00, 0x00, 0x00, 0x00,
  0x00, 0x00, 0x00, 0x00, 0x01, 0x00, 0x00, 0x00, 0x01, 0x00, 0x00, 0x00,
  0x80, 0xff, 0xff, 0xff, 0x30, 0x80, 0x00, 0x00, 0x00, 0x00, 0x00, 0x00,
  0x00, 0x00, 0x00, 0x00, 0x00, 0x00, 0x00, 0x00, 0x00, 0x00, 0x00, 0x00,
  0x02, 0x00, 0x04, 0x00, 0x00, 0x00, 0x00, 0x00, 0x04, 0x04, 0x01, 0x01,
  0x06, 0x00, 0x30, 0x00, 0x00, 0x00, 0x24, 0x00, 0x60, 0x03, 0x00, 0x00,
  0x00, 0x00, 0x00, 0x00, 0xa0, 0x14, 0x00, 0x00, 0xac, 0x14, 0x00, 0x00,
  0x06, 0x00, 0x00, 0x00, 0x06, 0x00, 0x00, 0x00, 0x18, 0x00, 0x00, 0x00,
  0x10, 0x03, 0x0f, 0x07, 0x30, 0x80, 0x8e, 0x3f, 0x02, 0x00, 0x05, 0x00,
  0x00, 0x00, 0x00, 0x00, 0x04, 0x04, 0x01, 0x01, 0x0b, 0x00, 0x00, 0x00,
  0x06, 0x00, 0x2d, 0x00, 0x00, 0x00, 0x3c, 0x00, 0x00, 0x00, 0x00, 0x00,
  0x60, 0x03, 0x00, 0x00, 0xb4, 0x14, 0x00, 0x00, 0xe4, 0x14, 0x00, 0x00,
  0x00, 0x00, 0x00, 0x00, 0x01, 0x00, 0x00, 0x00, 0x02, 0x00, 0x00, 0x00,
  0x02, 0x00, 0x00, 0x00, 0x18, 0x00, 0x00, 0x00, 0x00, 0x00, 0x00, 0x00,
  0x00, 0x00, 0x00, 0x00, 0x10, 0x01, 0x0f, 0x07, 0x30, 0xe9, 0x17, 0x46,
  0x00, 0x00, 0x00, 0x00, 0x00, 0x00, 0x00, 0x00, 0x02, 0x00, 0x03, 0x00,
  0x00, 0x00, 0x00, 0x00, 0x02, 0x04, 0x01, 0x00, 0x06, 0x00, 0x4b, 0x00,
  0x00, 0x00, 0x28, 0x00, 0x00, 0x00, 0x00, 0x00, 0x00, 0x00, 0x00, 0x00,
  0xe8, 0x14, 0x00, 0x00, 0x01, 0x00, 0x00, 0x00, 0x01, 0x00, 0x00, 0x00,
  0x02, 0x00, 0x00, 0x00, 0x04, 0x00, 0x00, 0x00, 0x80, 0xff, 0xff, 0xff,
  0x10, 0x01, 0x09, 0x40, 0x00, 0x00, 0x00, 0x00, 0x01, 0x00, 0x00, 0x00,
  0x00, 0x00, 0x00, 0x00, 0x00, 0x00, 0x00, 0x00, 0x00, 0x00, 0x00, 0x00,
  0x00, 0x00, 0x00, 0x00, 0x00, 0x09, 0x00, 0x00, 0x04, 0x00, 0x00, 0x00,
  0x00, 0x00, 0x00, 0x00, 0x00, 0x00, 0x00, 0x00, 0x00, 0x00, 0x00, 0x00,
  0xa2, 0xfe, 0xff, 0xff, 0x04, 0x00, 0x00, 0x00, 0x08, 0x00, 0x00, 0x00,
  0x01, 0x00, 0x00, 0x00, 0x02, 0x00, 0x00, 0x00, 0x00, 0x00, 0x00, 0x00,
  0x00, 0x00, 0x00, 0x00, 0x00, 0x00, 0x00, 0x00, 0xc2, 0xfe, 0xff, 0xff,
  0x04, 0x00, 0x00, 0x00, 0x08, 0x00, 0x00, 0x00, 0x00, 0x00, 0x00, 0x00,
  0x00, 0x00, 0x00, 0x00, 0x00, 0x00, 0x00, 0x00, 0x24, 0xff, 0xff, 0xff,
  0x5f, 0x00, 0x00, 0x00, 0x4d, 0x4c, 0x49, 0x52, 0x20, 0x43, 0x6f, 0x6e,
  0x76, 0x65, 0x72, 0x74, 0x65, 0x64, 0x2e, 0x0a, 0x43, 0x6f, 0x6e, 0x76,
  0x65, 0x72, 0x74, 0x65, 0x64, 0x20, 0x77, 0x69, 0x74, 0x68, 0x20, 0x65,
  0x49, 0x51, 0x20, 0x6e, 0x65, 0x75, 0x74, 0x72, 0x6f, 0x6e, 0x2d, 0x63,
  0x6f, 0x6e, 0x76, 0x65, 0x72, 0x74, 0x65, 0x72, 0x0a, 0x56, 0x65, 0x72,
  0x73, 0x69, 0x6f, 0x6e, 0x3a, 0x20, 0x33, 0x2e, 0x30, 0x2e, 0x30, 0x2b,
  0x30, 0x58, 0x36, 0x64, 0x34, 0x31, 0x61, 0x63, 0x38, 0x62, 0x0a, 0x54,
  0x61, 0x72, 0x67, 0x65, 0x74, 0x3a, 0x20, 0x6d, 0x63, 0x78, 0x6e, 0x39,
  0x34, 0x78, 0x0a, 0x00, 0x01, 0x00, 0x00, 0x00, 0x14, 0x00, 0x00, 0x00,
  0x00, 0x00, 0x0e, 0x00, 0x18, 0x00, 0x04, 0x00, 0x08, 0x00, 0x0c, 0x00,
  0x10, 0x00, 0x14, 0x00, 0x0e, 0x00, 0x00, 0x00, 0x40, 0x01, 0x00, 0x00,
  0x34, 0x01, 0x00, 0x00, 0x28, 0x01, 0x00, 0x00, 0x14, 0x00, 0x00, 0x00,
  0x04, 0x00, 0x00, 0x00, 0x04, 0x00, 0x00, 0x00, 0x6d, 0x61, 0x69, 0x6e,
  0x00, 0x00, 0x00, 0x00, 0x03, 0x00, 0x00, 0x00, 0xac, 0x00, 0x00, 0x00,
  0x60, 0x00, 0x00, 0x00, 0x14, 0x00, 0x00, 0x00, 0x00, 0x00, 0x0e, 0x00,
  0x18, 0x00, 0x08, 0x00, 0x0c, 0x00, 0x10, 0x00, 0x07, 0x00, 0x14, 0x00,
  0x0e, 0x00, 0x00, 0x00, 0x00, 0x00, 0x00, 0x30, 0x02, 0x00, 0x00, 0x00,
  0x1c, 0x00, 0x00, 0x00, 0x10, 0x00, 0x00, 0x00, 0x08, 0x00, 0x00, 0x00,
  0x04, 0x00, 0x04, 0x00, 0x04, 0x00, 0x00, 0x00, 0x01, 0x00, 0x00, 0x00,
  0x03, 0x00, 0x00, 0x00, 0x03, 0x00, 0x00, 0x00, 0x02, 0x00, 0x00, 0x00,
  0x04, 0x00, 0x00, 0x00, 0x05, 0x00, 0x00, 0x00, 0x00, 0x00, 0x0e, 0x00,
  0x1a, 0x00, 0x08, 0x00, 0x0c, 0x00, 0x10, 0x00, 0x07, 0x00, 0x14, 0x00,
  0x0e, 0x00, 0x00, 0x00, 0x00, 0x00, 0x00, 0x09, 0x01, 0x00, 0x00, 0x00,
  0x24, 0x00, 0x00, 0x00, 0x18, 0x00, 0x00, 0x00, 0x0c, 0x00, 0x00, 0x00,
  0x00, 0x00, 0x06, 0x00, 0x08, 0x00, 0x04, 0x00, 0x06, 0x00, 0x00, 0x00,
  0x00, 0x00, 0x80, 0x3f, 0x01, 0x00, 0x00, 0x00, 0x02, 0x00, 0x00, 0x00,
  0x01, 0x00, 0x00, 0x00, 0x01, 0x00, 0x00, 0x00, 0x10, 0x00, 0x10, 0x00,
  0x00, 0x00, 0x04, 0x00, 0x08, 0x00, 0x00, 0x00, 0x00, 0x00, 0x0c, 0x00,
  0x10, 0x00, 0x00, 0x00, 0x48, 0x00, 0x00, 0x00, 0x30, 0x00, 0x00, 0x00,
  0x04, 0x00, 0x00, 0x00, 0x21, 0x00, 0x00, 0x00, 0x73, 0x75, 0x62, 0x67,
  0x72, 0x61, 0x70, 0x68, 0x00, 0x0c, 0x73, 0x75, 0x62, 0x67, 0x72, 0x61,
  0x70, 0x68, 0x5f, 0x30, 0x31, 0x30, 0x00, 0x01, 0x18, 0x01, 0x01, 0x01,
  0x12, 0x14, 0x02, 0x24, 0x01, 0x00, 0x00, 0x00, 0x04, 0x00, 0x00, 0x00,
  0x01, 0x00, 0x00, 0x00, 0x09, 0x00, 0x00, 0x00, 0x0a, 0x00, 0x00, 0x00,
  0x0b, 0x00, 0x00, 0x00, 0x04, 0x00, 0x00, 0x00, 0x00, 0x00, 0x00, 0x00,
  0x06, 0x00, 0x00, 0x00, 0x07, 0x00, 0x00, 0x00, 0x08, 0x00, 0x00, 0x00,
  0x01, 0x00, 0x00, 0x00, 0x03, 0x00, 0x00, 0x00, 0x01, 0x00, 0x00, 0x00,
  0x00, 0x00, 0x00, 0x00, 0x0c, 0x00, 0x00, 0x00, 0x6c, 0x03, 0x00, 0x00,
  0xc4, 0x02, 0x00, 0x00, 0x48, 0x02, 0x00, 0x00, 0xe4, 0x01, 0x00, 0x00,
  0x98, 0x01, 0x00, 0x00, 0x40, 0x01, 0x00, 0x00, 0x08, 0x01, 0x00, 0x00,
  0xd4, 0x00, 0x00, 0x00, 0xa0, 0x00, 0x00, 0x00, 0x70, 0x00, 0x00, 0x00,
  0x34, 0x00, 0x00, 0x00, 0x04, 0x00, 0x00, 0x00, 0xa8, 0xff, 0xff, 0xff,
  0x00, 0x00, 0x00, 0x03, 0x1c, 0x00, 0x00, 0x00, 0x04, 0x00, 0x00, 0x00,
  0x0c, 0x00, 0x00, 0x00, 0x4e, 0x65, 0x75, 0x74, 0x72, 0x6f, 0x6e, 0x44,
  0x65, 0x62, 0x75, 0x67, 0x00, 0x00, 0x00, 0x00, 0x01, 0x00, 0x00, 0x00,
  0x00, 0x00, 0x00, 0x00, 0xd4, 0xff, 0xff, 0xff, 0x00, 0x00, 0x00, 0x03,
  0x1c, 0x00, 0x00, 0x00, 0x04, 0x00, 0x00, 0x00, 0x0e, 0x00, 0x00, 0x00,
  0x4e, 0x65, 0x75, 0x74, 0x72, 0x6f, 0x6e, 0x50, 0x72, 0x6f, 0x66, 0x69,
  0x6c, 0x65, 0x00, 0x00, 0x01, 0x00, 0x00, 0x00, 0x00, 0x00, 0x00, 0x00,
  0x0c, 0x00, 0x10, 0x00, 0x08, 0x00, 0x07, 0x00, 0x00, 0x00, 0x0c, 0x00,
  0x0c, 0x00, 0x00, 0x00, 0x00, 0x00, 0x00, 0x03, 0x1c, 0x00, 0x00, 0x00,
  0x04, 0x00, 0x00, 0x00, 0x0e, 0x00, 0x00, 0x00, 0x4e, 0x65, 0x75, 0x74,
  0x72, 0x6f, 0x6e, 0x53, 0x63, 0x72, 0x61, 0x74, 0x63, 0x68, 0x00, 0x00,
  0x01, 0x00, 0x00, 0x00, 0x80, 0x16, 0x00, 0x00, 0x24, 0xff, 0xff, 0xff,
  0x00, 0x00, 0x00, 0x03, 0x20, 0x00, 0x00, 0x00, 0x05, 0x00, 0x00, 0x00,
  0x04, 0x00, 0x00, 0x00, 0x0e, 0x00, 0x00, 0x00, 0x4e, 0x65, 0x75, 0x74,
  0x72, 0x6f, 0x6e, 0x4b, 0x65, 0x72, 0x6e, 0x65, 0x6c, 0x73, 0x00, 0x00,
  0x01, 0x00, 0x00, 0x00, 0x01, 0x00, 0x00, 0x00, 0x54, 0xff, 0xff, 0xff,
  0x00, 0x00, 0x00, 0x03, 0x20, 0x00, 0x00, 0x00, 0x04, 0x00, 0x00, 0x00,
  0x04, 0x00, 0x00, 0x00, 0x0e, 0x00, 0x00, 0x00, 0x4e, 0x65, 0x75, 0x74,
  0x72, 0x6f, 0x6e, 0x57, 0x65, 0x69, 0x67, 0x68, 0x74, 0x73, 0x00, 0x00,
  0x01, 0x00, 0x00, 0x00, 0xec, 0x14, 0x00, 0x00, 0x84, 0xff, 0xff, 0xff,
  0x00, 0x00, 0x00, 0x03, 0x24, 0x00, 0x00, 0x00, 0x03, 0x00, 0x00, 0x00,
  0x04, 0x00, 0x00, 0x00, 0x10, 0x00, 0x00, 0x00, 0x4e, 0x65, 0x75, 0x74,
  0x72, 0x6f, 0x6e, 0x4d, 0x69, 0x63, 0x72, 0x6f, 0x63, 0x6f, 0x64, 0x65,
  0x00, 0x00, 0x00, 0x00, 0x01, 0x00, 0x00, 0x00, 0xc8, 0x03, 0x00, 0x00,
  0xb8, 0xff, 0xff, 0xff, 0x00, 0x00, 0x00, 0x02, 0x38, 0x00, 0x00, 0x00,
  0x02, 0x00, 0x00, 0x00, 0x04, 0x00, 0x00, 0x00, 0x24, 0x00, 0x00, 0x00,
  0x53, 0x74, 0x61, 0x74, 0x65, 0x66, 0x75, 0x6c, 0x50, 0x61, 0x72, 0x74,
  0x69, 0x74, 0x69, 0x6f, 0x6e, 0x65, 0x64, 0x43, 0x61, 0x6c, 0x6c, 0x5f,
  0x31, 0x3a, 0x30, 0x2f, 0x70, 0x61, 0x64, 0x2f, 0x73, 0x69, 0x7a, 0x65,
  0x00, 0x00, 0x00, 0x00, 0x01, 0x00, 0x00, 0x00, 0x02, 0x00, 0x00, 0x00,
  0x0c, 0x00, 0x14, 0x00, 0x08, 0x00, 0x07, 0x00, 0x0c, 0x00, 0x10, 0x00,
  0x0c, 0x00, 0x00, 0x00, 0x00, 0x00, 0x00, 0x02, 0x38, 0x00, 0x00, 0x00,
  0x01, 0x00, 0x00, 0x00, 0x04, 0x00, 0x00, 0x00, 0x25, 0x00, 0x00, 0x00,
  0x53, 0x74, 0x61, 0x74, 0x65, 0x66, 0x75, 0x6c, 0x50, 0x61, 0x72, 0x74,
  0x69, 0x74, 0x69, 0x6f, 0x6e, 0x65, 0x64, 0x43, 0x61, 0x6c, 0x6c, 0x5f,
  0x31, 0x3a, 0x30, 0x2f, 0x70, 0x61, 0x64, 0x2f, 0x62, 0x65, 0x67, 0x69,
  0x6e, 0x00, 0x00, 0x00, 0x01, 0x00, 0x00, 0x00, 0x02, 0x00, 0x00, 0x00,
  0x36, 0xff, 0xff, 0xff, 0x00, 0x00, 0x00, 0x09, 0x4c, 0x00, 0x00, 0x00,
  0x28, 0x00, 0x00, 0x00, 0x04, 0x00, 0x00, 0x00, 0x6c, 0xfe, 0xff, 0xff,
  0x14, 0x00, 0x00, 0x00, 0x04, 0x00, 0x00, 0x00, 0x01, 0x00, 0x00, 0x00,
  0x80, 0xff, 0xff, 0xff, 0xff, 0xff, 0xff, 0xff, 0x01, 0x00, 0x00, 0x00,
  0x00, 0x00, 0x80, 0x3b, 0x1b, 0x00, 0x00, 0x00, 0x53, 0x74, 0x61, 0x74,
  0x65, 0x66, 0x75, 0x6c, 0x50, 0x61, 0x72, 0x74, 0x69, 0x74, 0x69, 0x6f,
  0x6e, 0x65, 0x64, 0x43, 0x61, 0x6c, 0x6c, 0x5f, 0x31, 0x3a, 0x30, 0x00,
  0x02, 0x00, 0x00, 0x00, 0x01, 0x00, 0x00, 0x00, 0x02, 0x00, 0x00, 0x00,
  0x96, 0xff, 0xff, 0xff, 0x00, 0x00, 0x00, 0x09, 0x54, 0x00, 0x00, 0x00,
  0x2c, 0x00, 0x00, 0x00, 0x04, 0x00, 0x00, 0x00, 0xcc, 0xfe, 0xff, 0xff,
  0x18, 0x00, 0x00, 0x00, 0x04, 0x00, 0x00, 0x00, 0x01, 0x00, 0x00, 0x00,
  0x80, 0xff, 0xff, 0xff, 0xff, 0xff, 0xff, 0xff, 0x00, 0x00, 0x00, 0x00,
  0x01, 0x00, 0x00, 0x00, 0x00, 0x00, 0x80, 0x3b, 0x1f, 0x00, 0x00, 0x00,
  0x53, 0x74, 0x61, 0x74, 0x65, 0x66, 0x75, 0x6c, 0x50, 0x61, 0x72, 0x74,
  0x69, 0x74, 0x69, 0x6f, 0x6e, 0x65, 0x64, 0x43, 0x61, 0x6c, 0x6c, 0x5f,
  0x31, 0x3a, 0x30, 0x2f, 0x70, 0x61, 0x64, 0x00, 0x02, 0x00, 0x00, 0x00,
  0x01, 0x00, 0x00, 0x00, 0x04, 0x00, 0x00, 0x00, 0x00, 0x00, 0x0e, 0x00,
  0x14, 0x00, 0x08, 0x00, 0x07, 0x00, 0x00, 0x00, 0x0c, 0x00, 0x10, 0x00,
  0x0e, 0x00, 0x00, 0x00, 0x00, 0x00, 0x00, 0x09, 0x78, 0x00, 0x00, 0x00,
  0x28, 0x00, 0x00, 0x00, 0x04, 0x00, 0x00, 0x00, 0x44, 0xff, 0xff, 0xff,
  0x14, 0x00, 0x00, 0x00, 0x04, 0x00, 0x00, 0x00, 0x01, 0x00, 0x00, 0x00,
  0xe9, 0xff, 0xff, 0xff, 0xff, 0xff, 0xff, 0xff, 0x01, 0x00, 0x00, 0x00,
  0x42, 0x50, 0x9d, 0x3e, 0x44, 0x00, 0x00, 0x00, 0x74, 0x65, 0x72, 0x72,
  0x61, 0x5f, 0x67, 0x75, 0x61, 0x72, 0x64, 0x5f, 0x63, 0x72, 0x6f, 0x77,
  0x5f, 0x31, 0x2f, 0x63, 0x6c, 0x73, 0x5f, 0x31, 0x2f, 0x4d, 0x61, 0x74,
  0x4d, 0x75, 0x6c, 0x3b, 0x74, 0x65, 0x72, 0x72, 0x61, 0x5f, 0x67, 0x75,
  0x61, 0x72, 0x64, 0x5f, 0x63, 0x72, 0x6f, 0x77, 0x5f, 0x31, 0x2f, 0x63,
  0x6c, 0x73, 0x5f, 0x31, 0x2f, 0x42, 0x69, 0x61, 0x73, 0x41, 0x64, 0x64,
  0x2f, 0x70, 0x61, 0x64, 0x00, 0x00, 0x00, 0x00, 0x02, 0x00, 0x00, 0x00,
  0x01, 0x00, 0x00, 0x00, 0x04, 0x00, 0x00, 0x00, 0x00, 0x00, 0x16, 0x00,
  0x18, 0x00, 0x08, 0x00, 0x06, 0x00, 0x00, 0x00, 0x0c, 0x00, 0x10, 0x00,
  0x00, 0x00, 0x00, 0x00, 0x14, 0x00, 0x07, 0x00, 0x16, 0x00, 0x00, 0x00,
  0x00, 0x00, 0x09, 0x01, 0x70, 0x00, 0x00, 0x00, 0x4c, 0x00, 0x00, 0x00,
  0x28, 0x00, 0x00, 0x00, 0x04, 0x00, 0x00, 0x00, 0x04, 0x00, 0x00, 0x00,
  0x01, 0x00, 0x00, 0x00, 0x18, 0x00, 0x00, 0x00, 0x18, 0x00, 0x00, 0x00,
  0x04, 0x00, 0x00, 0x00, 0x0c, 0x00, 0x0c, 0x00, 0x00, 0x00, 0x00, 0x00,
  0x04, 0x00, 0x08, 0x00, 0x0c, 0x00, 0x00, 0x00, 0x14, 0x00, 0x00, 0x00,
  0x04, 0x00, 0x00, 0x00, 0x01, 0x00, 0x00, 0x00, 0x80, 0xff, 0xff, 0xff,
  0xff, 0xff, 0xff, 0xff, 0x01, 0x00, 0x00, 0x00, 0x81, 0x80, 0x80, 0x3b,
  0x1a, 0x00, 0x00, 0x00, 0x73, 0x65, 0x72, 0x76, 0x69, 0x6e, 0x67, 0x5f,
  0x64, 0x65, 0x66, 0x61, 0x75, 0x6c, 0x74, 0x5f, 0x74, 0x65, 0x72, 0x72,
  0x61, 0x5f, 0x69, 0x6e, 0x3a, 0x30, 0x00, 0x00, 0x04, 0x00, 0x00, 0x00,
  0x01, 0x00, 0x00, 0x00, 0x18, 0x00, 0x00, 0x00, 0x18, 0x00, 0x00, 0x00,
  0x04, 0x00, 0x00, 0x00, 0x03, 0x00, 0x00, 0x00, 0x4c, 0x00, 0x00, 0x00,
  0x2c, 0x00, 0x00, 0x00, 0x10, 0x00, 0x00, 0x00, 0x0c, 0x00, 0x0c, 0x00,
  0x07, 0x00, 0x00, 0x00, 0x00, 0x00, 0x08, 0x00, 0x0c, 0x00, 0x00, 0x00,
  0x00, 0x00, 0x00, 0x41, 0x41, 0x00, 0x00, 0x00, 0x0c, 0x00, 0x10, 0x00,
  0x07, 0x00, 0x00, 0x00, 0x08, 0x00, 0x0c, 0x00, 0x0c, 0x00, 0x00, 0x00,
  0x00, 0x00, 0x00, 0x19, 0x02, 0x00, 0x00, 0x00, 0x19, 0x00, 0x00, 0x00,
  0x0c, 0x00, 0x10, 0x00, 0x07, 0x00, 0x08, 0x00, 0x00, 0x00, 0x0c, 0x00,
  0x0c, 0x00, 0x00, 0x00, 0x00, 0x00, 0x00, 0x20, 0x08, 0x00, 0x00, 0x00,
  0x20, 0x00, 0x00, 0x00, 0x0c, 0x00, 0x00, 0x00, 0x4e, 0x65, 0x75, 0x74,
  0x72, 0x6f, 0x6e, 0x47, 0x72, 0x61, 0x70, 0x68, 0x00, 0x00, 0x00, 0x00
};

static const unsigned int model_data_len = 8208;
