/*
 * Copyright 2026 NXP
 *
 * SPDX-License-Identifier: BSD-3-Clause
 */

// 自作モデル（TerraGuard 3クラス: none/crow/human）を neutron-converter(mcxn94x)
// で NPU 変換し、tools/ml/make_model_data_h.py で SDK 枠に流し込んだもの。
// 元 op resolver スニペット（model_cifarnet_ops_npu.cpp を合わせること）:
/*
// Register operators for TFLite Micro.
static tflite::MicroMutableOpResolver<3> s_microOpResolver;
s_microOpResolver.AddSoftmax();
s_microOpResolver.AddSlice();
s_microOpResolver.AddCustom(tflite::GetString_NEUTRON_GRAPH(), tflite::Register_NEUTRON_GRAPH());
*/

#ifdef __arm__
#include <cmsis_compiler.h>
#else
#define __ALIGNED(x) __attribute__((aligned(x)))
#endif

#if defined(MCXN947_cm33_core0_SERIES)
#define __PLACEMENT __attribute__((section(".model")))
#else
#define __PLACEMENT
#endif

#define MODEL_NAME "terra_guard_crow"
// int8 入力をそのまま使う想定（前段で量子化済み）。MODEL_ConvertInput が
// (x - MEAN)/STD を行うため、恒等変換になるよう 0/1 にしておく。
#define MODEL_INPUT_MEAN 0.0f
#define MODEL_INPUT_STD 1.0f

constexpr int kTensorArenaSize = 65536;

static const uint8_t model_data[] __ALIGNED(16) __PLACEMENT = {
  0x20, 0x00, 0x00, 0x00, 0x54, 0x46, 0x4c, 0x33, 0x00, 0x00, 0x00, 0x00,
  0x00, 0x00, 0x12, 0x00, 0x1c, 0x00, 0x04, 0x00, 0x08, 0x00, 0x0c, 0x00,
  0x10, 0x00, 0x14, 0x00, 0x00, 0x00, 0x18, 0x00, 0x12, 0x00, 0x00, 0x00,
  0x03, 0x00, 0x00, 0x00, 0x74, 0x1f, 0x00, 0x00, 0x18, 0x1a, 0x00, 0x00,
  0xb0, 0x19, 0x00, 0x00, 0x50, 0x00, 0x00, 0x00, 0x04, 0x00, 0x00, 0x00,
  0x01, 0x00, 0x00, 0x00, 0x0c, 0x00, 0x00, 0x00, 0x08, 0x00, 0x0c, 0x00,
  0x04, 0x00, 0x08, 0x00, 0x08, 0x00, 0x00, 0x00, 0x08, 0x00, 0x00, 0x00,
  0x06, 0x00, 0x00, 0x00, 0x26, 0x00, 0x00, 0x00, 0x67, 0x72, 0x61, 0x70,
  0x68, 0x5f, 0x30, 0x5f, 0x6f, 0x70, 0x65, 0x72, 0x61, 0x74, 0x6f, 0x72,
  0x5f, 0x31, 0x5f, 0x4f, 0x72, 0x69, 0x67, 0x69, 0x6e, 0x61, 0x6c, 0x4e,
  0x75, 0x6d, 0x43, 0x68, 0x61, 0x6e, 0x6e, 0x65, 0x6c, 0x73, 0x00, 0x00,
  0x07, 0x00, 0x00, 0x00, 0x54, 0x19, 0x00, 0x00, 0x38, 0x19, 0x00, 0x00,
  0x14, 0x19, 0x00, 0x00, 0x30, 0x15, 0x00, 0x00, 0x2c, 0x00, 0x00, 0x00,
  0x18, 0x00, 0x00, 0x00, 0x04, 0x00, 0x00, 0x00, 0xa2, 0xe5, 0xff, 0xff,
  0x04, 0x00, 0x00, 0x00, 0x04, 0x00, 0x00, 0x00, 0x02, 0x00, 0x00, 0x00,
  0xb2, 0xe5, 0xff, 0xff, 0x04, 0x00, 0x00, 0x00, 0x01, 0x00, 0x00, 0x00,
  0x00, 0x00, 0x00, 0x00, 0xc2, 0xe5, 0xff, 0xff, 0x04, 0x00, 0x00, 0x00,
  0xec, 0x14, 0x00, 0x00, 0xd6, 0x92, 0x2b, 0x16, 0xb6, 0x9a, 0x97, 0x1a,
  0x08, 0x16, 0xf2, 0x1e, 0xe2, 0x1b, 0x59, 0x0b, 0x1f, 0x96, 0x4c, 0x1a,
  0x30, 0x97, 0x17, 0x1e, 0xf9, 0x92, 0xcd, 0x1f, 0xc6, 0x1e, 0x25, 0x96,
  0xd1, 0x06, 0xff, 0x16, 0xbd, 0x06, 0x03, 0x1b, 0x31, 0x93, 0x88, 0x1e,
  0xac, 0x1b, 0x52, 0x92, 0xeb, 0x52, 0x7c, 0x52, 0xca, 0x52, 0xcf, 0x4e,
  0x9d, 0x53, 0x09, 0x4e, 0xc3, 0x52, 0xb1, 0x52, 0x20, 0x2f, 0xf0, 0x0e,
  0x17, 0x64, 0x18, 0x1d, 0x2f, 0x7f, 0x15, 0x36, 0x16, 0x53, 0xf1, 0x03,
  0xfe, 0x9a, 0xe8, 0x08, 0x2d, 0x2e, 0xe9, 0xfa, 0x0a, 0x45, 0x0a, 0xf3,
  0xcc, 0x13, 0x2f, 0x06, 0xe2, 0xf9, 0x35, 0x1d, 0xf7, 0xe0, 0xc0, 0x05,
  0x37, 0xd9, 0xc4, 0x37, 0xe2, 0x3f, 0xf3, 0x1f, 0xce, 0xa5, 0x1f, 0x14,
  0xe1, 0x6b, 0xe0, 0x0a, 0xf9, 0x4c, 0xf6, 0xbf, 0xbf, 0xb4, 0xe2, 0x0b,
  0x25, 0x8e, 0xc9, 0xdd, 0x2f, 0x62, 0xd5, 0xe9, 0xd7, 0xe7, 0xa7, 0x26,
  0x16, 0x0c, 0x14, 0x05, 0xcb, 0xd6, 0x34, 0x1c, 0xed, 0x7f, 0xfe, 0xfd,
  0x0e, 0x5e, 0x21, 0x02, 0xde, 0xc9, 0x18, 0x29, 0xe7, 0xe7, 0x0d, 0x33,
  0x26, 0x05, 0xfe, 0x03, 0x31, 0xec, 0x16, 0xf2, 0x0c, 0x7f, 0xee, 0xf0,
  0x07, 0xd6, 0x2b, 0x22, 0x04, 0x60, 0xe7, 0xef, 0x31, 0x7f, 0x2f, 0x1b,
  0xe6, 0xdf, 0x3f, 0x12, 0x2e, 0xb5, 0xd7, 0x42, 0xb1, 0x03, 0xfd, 0x46,
  0xf8, 0xe9, 0xff, 0xc9, 0xfe, 0x53, 0x0e, 0x19, 0x24, 0xdc, 0x39, 0xab,
  0x1e, 0x71, 0x17, 0x33, 0xff, 0x33, 0xe0, 0xcc, 0x3f, 0x81, 0x38, 0x41,
  0x1a, 0xac, 0x3e, 0x1e, 0xf8, 0xb5, 0xfe, 0x52, 0x04, 0xc9, 0x05, 0xe0,
  0x0e, 0xfd, 0xdf, 0xf9, 0x2f, 0x15, 0x08, 0x1a, 0x20, 0x76, 0xeb, 0x1c,
  0xc9, 0x54, 0x06, 0x12, 0x0c, 0xc1, 0xbd, 0x6e, 0x13, 0x81, 0xe4, 0x46,
  0xe5, 0x9c, 0x18, 0x32, 0x16, 0x04, 0xe1, 0xf1, 0xfa, 0x78, 0xf7, 0x0f,
  0xfc, 0x81, 0x3c, 0x01, 0xe1, 0x47, 0x23, 0x21, 0xdf, 0x6c, 0xc0, 0x27,
  0xe6, 0xad, 0x11, 0x43, 0xd6, 0xd2, 0xe4, 0x07, 0x16, 0xa0, 0x14, 0x7f,
  0xff, 0xdd, 0x19, 0xbd, 0xe6, 0x2e, 0x13, 0x15, 0x2b, 0xec, 0x0b, 0xc2,
  0x26, 0x52, 0xe5, 0x13, 0x2d, 0x28, 0xff, 0xe4, 0x44, 0x0e, 0x32, 0xf5,
  0x3a, 0xc1, 0xea, 0x37, 0xe9, 0x17, 0x23, 0x2f, 0x0d, 0xa9, 0xc6, 0x0f,
  0xf3, 0x04, 0xea, 0x00, 0x2b, 0x29, 0x0b, 0x0a, 0xfd, 0x43, 0x05, 0x24,
  0x06, 0x6f, 0x37, 0xda, 0xed, 0xc1, 0xc1, 0xf2, 0x14, 0x9e, 0x0e, 0x0a,
  0x29, 0x1f, 0x03, 0x22, 0x8e, 0x1a, 0xb3, 0x17, 0x94, 0x0e, 0xb4, 0x1b,
  0xe1, 0x9a, 0x22, 0x16, 0xe5, 0x22, 0xf2, 0x22, 0x88, 0x0b, 0x7e, 0x1a,
  0x5e, 0x1e, 0xbc, 0x1f, 0x7f, 0x9a, 0x0d, 0x92, 0x49, 0x22, 0x41, 0x22,
  0x7c, 0x9a, 0x3e, 0x9a, 0x37, 0x1f, 0xe6, 0x1f, 0xd0, 0x9b, 0x22, 0x17,
  0x24, 0x9b, 0x33, 0x1f, 0x53, 0x1b, 0x9d, 0x1a, 0x13, 0x1a, 0x88, 0x9a,
  0xa8, 0x9e, 0x4f, 0x1a, 0x88, 0x9b, 0x0c, 0x22, 0x32, 0x1e, 0xa5, 0x1b,
  0xbe, 0x17, 0x5c, 0x9a, 0xa7, 0x9e, 0xec, 0x12, 0x98, 0x9a, 0x84, 0x1e,
  0x3c, 0x1e, 0x24, 0x12, 0xd8, 0x07, 0x68, 0x96, 0x16, 0x53, 0xba, 0x52,
  0x09, 0x53, 0x50, 0x53, 0x3c, 0x53, 0x94, 0x52, 0xc1, 0x52, 0x2d, 0x4e,
  0xc5, 0x53, 0x4b, 0x53, 0xcf, 0x53, 0xc4, 0x52, 0xae, 0x52, 0x36, 0x53,
  0xb1, 0x53, 0x00, 0x4e, 0xf6, 0x0d, 0x1c, 0x39, 0xdb, 0xd7, 0x1e, 0xf8,
  0x03, 0x2b, 0x40, 0x7f, 0xc8, 0x17, 0x0c, 0x44, 0x3f, 0x0f, 0xc0, 0xb0,
  0x3b, 0xc4, 0x10, 0x15, 0xce, 0x58, 0xc5, 0xf7, 0xf7, 0xfd, 0xf8, 0x42,
  0x3b, 0x1f, 0xe7, 0xc3, 0x45, 0xc7, 0xe7, 0xc3, 0x0b, 0x16, 0x3c, 0x47,
  0xbc, 0xf2, 0x32, 0x18, 0xe6, 0xec, 0xb1, 0xaf, 0xc3, 0x94, 0x3b, 0x4d,
  0x07, 0x17, 0xfe, 0x09, 0xe9, 0xf9, 0xec, 0x2d, 0xee, 0xeb, 0x23, 0xf4,
  0x3e, 0x62, 0x31, 0x29, 0x14, 0x31, 0xdb, 0x1c, 0x31, 0xe4, 0x01, 0x67,
  0xdb, 0x15, 0xcd, 0x20, 0x18, 0x1e, 0xc2, 0x2e, 0x59, 0x7f, 0xe1, 0x56,
  0x1e, 0xe4, 0x03, 0x64, 0x2b, 0xfa, 0xe8, 0x36, 0x42, 0xf4, 0xc3, 0x62,
  0xfa, 0x12, 0xff, 0x0b, 0xf9, 0x27, 0x13, 0x03, 0xd8, 0xd3, 0xbb, 0x1a,
  0x14, 0xf2, 0x30, 0xa9, 0x37, 0x24, 0xa8, 0x5e, 0x0c, 0x40, 0x5b, 0xe0,
  0x45, 0xe2, 0x9c, 0x46, 0x16, 0xe6, 0x81, 0xe3, 0x2b, 0x17, 0x02, 0x35,
  0xfb, 0x2f, 0x62, 0x2d, 0x02, 0x32, 0x16, 0xfe, 0x21, 0x4c, 0x4e, 0xf6,
  0x38, 0x2f, 0xae, 0x54, 0x19, 0x0d, 0x45, 0x0f, 0x1e, 0x14, 0xb1, 0x28,
  0x26, 0x34, 0xde, 0x0d, 0x19, 0xef, 0x1e, 0x1f, 0xce, 0x2b, 0x3e, 0x13,
  0x06, 0x4a, 0x0b, 0xe5, 0xd3, 0xe2, 0xe7, 0xfd, 0x42, 0x55, 0xd4, 0xea,
  0xe9, 0x41, 0x11, 0x14, 0xe9, 0x28, 0xee, 0xc6, 0xdd, 0xca, 0x07, 0x95,
  0x16, 0x16, 0x0c, 0x73, 0xc7, 0xeb, 0x1b, 0x2f, 0xfd, 0x3e, 0xca, 0x57,
  0xc8, 0x81, 0x49, 0x4d, 0xc6, 0x34, 0xfc, 0xf6, 0x03, 0x1c, 0x26, 0x0f,
  0xf7, 0xe5, 0xbf, 0xb9, 0x12, 0x19, 0x1b, 0xd3, 0xd2, 0xed, 0xf9, 0x0a,
  0x04, 0x2f, 0xf4, 0x4d, 0xe2, 0x1d, 0xe6, 0x17, 0xa4, 0x97, 0xee, 0xf7,
  0x08, 0x3d, 0xf5, 0x2b, 0xcb, 0x07, 0xf4, 0x3d, 0x00, 0xbf, 0xba, 0xd9,
  0x3a, 0x0e, 0x07, 0xff, 0xd6, 0x30, 0xeb, 0x68, 0x31, 0x26, 0xdb, 0x68,
  0x23, 0xf5, 0xdc, 0xf7, 0xdf, 0xc5, 0xdf, 0x0e, 0xdb, 0x13, 0xee, 0xfe,
  0x15, 0xf2, 0xe6, 0x7f, 0xf7, 0xde, 0xbf, 0x7f, 0x0b, 0xfb, 0xa2, 0x28,
  0x0d, 0x38, 0x5c, 0xbd, 0x11, 0x13, 0x67, 0xc3, 0xc2, 0x3e, 0xd7, 0x42,
  0xe9, 0x33, 0x0e, 0x96, 0x4b, 0xe5, 0xc9, 0x48, 0x05, 0x12, 0x44, 0xf3,
  0x48, 0xfd, 0xc1, 0x15, 0x14, 0x0d, 0xad, 0x09, 0xd7, 0xf6, 0x71, 0x04,
  0x20, 0x66, 0x64, 0xcb, 0x18, 0x0a, 0xc7, 0xc9, 0x00, 0x1c, 0x2f, 0xc1,
  0x47, 0xc7, 0xea, 0x26, 0x04, 0x38, 0x71, 0x03, 0xe1, 0xc2, 0xcf, 0x0d,
  0xe3, 0x00, 0xbe, 0x4f, 0xd2, 0x69, 0x3f, 0x16, 0xea, 0x47, 0x78, 0xf5,
  0xe5, 0x4f, 0xce, 0xde, 0x2d, 0x0a, 0xf5, 0x08, 0x20, 0x3c, 0x0f, 0x09,
  0xfe, 0x12, 0x3b, 0xf9, 0xe4, 0xe7, 0x15, 0xc6, 0x54, 0x58, 0xcc, 0x0b,
  0xe1, 0xc8, 0x30, 0x23, 0xf1, 0xf9, 0xf6, 0x11, 0x04, 0x38, 0x23, 0x7f,
  0xe9, 0xb0, 0x22, 0x5c, 0xf5, 0xcc, 0xc4, 0x1d, 0xf3, 0xf9, 0xe9, 0x46,
  0xd3, 0x43, 0xf1, 0xed, 0x4d, 0x1c, 0xf4, 0xec, 0xbf, 0x0c, 0x2a, 0x4b,
  0xbc, 0xe7, 0x0a, 0x17, 0x00, 0x09, 0x08, 0xec, 0xeb, 0x3e, 0xc9, 0x27,
  0x3a, 0xb2, 0xde, 0xd2, 0xd3, 0x0b, 0xd3, 0x2e, 0xf1, 0x12, 0xb5, 0x25,
  0xf0, 0xe1, 0xfd, 0xc3, 0x16, 0x17, 0xed, 0x39, 0xf6, 0x06, 0x1c, 0x6b,
  0x01, 0xe0, 0xe7, 0x08, 0x07, 0x32, 0x22, 0x1d, 0xe4, 0xe4, 0x0f, 0xcc,
  0x08, 0xe8, 0x07, 0x17, 0x3d, 0xd5, 0xcb, 0x25, 0x34, 0x91, 0xe0, 0x56,
  0x24, 0x48, 0xf9, 0x13, 0xfa, 0x51, 0x0f, 0xba, 0xe5, 0x39, 0x38, 0x3f,
  0x09, 0x62, 0x25, 0xba, 0x50, 0x01, 0x02, 0x73, 0xe7, 0x02, 0x0f, 0x00,
  0x31, 0xf5, 0xcd, 0x78, 0x24, 0xbd, 0xe6, 0x1e, 0xd5, 0x33, 0x19, 0xd7,
  0x0d, 0x53, 0x7f, 0xdd, 0x0a, 0xde, 0xe6, 0x36, 0x2d, 0x51, 0x5f, 0x10,
  0x12, 0xa3, 0xcb, 0x06, 0xe8, 0x03, 0x09, 0xeb, 0xde, 0x16, 0xb3, 0x44,
  0x3f, 0x21, 0xe3, 0x4a, 0xee, 0x33, 0xef, 0x29, 0x05, 0x37, 0x55, 0xc8,
  0x3a, 0xe1, 0xc0, 0x3b, 0xd9, 0x2c, 0x71, 0x09, 0xec, 0xd4, 0x0e, 0x2c,
  0xee, 0xf6, 0x0a, 0x09, 0xd8, 0xcd, 0xf1, 0xe4, 0x18, 0x1f, 0x2f, 0xec,
  0xa1, 0xb2, 0xd3, 0x2a, 0xdd, 0xb2, 0x37, 0x61, 0x3c, 0x49, 0xc7, 0xca,
  0xb4, 0x00, 0xe3, 0x30, 0xec, 0xe5, 0xe7, 0xc2, 0xc1, 0xc9, 0x03, 0x40,
  0xc7, 0xd4, 0xde, 0x0c, 0x10, 0xf2, 0x2f, 0x51, 0xe1, 0xef, 0x1c, 0xee,
  0xaa, 0xd9, 0xd2, 0x1a, 0xdd, 0xfd, 0x30, 0xeb, 0x13, 0xc0, 0x11, 0x0f,
  0xe8, 0x04, 0xbd, 0xf2, 0xe6, 0x36, 0xe7, 0x27, 0xff, 0xc2, 0x10, 0x01,
  0x2a, 0xef, 0xec, 0xdc, 0xe3, 0x2a, 0xc0, 0x38, 0x01, 0x2b, 0xdc, 0x1d,
  0x0d, 0x36, 0x4b, 0xdd, 0x29, 0xdd, 0x22, 0xe8, 0xe4, 0x47, 0x16, 0x3d,
  0x05, 0x54, 0xce, 0x10, 0x10, 0x34, 0x15, 0xb1, 0xf7, 0x23, 0xd0, 0xef,
  0x05, 0x25, 0x2d, 0xcd, 0xf7, 0x45, 0x38, 0xf0, 0xf1, 0x24, 0xd5, 0x2e,
  0xe9, 0x41, 0x33, 0xe1, 0x28, 0xd2, 0xfb, 0x37, 0xa0, 0xeb, 0x07, 0x81,
  0xfa, 0x1f, 0x2e, 0xfc, 0x00, 0x04, 0x33, 0xcc, 0x00, 0x22, 0x2f, 0xe8,
  0x12, 0x54, 0x71, 0xd9, 0xe9, 0xfa, 0x87, 0x7f, 0x0a, 0x2f, 0x2d, 0xcc,
  0x20, 0x14, 0xdd, 0xee, 0xf3, 0x35, 0x4d, 0xf6, 0x36, 0x16, 0x14, 0xc2,
  0xd1, 0x1d, 0xc2, 0x1e, 0xe0, 0x0d, 0x52, 0x03, 0x31, 0x00, 0x19, 0xcb,
  0x27, 0xfc, 0xc8, 0x26, 0xf8, 0x09, 0x51, 0xf8, 0xbe, 0x39, 0xec, 0x45,
  0xe4, 0x21, 0x72, 0xf3, 0xbf, 0xae, 0x15, 0x23, 0xdc, 0x55, 0xbe, 0x7f,
  0xe6, 0x9b, 0x0c, 0x14, 0x16, 0xc4, 0xe5, 0x16, 0x39, 0x55, 0x27, 0x28,
  0xb3, 0xdc, 0x06, 0x41, 0xfc, 0xd0, 0x03, 0x02, 0x97, 0xbd, 0xf3, 0x28,
  0xe7, 0xa4, 0xce, 0xde, 0xe0, 0x44, 0xf9, 0x1e, 0xdf, 0x08, 0xec, 0x2b,
  0xc5, 0x16, 0x51, 0x5c, 0x1e, 0x08, 0x44, 0x29, 0xff, 0xb3, 0xdf, 0x04,
  0x0f, 0xe1, 0xc2, 0xef, 0x19, 0x11, 0xe4, 0x1c, 0x03, 0xc4, 0xc0, 0xfc,
  0xfe, 0xef, 0xc6, 0xc6, 0xef, 0x02, 0xda, 0xea, 0xf0, 0x2a, 0x39, 0xf9,
  0x40, 0xde, 0x18, 0xf0, 0xf6, 0x0e, 0x20, 0xd9, 0xd6, 0x04, 0xfd, 0x7f,
  0xde, 0x1a, 0xc0, 0x2d, 0xfd, 0x40, 0x5b, 0x81, 0x29, 0x21, 0x31, 0x01,
  0xb0, 0xeb, 0x21, 0xd4, 0xd9, 0x5e, 0x7f, 0xcf, 0x14, 0x9e, 0xe6, 0x56,
  0x0c, 0x11, 0x2c, 0xca, 0x10, 0xed, 0xe6, 0x45, 0xb8, 0xe3, 0x0c, 0xa3,
  0x0b, 0xe0, 0x31, 0x9a, 0xdb, 0xdc, 0xce, 0xcb, 0xea, 0xf0, 0x01, 0xe4,
  0xed, 0x46, 0x75, 0xa1, 0x3f, 0xbf, 0xfd, 0x12, 0xe3, 0x15, 0x48, 0xc0,
  0x08, 0x13, 0xe1, 0x19, 0xda, 0xe9, 0xf8, 0x0d, 0xdf, 0x1f, 0x24, 0xca,
  0x19, 0x01, 0xe6, 0x0f, 0xe6, 0x50, 0x21, 0xf7, 0xe4, 0xf2, 0x30, 0x24,
  0x1e, 0xf6, 0xa6, 0x64, 0xf6, 0x2b, 0x5f, 0xc8, 0xdc, 0x41, 0x06, 0x07,
  0x15, 0x39, 0x40, 0x36, 0xce, 0xbc, 0xd0, 0x55, 0x2a, 0x3c, 0x6f, 0x79,
  0xa5, 0xf6, 0xef, 0x2e, 0x30, 0x09, 0xe4, 0x66, 0x2a, 0x01, 0x37, 0xa7,
  0x02, 0xb9, 0x01, 0x58, 0xcf, 0x0a, 0x17, 0xc1, 0xb2, 0x0f, 0x06, 0x15,
  0xe3, 0x08, 0x04, 0x06, 0x28, 0xfc, 0x0e, 0xf0, 0xba, 0xf3, 0xd8, 0x0d,
  0xb7, 0xb2, 0xfb, 0x1c, 0x01, 0xf9, 0x35, 0x8c, 0x0f, 0xd1, 0xe1, 0x21,
  0xd3, 0x42, 0xd8, 0x14, 0x33, 0xf5, 0xfe, 0xf4, 0xe7, 0x31, 0xf8, 0x27,
  0x34, 0xe0, 0xd4, 0xf0, 0x26, 0x7f, 0xb7, 0x19, 0x2f, 0xf1, 0xfa, 0x33,
  0xe6, 0x46, 0x38, 0xc1, 0x23, 0x16, 0xe8, 0x46, 0x28, 0x0f, 0x40, 0x5a,
  0x17, 0x2e, 0xe8, 0xf3, 0xeb, 0x27, 0x15, 0x8d, 0xe0, 0x25, 0x24, 0x01,
  0xb2, 0x1f, 0x3b, 0xdb, 0x35, 0x64, 0x29, 0xda, 0xf9, 0x90, 0xe7, 0x38,
  0x1e, 0x7b, 0x7f, 0x9d, 0xf0, 0xe2, 0x0a, 0x15, 0x95, 0x01, 0x06, 0x9a,
  0xea, 0x09, 0x5c, 0xe1, 0xdd, 0xa7, 0xf2, 0xcc, 0xca, 0x0e, 0xe2, 0x10,
  0xfa, 0x5a, 0x31, 0xc2, 0x26, 0xdc, 0xc3, 0x70, 0x30, 0x4e, 0x6a, 0x85,
  0x24, 0x26, 0x2b, 0x0d, 0xbb, 0x2f, 0x16, 0xfc, 0x16, 0x46, 0x30, 0xb4,
  0x1b, 0x02, 0xdd, 0x1c, 0xd3, 0x25, 0x01, 0x1f, 0xea, 0x66, 0x32, 0xde,
  0xff, 0x11, 0xb1, 0x6f, 0xe9, 0x02, 0x3d, 0xe7, 0xc6, 0x15, 0x03, 0x0c,
  0xda, 0x1b, 0x35, 0xfa, 0x28, 0xa6, 0xb0, 0x1b, 0xf0, 0x1f, 0x00, 0x1e,
  0x30, 0x1f, 0xde, 0x1f, 0x3e, 0x1f, 0xa9, 0x1b, 0x1d, 0xa7, 0x7c, 0x1f,
  0x0a, 0x22, 0xbc, 0x1f, 0xe0, 0x1e, 0x1c, 0x22, 0xf7, 0x1f, 0x65, 0x22,
  0xfb, 0xa3, 0x56, 0x1e, 0x5e, 0x1e, 0x80, 0x1e, 0x69, 0x17, 0x5a, 0x1e,
  0x31, 0x1e, 0xf9, 0x1e, 0xdf, 0x1e, 0x6f, 0x17, 0x65, 0x1f, 0x9d, 0x17,
  0x47, 0x1b, 0x1e, 0x1b, 0xb9, 0x1f, 0x9c, 0x1e, 0x73, 0x1f, 0x02, 0x22,
  0x54, 0x1f, 0x7d, 0x1e, 0x1c, 0x1f, 0x5a, 0x1e, 0x1f, 0x1e, 0xee, 0x1e,
  0x0f, 0x1e, 0x15, 0x1f, 0xe0, 0x1b, 0x71, 0x1b, 0x7b, 0x1e, 0x24, 0x1b,
  0xfa, 0x12, 0x19, 0x1b, 0x4d, 0x1f, 0x1a, 0x1f, 0x94, 0x1f, 0x2b, 0x1e,
  0x42, 0x17, 0xdc, 0x1a, 0x23, 0x1a, 0xfd, 0x1f, 0xd0, 0x1f, 0x08, 0x22,
  0x2e, 0x22, 0x71, 0x1e, 0xa3, 0x1e, 0x72, 0x1f, 0x2d, 0x1f, 0x56, 0x22,
  0x19, 0x1e, 0xa9, 0x1e, 0x6c, 0x1e, 0x08, 0x1e, 0x33, 0x1e, 0x43, 0x1e,
  0x42, 0x1e, 0xbf, 0x1e, 0x1f, 0x4e, 0xd3, 0x53, 0x0f, 0x4e, 0x88, 0x53,
  0x4d, 0x4e, 0xe6, 0x53, 0xac, 0x53, 0x4f, 0x53, 0xd2, 0x53, 0xd0, 0x53,
  0x2e, 0x4e, 0xf5, 0x53, 0xb0, 0x53, 0x03, 0x4e, 0xba, 0x53, 0x1e, 0x4e,
  0x13, 0x4e, 0x18, 0x4e, 0x0b, 0x4e, 0x2b, 0x4e, 0xeb, 0x53, 0x90, 0x53,
  0x15, 0x4e, 0xa5, 0x53, 0x2b, 0x2c, 0xda, 0xe5, 0x04, 0xf1, 0x15, 0x02,
  0xea, 0xe1, 0xee, 0x08, 0xe3, 0x21, 0x21, 0x07, 0x10, 0x22, 0x18, 0x0f,
  0xed, 0xe1, 0xec, 0x0e, 0xe6, 0xe5, 0xf5, 0x0a, 0xff, 0x1e, 0x22, 0xf8,
  0x20, 0x2a, 0xe7, 0xd9, 0xe8, 0xe5, 0x12, 0x28, 0xf9, 0xe6, 0x01, 0xf8,
  0xea, 0x08, 0xf6, 0x01, 0x0a, 0x13, 0x0a, 0xef, 0xed, 0xfc, 0x0f, 0x0b,
  0xfe, 0x18, 0xee, 0x1b, 0x17, 0xfc, 0x23, 0xf9, 0x23, 0x1e, 0xd6, 0xe7,
  0x14, 0x16, 0x16, 0x2d, 0xe4, 0x0d, 0xf1, 0x12, 0xf9, 0xf4, 0x26, 0x38,
  0x0a, 0x05, 0xe8, 0xf6, 0x11, 0xf9, 0x01, 0x0b, 0xea, 0x17, 0x01, 0x03,
  0xda, 0x07, 0x3c, 0x49, 0x06, 0xd7, 0x1e, 0xbd, 0x1f, 0x28, 0x0a, 0x3e,
  0xc4, 0x11, 0xe6, 0xf9, 0x1f, 0x15, 0x1d, 0x2c, 0xd5, 0x19, 0x27, 0xf5,
  0xc2, 0x20, 0xe6, 0xed, 0xc1, 0x06, 0x0c, 0x18, 0x60, 0xf1, 0x22, 0x12,
  0xfd, 0xb1, 0xfd, 0xbb, 0x2a, 0x0e, 0x0d, 0x0b, 0xbf, 0x16, 0x13, 0x0b,
  0x2a, 0xed, 0xfd, 0x14, 0xf6, 0xeb, 0x16, 0xda, 0xf3, 0x15, 0x10, 0x10,
  0xed, 0x26, 0xe8, 0xfd, 0x15, 0x1f, 0xdd, 0x32, 0xf1, 0x95, 0x1c, 0xa1,
  0x2f, 0x35, 0x07, 0x3e, 0xc8, 0xe5, 0xf7, 0xff, 0x39, 0x2e, 0xf8, 0x30,
  0xe1, 0xee, 0x1c, 0xf5, 0xb4, 0xf9, 0xe3, 0x01, 0xd5, 0xfb, 0xeb, 0x10,
  0x4b, 0x32, 0x0e, 0x61, 0xe9, 0xbd, 0xf4, 0xd1, 0xdc, 0x5f, 0xa5, 0x08,
  0x3f, 0xb6, 0x43, 0x28, 0xd9, 0x56, 0xb1, 0x00, 0x36, 0x8e, 0x20, 0x04,
  0x3d, 0xc2, 0x4e, 0x14, 0x1d, 0xd6, 0x3c, 0x19, 0xf3, 0x67, 0xc4, 0x31,
  0xe4, 0xdd, 0x01, 0xae, 0xef, 0x23, 0xad, 0xf4, 0x12, 0xcf, 0x5d, 0x19,
  0xc9, 0x1d, 0xaf, 0x10, 0x05, 0xdd, 0x04, 0xe7, 0x34, 0xcc, 0x3f, 0x2c,
  0x39, 0xd2, 0x5c, 0x0c, 0xc8, 0x4c, 0xd6, 0xff, 0xdb, 0xd8, 0xd6, 0xbb,
  0x18, 0x45, 0xd5, 0x1d, 0xff, 0xbc, 0x35, 0x06, 0xff, 0x64, 0xdb, 0x41,
  0xf5, 0xd0, 0x10, 0xe2, 0x15, 0xd0, 0x10, 0xf3, 0xf4, 0xd7, 0x2e, 0x09,
  0x1c, 0x44, 0xde, 0x15, 0x17, 0xb7, 0xea, 0x09, 0x15, 0xf5, 0x48, 0x81,
  0x01, 0x2f, 0xc4, 0x65, 0x18, 0x36, 0x52, 0x98, 0x10, 0xf6, 0xd6, 0x56,
  0x0f, 0x16, 0xa1, 0x54, 0xeb, 0x0c, 0xbd, 0x72, 0xec, 0x11, 0x20, 0x84,
  0x2d, 0xce, 0xf8, 0x00, 0x16, 0xf6, 0x14, 0x90, 0x0a, 0x08, 0xbf, 0x6c,
  0xf4, 0x1a, 0x0f, 0x95, 0x01, 0xf7, 0xf8, 0x24, 0xe6, 0x2d, 0xbd, 0x73,
  0xee, 0x0d, 0xf5, 0x7c, 0x08, 0x16, 0x37, 0x8c, 0x25, 0xbd, 0x03, 0xf4,
  0xe1, 0x2c, 0x24, 0xfe, 0x03, 0x1f, 0xc1, 0x26, 0x15, 0x41, 0x23, 0xc1,
  0x0c, 0x03, 0xc9, 0x0f, 0x04, 0xf2, 0xe1, 0x23, 0xf4, 0x0b, 0xb8, 0x17,
  0x19, 0x10, 0x48, 0xf7, 0x18, 0x14, 0xeb, 0xc1, 0x1f, 0xfd, 0x2b, 0xfa,
  0xfd, 0xfe, 0x19, 0x05, 0xef, 0xe5, 0x21, 0xfc, 0xfb, 0x13, 0xfd, 0x11,
  0xe8, 0x01, 0x14, 0x13, 0xd9, 0xe0, 0x12, 0xe8, 0xfe, 0xe2, 0x2f, 0xf1,
  0x2b, 0x03, 0xe2, 0xde, 0x06, 0xff, 0xf9, 0x0d, 0x07, 0xe6, 0xf3, 0xfc,
  0x20, 0xe5, 0x17, 0x07, 0x1a, 0x24, 0x16, 0x02, 0x0a, 0x05, 0x03, 0x1d,
  0x11, 0x12, 0x24, 0x10, 0x05, 0x18, 0x12, 0x0b, 0x2a, 0x2b, 0xd9, 0xc8,
  0xf4, 0x05, 0x26, 0x2d, 0xf5, 0x01, 0xed, 0x02, 0xe7, 0x20, 0x18, 0x1e,
  0xfd, 0x09, 0xe5, 0xe4, 0x16, 0xea, 0x18, 0xfe, 0xe1, 0xfe, 0xf5, 0xfa,
  0xe2, 0x14, 0x09, 0x02, 0xf9, 0xd1, 0x1e, 0xc1, 0x45, 0x03, 0xec, 0x11,
  0xd9, 0x2c, 0xf2, 0x18, 0x4d, 0x03, 0x02, 0x0d, 0xd2, 0x1b, 0xf7, 0xf2,
  0xde, 0x2c, 0xdb, 0xfc, 0xd6, 0x27, 0xeb, 0xf6, 0x2a, 0xfd, 0xe3, 0x2b,
  0xdf, 0x9c, 0x00, 0xee, 0x03, 0x12, 0x04, 0x05, 0xe3, 0x28, 0xfd, 0x18,
  0x2d, 0xf2, 0x00, 0x05, 0xe3, 0x13, 0x01, 0x17, 0xe2, 0x16, 0x06, 0x1e,
  0xf8, 0xfe, 0x09, 0x10, 0x2f, 0x1d, 0xfe, 0xfb, 0x0b, 0x81, 0xfc, 0xd1,
  0x3b, 0x18, 0x0e, 0x28, 0x02, 0xeb, 0x0b, 0x0c, 0x2f, 0x21, 0x11, 0x0f,
  0xc1, 0x01, 0x22, 0x01, 0xde, 0xf5, 0xe1, 0xf4, 0xd5, 0x1f, 0x01, 0xe8,
  0x41, 0x31, 0x0d, 0x0e, 0xe7, 0xda, 0x1c, 0xba, 0xfc, 0x52, 0xcd, 0xfd,
  0x08, 0xea, 0x49, 0x18, 0xc4, 0x54, 0xa0, 0xef, 0x30, 0xc4, 0x5a, 0x25,
  0x0f, 0xc4, 0x61, 0x01, 0x3a, 0xd9, 0x6c, 0x27, 0xca, 0x37, 0x91, 0xf7,
  0xd8, 0xd9, 0xf7, 0xdd, 0xd1, 0x3c, 0x9d, 0x02, 0x2d, 0xf5, 0x60, 0x24,
  0xec, 0x0f, 0xd0, 0x21, 0x1a, 0xd4, 0x3c, 0xf6, 0x2d, 0xf1, 0x6c, 0x30,
  0x3d, 0xfd, 0x40, 0x18, 0xc4, 0x28, 0x92, 0x01, 0xac, 0xee, 0xeb, 0xd1,
  0x10, 0x2b, 0xd8, 0xff, 0x2d, 0xec, 0x48, 0x18, 0x19, 0x34, 0xf3, 0x04,
  0x03, 0xd3, 0x1c, 0xfc, 0x12, 0xef, 0x3a, 0x1c, 0x04, 0xc9, 0x50, 0xff,
  0xf3, 0x24, 0xf5, 0x42, 0x16, 0xb4, 0x12, 0xfd, 0xf3, 0x1f, 0x2e, 0x8c,
  0xdf, 0x29, 0xc3, 0x59, 0xf0, 0x03, 0x0f, 0x8e, 0x0d, 0xff, 0xd8, 0x5e,
  0x05, 0x3a, 0xb5, 0x67, 0x05, 0x06, 0xd7, 0x54, 0x09, 0x20, 0x39, 0x81,
  0x1e, 0xcb, 0xfc, 0xed, 0xef, 0x01, 0x33, 0x8c, 0xfc, 0x2e, 0xe6, 0x7f,
  0xf3, 0x23, 0x3a, 0x81, 0x15, 0xfc, 0xf5, 0x55, 0xe4, 0x11, 0xc4, 0x5f,
  0xf7, 0x0f, 0xdf, 0x62, 0x02, 0xff, 0x2a, 0x88, 0x23, 0xa9, 0xde, 0xf0,
  0xe5, 0x0a, 0x1c, 0xd2, 0xe4, 0x17, 0xdb, 0x34, 0xf7, 0x3b, 0x4c, 0xca,
  0x06, 0xfd, 0xe1, 0x1d, 0x17, 0x0a, 0xf4, 0x38, 0xfb, 0x0c, 0xc7, 0x37,
  0xe5, 0x1a, 0x17, 0xc0, 0x23, 0x1e, 0xf2, 0xce, 0x05, 0xe7, 0x1c, 0x2e,
  0xef, 0x0e, 0x0d, 0x27, 0x0c, 0x22, 0x0b, 0x27, 0x20, 0x18, 0x16, 0x0d,
  0xd7, 0x02, 0x05, 0xf2, 0xc5, 0x0d, 0x04, 0xff, 0x0e, 0x14, 0xf4, 0x32,
  0x09, 0x08, 0xeb, 0xd7, 0xf1, 0xf6, 0x04, 0x1f, 0xe8, 0xf9, 0xf6, 0x0e,
  0x1f, 0xea, 0x03, 0x1a, 0x02, 0xfd, 0xfd, 0xff, 0xe5, 0xea, 0x16, 0x1b,
  0xf9, 0x12, 0x27, 0x12, 0xdb, 0xe8, 0x20, 0xf6, 0x25, 0x1c, 0xc0, 0xa8,
  0x11, 0x08, 0x20, 0x18, 0x0d, 0xf2, 0xfa, 0xf8, 0xdd, 0xee, 0x2b, 0x44,
  0x05, 0x01, 0x03, 0xe3, 0x17, 0x19, 0x06, 0xe8, 0xe3, 0xf6, 0xf8, 0x11,
  0xf5, 0x03, 0x37, 0x39, 0xfd, 0xda, 0x31, 0xdd, 0x1b, 0x02, 0x0f, 0x1c,
  0xe1, 0x08, 0xe6, 0x11, 0x45, 0xee, 0xf9, 0xfa, 0xea, 0x2c, 0x12, 0x09,
  0xea, 0x0e, 0xf0, 0xfb, 0xd5, 0x28, 0xfe, 0x18, 0x45, 0xf9, 0x07, 0x19,
  0xd6, 0xa2, 0x22, 0xd2, 0x06, 0x05, 0x0d, 0x0b, 0xf1, 0x19, 0xeb, 0x12,
  0x28, 0xf9, 0xff, 0x26, 0xf8, 0xfb, 0x22, 0x0f, 0xee, 0x11, 0xf4, 0x22,
  0xe3, 0x2f, 0xf4, 0x08, 0x16, 0xf8, 0xec, 0x10, 0xf7, 0x8f, 0x28, 0xd4,
  0x26, 0x33, 0xee, 0x08, 0x03, 0x0b, 0x13, 0x12, 0x29, 0x1e, 0x22, 0x15,
  0xee, 0xe6, 0x13, 0xfc, 0x03, 0x15, 0xe5, 0x08, 0xd8, 0x0a, 0x1d, 0xf6,
  0x15, 0x3e, 0x17, 0x0e, 0xd6, 0xbf, 0x13, 0xd7, 0xe7, 0x40, 0xb4, 0x24,
  0x36, 0xdf, 0x2e, 0xff, 0xf7, 0x3d, 0xaa, 0x12, 0x3c, 0xb4, 0x48, 0xfb,
  0x07, 0xf6, 0x41, 0x13, 0x2b, 0xd6, 0x4c, 0x3c, 0xc7, 0x51, 0xcd, 0x1f,
  0xb7, 0xfa, 0xf4, 0xcc, 0xd9, 0x3f, 0xdc, 0x1e, 0x1a, 0xde, 0x53, 0x07,
  0xe0, 0x33, 0xb5, 0x0f, 0x12, 0xe8, 0x45, 0xf8, 0x13, 0xf8, 0x40, 0x2c,
  0x15, 0xe7, 0x2d, 0x2d, 0x03, 0x2f, 0xab, 0xfd, 0xb1, 0xc1, 0xe3, 0xb6,
  0x1a, 0x35, 0xd1, 0x24, 0x1d, 0xe3, 0x2e, 0x00, 0x2a, 0x30, 0xda, 0x24,
  0x1a, 0xe7, 0x23, 0xea, 0x01, 0x09, 0x36, 0x06, 0x2a, 0x06, 0x07, 0x26,
  0x11, 0x45, 0x04, 0x12, 0x0b, 0xd1, 0xe0, 0x10, 0xe9, 0xef, 0x1a, 0xa4,
  0xf4, 0x1a, 0xd1, 0x70, 0xea, 0xf0, 0x19, 0xa4, 0x01, 0x0b, 0xf3, 0x7f,
  0xe7, 0x06, 0xc1, 0x7f, 0x0d, 0xff, 0xb5, 0x7f, 0x04, 0x1c, 0x4a, 0x87,
  0x2c, 0xab, 0x00, 0xe8, 0x10, 0xff, 0x0d, 0x91, 0xfa, 0x2f, 0xcf, 0x69,
  0xf9, 0xea, 0x3d, 0xa1, 0x17, 0xf4, 0x00, 0x61, 0x00, 0x1f, 0xe8, 0x7c,
  0xe2, 0x09, 0xc4, 0x71, 0x11, 0xf0, 0x45, 0xa7, 0x1d, 0xa6, 0xdb, 0x0e,
  0xff, 0xff, 0x47, 0xfe, 0xfb, 0xf8, 0xef, 0x40, 0xf2, 0x21, 0x3a, 0xce,
  0x10, 0xe5, 0xee, 0x47, 0x0a, 0x19, 0xd3, 0x3f, 0x09, 0xfc, 0xeb, 0x29,
  0x0b, 0x36, 0x37, 0xc8, 0xe9, 0xdd, 0x17, 0xeb, 0x09, 0xe5, 0x0f, 0x2e,
  0xfa, 0x0d, 0x0a, 0x0e, 0x1a, 0xe8, 0xfa, 0x2a, 0xe5, 0xf2, 0x21, 0xf9,
  0x12, 0xfa, 0xf9, 0x26, 0x17, 0x2a, 0x19, 0xf9, 0xd3, 0xe7, 0xe0, 0x14,
  0x06, 0xe0, 0x14, 0x13, 0x05, 0x13, 0x20, 0x0f, 0xe3, 0xef, 0x00, 0x0e,
  0xec, 0xf5, 0xee, 0x1c, 0x0f, 0xf2, 0xfd, 0x2c, 0xf1, 0xef, 0x13, 0x11,
  0x10, 0x07, 0x11, 0xe3, 0xf4, 0xf5, 0xe6, 0x17, 0xe1, 0xed, 0xeb, 0x15,
  0x0a, 0xf8, 0x38, 0x2c, 0xea, 0x07, 0xf8, 0xf7, 0x09, 0x01, 0x0b, 0x3a,
  0xdb, 0x02, 0x26, 0x1a, 0xe2, 0x09, 0x37, 0x3c, 0xf5, 0x0d, 0x04, 0xed,
  0xea, 0xf6, 0xfd, 0x13, 0xdb, 0xfd, 0xef, 0x0b, 0x51, 0xf5, 0xf5, 0x22,
  0xc3, 0x0b, 0xed, 0x0c, 0x47, 0x12, 0x03, 0x32, 0x33, 0x13, 0x11, 0x22,
  0x30, 0xed, 0xf5, 0x22, 0xc7, 0x00, 0x2d, 0xd6, 0xd5, 0x15, 0xf8, 0x0a,
  0xbd, 0x29, 0x12, 0x11, 0x23, 0x06, 0x0d, 0x1b, 0xe2, 0xfb, 0x08, 0xee,
  0x36, 0x1c, 0xef, 0x06, 0x23, 0xeb, 0x06, 0x33, 0x04, 0x02, 0x1d, 0x11,
  0xea, 0xe2, 0xf8, 0xc6, 0xe0, 0x23, 0x00, 0xec, 0xd1, 0x07, 0x18, 0xf2,
  0x39, 0x38, 0x15, 0x4b, 0xc7, 0xe5, 0x07, 0x00, 0x35, 0x2d, 0x20, 0x39,
  0x2f, 0x15, 0xf1, 0x27, 0x3e, 0x18, 0x0f, 0x1b, 0xad, 0xe6, 0x0c, 0xd1,
  0xed, 0x03, 0x11, 0xd8, 0x13, 0xde, 0x4d, 0x0b, 0xd4, 0x7f, 0xd9, 0xf8,
  0x27, 0xb9, 0x48, 0xfa, 0xf9, 0x79, 0xb6, 0xef, 0xe0, 0x4b, 0xb6, 0x11,
  0xdb, 0x44, 0xd3, 0x16, 0x11, 0x95, 0x12, 0x0e, 0x05, 0xae, 0x58, 0x24,
  0x17, 0xd5, 0x68, 0x02, 0xe6, 0x40, 0xa4, 0x1b, 0x28, 0xc0, 0x2f, 0x01,
  0xd1, 0x28, 0xaf, 0x1d, 0xea, 0x1a, 0xc9, 0xf0, 0xec, 0x40, 0xb2, 0x11,
  0x1f, 0xaf, 0x0d, 0xfc, 0x20, 0xc1, 0x32, 0x22, 0xf4, 0xe1, 0x21, 0xee,
  0x25, 0x4e, 0xd1, 0x33, 0x21, 0xec, 0x39, 0x18, 0x19, 0x41, 0xf4, 0x12,
  0x19, 0x3f, 0xe7, 0x0a, 0xf5, 0x5e, 0xd5, 0x2c, 0x02, 0x9f, 0xf1, 0xe7,
  0x10, 0xc2, 0x29, 0xf5, 0xfe, 0x29, 0xc1, 0x4c, 0x11, 0x0f, 0x3b, 0xa1,
  0x00, 0x0d, 0xd2, 0x54, 0xff, 0xea, 0x39, 0x97, 0x11, 0xf2, 0x46, 0xbb,
  0xf2, 0x02, 0x27, 0x84, 0x17, 0x14, 0xd3, 0x4d, 0x0b, 0x0b, 0xc7, 0x5e,
  0x17, 0x1a, 0xce, 0x7e, 0x09, 0x2a, 0x3f, 0x8c, 0xdf, 0x1f, 0xbf, 0x5a,
  0x08, 0x16, 0x28, 0x81, 0x0c, 0x14, 0x2a, 0xab, 0xe3, 0xef, 0x0c, 0xa1,
  0x2a, 0xff, 0x09, 0xfb, 0xf6, 0x18, 0xe9, 0x6d, 0x04, 0x1d, 0xb8, 0x27,
  0x02, 0x13, 0x4a, 0xf8, 0xe5, 0x11, 0xcf, 0x1c, 0xf0, 0x0f, 0x27, 0xc4,
  0x02, 0x1d, 0x2e, 0xe6, 0xee, 0x0f, 0x28, 0xc8, 0x23, 0xdb, 0xda, 0xeb,
  0x14, 0x1b, 0xed, 0x0b, 0xe6, 0x11, 0x06, 0xe9, 0x00, 0xeb, 0x23, 0x00,
  0xf5, 0xf1, 0xec, 0x15, 0x17, 0xf5, 0x13, 0x28, 0xfd, 0xee, 0x1d, 0xff,
  0xf6, 0xef, 0x12, 0x1d, 0x2c, 0x03, 0x03, 0x12, 0xcf, 0xee, 0x0e, 0x16,
  0xd9, 0xfc, 0x22, 0x13, 0xf3, 0x09, 0x0d, 0x0b, 0x08, 0xf2, 0x00, 0x08,
  0xf2, 0x11, 0x1b, 0xf6, 0xed, 0x03, 0x17, 0x09, 0x11, 0x00, 0xf4, 0x24,
  0x04, 0x02, 0xe4, 0x18, 0xdc, 0x07, 0x0b, 0x19, 0x08, 0xf0, 0xe6, 0x17,
  0x05, 0xe9, 0xf8, 0x07, 0xf0, 0x05, 0xfd, 0x04, 0xf1, 0x0b, 0x0d, 0x2d,
  0x15, 0xe9, 0xfd, 0x28, 0x00, 0x1a, 0x02, 0x21, 0x26, 0x0b, 0x09, 0x09,
  0xfb, 0x11, 0xf6, 0xfd, 0xc2, 0xfc, 0xf3, 0x0d, 0x34, 0xe4, 0x05, 0x00,
  0xcf, 0x2a, 0xf6, 0x19, 0x43, 0x0e, 0x19, 0x05, 0x45, 0xff, 0x18, 0x29,
  0x31, 0x00, 0x17, 0x17, 0xc9, 0x34, 0x2d, 0x05, 0xed, 0x27, 0x0a, 0x19,
  0xf7, 0xff, 0xff, 0x02, 0x09, 0x1f, 0xfe, 0x21, 0x01, 0x2f, 0xf1, 0x1a,
  0x02, 0xe6, 0xef, 0xed, 0x1b, 0x04, 0x0b, 0xf8, 0x21, 0xff, 0x13, 0x1b,
  0xeb, 0x03, 0x2a, 0x17, 0xd9, 0x1c, 0xe5, 0xfe, 0xf6, 0x1f, 0x03, 0x00,
  0x21, 0x0d, 0xfc, 0x1b, 0xef, 0x1e, 0x19, 0x0d, 0x27, 0x10, 0x07, 0x1d,
  0x46, 0x06, 0x1a, 0x0c, 0x15, 0x23, 0xe7, 0x05, 0xbc, 0x08, 0x18, 0x09,
  0xcb, 0x0c, 0xff, 0xed, 0x3b, 0xce, 0x4f, 0x2b, 0xf2, 0x6e, 0xbc, 0x11,
  0x2e, 0xe7, 0x63, 0x2f, 0xf0, 0x34, 0xac, 0x0a, 0xde, 0x63, 0xb0, 0x21,
  0xcd, 0x5b, 0x9f, 0x24, 0x45, 0xce, 0x65, 0xf9, 0x16, 0xba, 0x35, 0x2f,
  0x26, 0xed, 0x52, 0x16, 0xe1, 0x33, 0xc6, 0x14, 0x2e, 0xe0, 0x4c, 0x14,
  0xf6, 0x2c, 0x95, 0xfb, 0x06, 0x29, 0xa9, 0x0e, 0xf4, 0x10, 0xc1, 0x14,
  0x1a, 0xd2, 0x21, 0xf6, 0x10, 0xe7, 0x41, 0x0b, 0xf9, 0xda, 0x43, 0x06,
  0xf4, 0x27, 0xc5, 0x13, 0x0e, 0xec, 0x20, 0xfe, 0x12, 0x1e, 0xc9, 0x10,
  0x1a, 0x43, 0xdd, 0x2f, 0x00, 0x3b, 0xeb, 0x35, 0x1e, 0xb3, 0x2f, 0x04,
  0x0d, 0xd3, 0x47, 0x0d, 0xe7, 0x27, 0xb6, 0x6c, 0xf9, 0xf0, 0x26, 0x81,
  0xde, 0x14, 0xb9, 0x7f, 0x07, 0x05, 0x2a, 0xa5, 0x09, 0x00, 0x25, 0x97,
  0x08, 0x06, 0x35, 0x81, 0x08, 0x18, 0xe0, 0x61, 0xf4, 0x13, 0xb4, 0x68,
  0xe6, 0x0d, 0xf5, 0x7f, 0x02, 0x16, 0x16, 0x85, 0xe6, 0x1c, 0xd2, 0x79,
  0x11, 0x05, 0x0e, 0x8b, 0xe9, 0x18, 0x10, 0x81, 0xe9, 0xef, 0x0a, 0x94,
  0xf2, 0xec, 0x01, 0x59, 0x13, 0x2c, 0xd1, 0x62, 0x02, 0x1f, 0xc4, 0x33,
  0xe9, 0x11, 0x4a, 0xa0, 0xf0, 0xf9, 0xdf, 0x40, 0xeb, 0x16, 0x19, 0xcb,
  0x05, 0x03, 0x40, 0xb0, 0x14, 0x15, 0x2a, 0xd0, 0xfa, 0xed, 0xd6, 0x5e,
  0x01, 0x20, 0xf3, 0x2e, 0xcc, 0xfd, 0x1a, 0xe9, 0xf0, 0x10, 0x28, 0x15,
  0x00, 0x03, 0x04, 0x03, 0x14, 0xe1, 0x1d, 0x1e, 0xf3, 0x18, 0xfd, 0xf1,
  0xe7, 0x0a, 0xf5, 0x1d, 0xfe, 0xf9, 0xf7, 0x19, 0xeb, 0x08, 0xfd, 0xf0,
  0xd6, 0xe8, 0x01, 0x1d, 0x06, 0xec, 0x0b, 0x04, 0x0a, 0xff, 0x16, 0x00,
  0xeb, 0xfb, 0xf4, 0x0b, 0x06, 0x05, 0x14, 0xf0, 0x0f, 0x11, 0x1e, 0xfd,
  0x2f, 0x1e, 0xe5, 0x02, 0xe4, 0xf0, 0x03, 0x13, 0xe2, 0xf7, 0xec, 0x10,
  0xda, 0x02, 0x13, 0x25, 0xf0, 0x0b, 0xf5, 0xfd, 0x0c, 0x1e, 0x2b, 0x1c,
  0x02, 0x13, 0xfe, 0x35, 0xe8, 0xfe, 0x2a, 0x1e, 0x18, 0x1e, 0xd5, 0xe1,
  0xf5, 0xf2, 0x08, 0x01, 0xd7, 0x1f, 0x10, 0x2b, 0x2a, 0xfe, 0x1b, 0xfd,
  0xec, 0x1d, 0xf5, 0x16, 0x45, 0xe5, 0xea, 0xfc, 0x22, 0xf1, 0xf7, 0xfb,
  0x20, 0x0b, 0x0f, 0x24, 0xeb, 0x32, 0x22, 0x01, 0xec, 0x02, 0xfc, 0x18,
  0xff, 0x21, 0x07, 0x20, 0x1d, 0xe6, 0xf0, 0x0c, 0xeb, 0x0f, 0xef, 0x07,
  0x0a, 0x0b, 0xee, 0xfc, 0xfa, 0x1e, 0xf4, 0x0e, 0x27, 0x0a, 0xef, 0x09,
  0xef, 0x27, 0x00, 0x17, 0xfe, 0xfd, 0xed, 0x21, 0xe9, 0x01, 0x08, 0x0b,
  0x2d, 0x27, 0xfb, 0x19, 0x10, 0x06, 0x17, 0x1a, 0x2e, 0x0b, 0x16, 0x2e,
  0x2b, 0x07, 0xfb, 0x31, 0x12, 0x06, 0xea, 0x17, 0xc1, 0x0d, 0xee, 0xdb,
  0xef, 0xfe, 0x0d, 0x1f, 0x19, 0xea, 0x53, 0x02, 0xcb, 0x5f, 0xbe, 0x1e,
  0x39, 0xdf, 0x39, 0x2d, 0xc6, 0x4f, 0xc8, 0x02, 0xf2, 0x60, 0xc9, 0x1e,
  0xd4, 0x3c, 0xc5, 0x0b, 0x2a, 0xd8, 0x38, 0x10, 0x20, 0xd2, 0x46, 0x09,
  0x08, 0xfd, 0x3a, 0x29, 0xee, 0x1f, 0xbb, 0xfa, 0x17, 0xef, 0x2e, 0x12,
  0xd9, 0x37, 0xd0, 0xef, 0xd1, 0x17, 0xea, 0xef, 0xfb, 0x1c, 0xc2, 0xf7,
  0x0f, 0xbd, 0x4d, 0xea, 0x1b, 0xec, 0x2b, 0x09, 0x1c, 0xe3, 0x0b, 0x07,
  0xfd, 0x21, 0x0c, 0x24, 0xfd, 0xdd, 0x1c, 0x00, 0x29, 0x36, 0xfb, 0x34,
  0xfd, 0x2f, 0xf7, 0x3c, 0x13, 0x1d, 0xf4, 0x29, 0x15, 0xb4, 0x38, 0xe3,
  0xf4, 0x01, 0x1a, 0x21, 0xdb, 0x01, 0xe2, 0x59, 0x14, 0x18, 0x1e, 0x9a,
  0xd2, 0x10, 0xcb, 0x6d, 0x01, 0xe5, 0x21, 0xa6, 0xf1, 0x16, 0x32, 0x89,
  0x07, 0xff, 0x28, 0xae, 0x22, 0x2b, 0xe8, 0x7f, 0xf0, 0x2c, 0xbd, 0x7f,
  0x01, 0x04, 0xde, 0x75, 0x16, 0x07, 0x17, 0x86, 0xe1, 0x1d, 0xc5, 0x51,
  0xf2, 0xff, 0x0f, 0x9f, 0x11, 0xef, 0x1a, 0x9c, 0x09, 0xfd, 0x0f, 0xc1,
  0xfa, 0x19, 0xcd, 0x4b, 0x16, 0x0a, 0xeb, 0x59, 0x17, 0x14, 0xc6, 0x41,
  0x05, 0x23, 0x52, 0xc8, 0xea, 0x15, 0xdf, 0x3d, 0xf8, 0x34, 0x25, 0xda,
  0xe3, 0x00, 0x2a, 0xf6, 0x03, 0x00, 0x3d, 0xcd, 0x2d, 0x0e, 0xe8, 0x62,
  0x00, 0x17, 0xcb, 0x39, 0x03, 0xfa, 0x17, 0x11, 0x00, 0xe2, 0x02, 0x18,
  0xde, 0x07, 0x00, 0xfd, 0x12, 0x28, 0x1b, 0xf1, 0xee, 0xf6, 0x0b, 0xfe,
  0xeb, 0x0b, 0x26, 0x07, 0x1a, 0xe9, 0xfe, 0x1c, 0x01, 0xe2, 0xff, 0xfa,
  0xfd, 0x08, 0x0c, 0x0b, 0xdf, 0xfc, 0x00, 0xf4, 0xe9, 0x0f, 0x20, 0x0b,
  0x05, 0x0a, 0x0e, 0xe1, 0x02, 0xf1, 0x0c, 0x0d, 0xf6, 0xeb, 0x1b, 0x1d,
  0x12, 0x13, 0x20, 0x1b, 0xf2, 0xe7, 0x00, 0x09, 0xf4, 0xe6, 0x0e, 0x0c,
  0xfc, 0xf2, 0xed, 0xf3, 0xe5, 0x13, 0x08, 0x0a, 0x16, 0x09, 0x02, 0xf3,
  0xe7, 0x08, 0xfd, 0x2e, 0x17, 0x0e, 0x2f, 0x0e, 0xec, 0x15, 0x37, 0x08,
  0x00, 0xf2, 0xdf, 0xdf, 0xbd, 0x01, 0xfe, 0xea, 0xd5, 0xf7, 0x0a, 0x1c,
  0xc1, 0x28, 0xf0, 0xef, 0xf4, 0x22, 0x29, 0xde, 0x22, 0x29, 0xf8, 0x36,
  0x52, 0x04, 0xf2, 0x11, 0x2e, 0x0e, 0x17, 0x1c, 0xd7, 0x22, 0xdd, 0xfc,
  0xed, 0x17, 0x10, 0x00, 0xd2, 0x35, 0x05, 0xff, 0xed, 0x00, 0x00, 0x0b,
  0xf1, 0x14, 0xfc, 0xe8, 0x1a, 0xee, 0xfe, 0x0b, 0x10, 0xf0, 0x17, 0xfd,
  0x3a, 0xe8, 0xeb, 0x0d, 0xb8, 0x03, 0xfa, 0x2a, 0xda, 0xf7, 0x02, 0xfc,
  0xcc, 0xf9, 0x01, 0xed, 0xc8, 0xec, 0x0f, 0xd9, 0xd6, 0xed, 0x12, 0xed,
  0x4a, 0x3f, 0x1b, 0x4a, 0x52, 0x33, 0x17, 0x15, 0x37, 0x38, 0x17, 0x1b,
  0xe1, 0x11, 0x21, 0x1b, 0x19, 0xc7, 0x59, 0x0c, 0x24, 0xbf, 0x58, 0x0d,
  0x25, 0xdb, 0x5e, 0xff, 0x1e, 0x92, 0x48, 0x10, 0xe8, 0x64, 0xe6, 0x08,
  0xe0, 0x7f, 0xba, 0x2d, 0xd2, 0x6e, 0xb1, 0x11, 0x1c, 0xeb, 0x46, 0x0c,
  0x1a, 0xcc, 0x56, 0x2f, 0x11, 0xf9, 0x4f, 0x30, 0x12, 0xcd, 0x3b, 0x2e,
  0x24, 0xbe, 0x23, 0x10, 0xdb, 0x31, 0xb4, 0x02, 0xdf, 0x41, 0xce, 0x27,
  0xe1, 0x32, 0xb7, 0x21, 0x3c, 0xcb, 0x45, 0x03, 0xed, 0xdb, 0x2b, 0xfd,
  0x00, 0xe6, 0x44, 0x13, 0x05, 0xc7, 0x2c, 0x19, 0xfa, 0xe0, 0xf2, 0xe0,
  0x0a, 0x52, 0xd8, 0x17, 0xff, 0x3c, 0xe2, 0x05, 0x1f, 0x56, 0xe2, 0x34,
  0x1d, 0xf0, 0x45, 0x1c, 0xd9, 0x07, 0xbc, 0x53, 0x00, 0x23, 0xc4, 0x58,
  0xf7, 0x2c, 0xd2, 0x49, 0x0f, 0x0f, 0xda, 0x6f, 0x1b, 0x15, 0x29, 0xb9,
  0x27, 0xf1, 0x51, 0xac, 0xf9, 0x09, 0x43, 0x87, 0xd2, 0x2d, 0xcb, 0x7b,
  0xde, 0xfd, 0xe4, 0x74, 0xf0, 0x1d, 0xe2, 0x6f, 0x1a, 0x07, 0xfa, 0x4c,
  0x1d, 0xee, 0x04, 0x1c, 0x0f, 0x0c, 0x20, 0x81, 0xe2, 0xf6, 0x0b, 0x89,
  0xe5, 0x10, 0x2c, 0xb5, 0xe7, 0x24, 0xbc, 0x5b, 0xfc, 0x0e, 0xdf, 0x1a,
  0xf4, 0x15, 0xc5, 0x34, 0x01, 0x01, 0xce, 0x33, 0x23, 0xdf, 0xd1, 0xf8,
  0xfa, 0x27, 0x4a, 0xc7, 0xf2, 0x1c, 0x58, 0xe4, 0xe9, 0x0f, 0x31, 0xf1,
  0x03, 0xf7, 0xd0, 0x1b, 0xce, 0xf0, 0x19, 0x27, 0xd2, 0xd5, 0x02, 0xe9,
  0xcc, 0xea, 0x19, 0xee, 0xfa, 0x10, 0x11, 0xf2, 0xff, 0x05, 0x1c, 0x12,
  0x0f, 0xf3, 0x10, 0x2e, 0xee, 0x0a, 0xff, 0x24, 0xca, 0x1b, 0x0a, 0x14,
  0x0b, 0xe9, 0x05, 0x1a, 0xf9, 0xe9, 0x0a, 0xf8, 0xf1, 0x16, 0xf2, 0x19,
  0x04, 0x11, 0xf0, 0x06, 0x09, 0x03, 0x06, 0xfb, 0x16, 0xee, 0x2b, 0xfa,
  0xe4, 0xf8, 0xff, 0x23, 0xf7, 0xf3, 0x02, 0x06, 0xf5, 0x09, 0x06, 0x00,
  0xf6, 0x09, 0x02, 0x1a, 0xe7, 0x01, 0x17, 0xf0, 0x27, 0xfe, 0x06, 0xf3,
  0xe2, 0x0a, 0x14, 0x06, 0xef, 0xe8, 0x24, 0x1f, 0x0f, 0xf4, 0x08, 0x21,
  0xe8, 0x14, 0x10, 0x21, 0xcc, 0x07, 0xe3, 0x15, 0xe9, 0x10, 0xdd, 0x0f,
  0xee, 0x30, 0xeb, 0x19, 0xe8, 0x17, 0x20, 0x18, 0x26, 0xed, 0x01, 0x07,
  0x25, 0xf9, 0xfa, 0x11, 0x29, 0x04, 0xfc, 0xfd, 0xe2, 0x01, 0xdf, 0x20,
  0xe6, 0x2d, 0x03, 0x01, 0x01, 0x0c, 0x13, 0x0b, 0xe0, 0x1f, 0xea, 0x2b,
  0xf1, 0xf7, 0x23, 0x1e, 0x02, 0x04, 0x0e, 0x02, 0x10, 0xe8, 0x05, 0xf3,
  0xfc, 0xf6, 0x01, 0xff, 0xfa, 0x1e, 0xeb, 0xfe, 0xe7, 0x09, 0xf7, 0xf8,
  0xf2, 0x0b, 0xfa, 0x00, 0xdb, 0x03, 0xf6, 0x0f, 0xef, 0xff, 0x0e, 0xed,
  0x22, 0x27, 0x0f, 0x08, 0x26, 0x08, 0x09, 0x3c, 0x28, 0x03, 0x12, 0x33,
  0xfd, 0x0a, 0x0b, 0x16, 0x15, 0xc9, 0x4c, 0x15, 0x22, 0xdc, 0x55, 0x16,
  0x33, 0xe3, 0x4a, 0x09, 0x4a, 0xa3, 0x49, 0xf7, 0xdd, 0x65, 0xa1, 0x01,
  0xf9, 0x40, 0xa9, 0x02, 0xe7, 0x60, 0x9d, 0xfb, 0x3d, 0xdf, 0x65, 0x0a,
  0x1f, 0xf2, 0x53, 0x13, 0x2b, 0x10, 0x45, 0x1e, 0x1e, 0x05, 0x3e, 0x01,
  0x07, 0xc9, 0x44, 0xf4, 0xe3, 0x13, 0xa9, 0xf6, 0xc8, 0x41, 0xce, 0xfb,
  0xdd, 0x3f, 0xb1, 0x07, 0x0e, 0xef, 0x67, 0x1a, 0x15, 0xe0, 0x1c, 0x22,
  0x27, 0xed, 0x19, 0x1d, 0xff, 0xc8, 0x24, 0xf3, 0xf7, 0xd5, 0x39, 0xde,
  0x0e, 0x45, 0xdb, 0x3e, 0x00, 0x3c, 0xb8, 0x2d, 0xea, 0x44, 0xcf, 0x12,
  0x19, 0xea, 0x50, 0x04, 0xf0, 0x3b, 0xc3, 0x6d, 0xec, 0x0b, 0xd3, 0x7f,
  0xfe, 0x1d, 0xdc, 0x78, 0x1a, 0x12, 0xf4, 0x7f, 0x1b, 0x1a, 0x07, 0xa8,
  0xef, 0x1e, 0x19, 0x82, 0x05, 0x15, 0x31, 0x99, 0xd7, 0x3d, 0xbf, 0x5c,
  0xf3, 0x2c, 0xcd, 0x6e, 0xe5, 0x2c, 0xc7, 0x71, 0x06, 0x22, 0xfb, 0x62,
  0x11, 0xf3, 0xf0, 0x4b, 0x14, 0x00, 0x31, 0x97, 0xfc, 0xf5, 0x28, 0x85,
  0xed, 0x21, 0x08, 0x81, 0xdb, 0x1f, 0xdd, 0x54, 0x01, 0x08, 0xe1, 0x38,
  0xfb, 0x16, 0xec, 0x3b, 0xf2, 0xf7, 0xee, 0x58, 0x1a, 0x0f, 0x00, 0x23,
  0xf3, 0x35, 0x15, 0xa9, 0x08, 0x16, 0x4a, 0xab, 0xe8, 0x25, 0x48, 0xc8,
  0x07, 0x14, 0xec, 0x22, 0xc6, 0xe9, 0x07, 0xf3, 0xf1, 0xdf, 0xeb, 0xe7,
  0xfd, 0xec, 0xf3, 0x07, 0x1e, 0x1d, 0xfd, 0x0e, 0x0f, 0xeb, 0xff, 0xf6,
  0x23, 0xea, 0x02, 0xf1, 0xfc, 0x07, 0xfc, 0x29, 0xca, 0x14, 0x0d, 0xf9,
  0xe1, 0x18, 0x14, 0x04, 0xe5, 0x09, 0x13, 0x0f, 0xe9, 0xf6, 0x22, 0x23,
  0x1d, 0xfb, 0xef, 0xf4, 0xe7, 0xf4, 0x07, 0x0b, 0x18, 0x1d, 0x0e, 0x29,
  0x0f, 0xfc, 0x04, 0x12, 0xd7, 0x0b, 0xf1, 0xf6, 0xea, 0xec, 0xef, 0x15,
  0xfc, 0x15, 0x0f, 0x08, 0xe4, 0xe6, 0xfc, 0x0e, 0x07, 0xfe, 0xed, 0x02,
  0x0d, 0x0f, 0xf8, 0x08, 0xe3, 0x01, 0x21, 0x16, 0x0a, 0xf4, 0x0d, 0x18,
  0xdf, 0x0d, 0xee, 0x03, 0xce, 0x01, 0xe1, 0x2b, 0xeb, 0x22, 0x00, 0x27,
  0xe0, 0x12, 0xf3, 0x15, 0xed, 0x22, 0x16, 0xfd, 0x22, 0x14, 0xf4, 0x2c,
  0x3b, 0x09, 0xfa, 0x25, 0x1d, 0xfd, 0x09, 0x22, 0xeb, 0x21, 0xee, 0x2c,
  0xfc, 0x0f, 0x07, 0x1f, 0xf4, 0x29, 0xf4, 0x1a, 0xe8, 0x19, 0xf9, 0x03,
  0xe7, 0xf2, 0x25, 0x17, 0x09, 0x03, 0x06, 0xf8, 0x14, 0xdd, 0x00, 0xfa,
  0x11, 0xf8, 0x09, 0x06, 0xfd, 0x16, 0xfc, 0x25, 0xee, 0x1c, 0x0c, 0xf7,
  0xe2, 0x00, 0x0d, 0xec, 0xf0, 0x17, 0x06, 0x14, 0xca, 0xcc, 0x02, 0xd8,
  0x19, 0x20, 0xeb, 0x12, 0x31, 0x21, 0xea, 0x25, 0x0d, 0x05, 0x02, 0x20,
  0x0c, 0xfc, 0x0e, 0x06, 0x13, 0xe3, 0x55, 0x35, 0x0a, 0x00, 0x53, 0x1f,
  0x38, 0xdb, 0x2b, 0x14, 0x46, 0xb7, 0x50, 0x2b, 0xe0, 0x5d, 0xe7, 0x0e,
  0xd0, 0x6e, 0xbd, 0x08, 0xd0, 0x60, 0xb4, 0x09, 0x2d, 0xbe, 0x59, 0x24,
  0x21, 0xe9, 0x48, 0x36, 0x1f, 0xe4, 0x32, 0x29, 0x2b, 0xf3, 0x43, 0x26,
  0x01, 0xd2, 0x16, 0xec, 0xe9, 0x08, 0xb2, 0xeb, 0xf1, 0x29, 0xad, 0x20,
  0x04, 0x2a, 0xb4, 0xf2, 0x2f, 0xdb, 0x5f, 0x19, 0x25, 0x03, 0x19, 0x00,
  0x08, 0x07, 0x0b, 0x1c, 0x23, 0xef, 0x30, 0xf8, 0xef, 0xc1, 0x0b, 0xdc,
  0x15, 0x4b, 0x0d, 0x3a, 0x12, 0x4d, 0xe4, 0x31, 0xec, 0x22, 0x01, 0x32,
  0x16, 0xe9, 0x37, 0x22, 0xd6, 0x34, 0xd8, 0x70, 0xd5, 0x29, 0xb8, 0x53,
  0x12, 0x03, 0xe7, 0x7f, 0x24, 0x23, 0xf6, 0x6e, 0xfc, 0x0b, 0x05, 0xbf,
  0x1e, 0x07, 0x2d, 0x82, 0xf3, 0xfa, 0x24, 0x9e, 0x07, 0x26, 0xac, 0x63,
  0x06, 0x2b, 0xcc, 0x7f, 0xff, 0x12, 0xd0, 0x5c, 0xff, 0x25, 0xe4, 0x6d,
  0x29, 0xea, 0xfb, 0x1e, 0xed, 0xf2, 0x17, 0xa1, 0xe0, 0x07, 0x2f, 0x8f,
  0x11, 0xfa, 0x30, 0xae, 0xe1, 0x26, 0xd4, 0x7f, 0xed, 0x23, 0xc7, 0x1c,
  0x05, 0x13, 0xcb, 0x1a, 0xfe, 0x18, 0xda, 0x0b, 0x1b, 0xfc, 0xc9, 0xf2,
  0x0d, 0x0d, 0x12, 0xed, 0xed, 0x06, 0x66, 0xc9, 0xe4, 0x30, 0x4f, 0xf1,
  0x10, 0xfe, 0xf2, 0x15, 0x55, 0x55, 0x55, 0x55, 0x55, 0x55, 0x55, 0x55,
  0x55, 0x00, 0x00, 0x00, 0x40, 0x0e, 0x40, 0x0e, 0x40, 0x0e, 0x40, 0x0e,
  0x7f, 0xe8, 0x43, 0xa5, 0xd2, 0x36, 0xd3, 0x58, 0x33, 0x4d, 0x62, 0xe0,
  0xde, 0xd8, 0xfc, 0x43, 0x3e, 0xbc, 0xdf, 0x21, 0xea, 0x02, 0xa3, 0x5b,
  0xcc, 0xd6, 0x4f, 0x4c, 0x34, 0x38, 0xbd, 0x01, 0x4c, 0x41, 0x5b, 0x38,
  0xc6, 0xa2, 0xd7, 0xa9, 0xc0, 0xe4, 0xd3, 0x58, 0x38, 0x23, 0x07, 0xd4,
  0x37, 0x1e, 0x98, 0x96, 0x01, 0x01, 0x00, 0x00, 0x00, 0x00, 0x00, 0x00,
  0x00, 0x00, 0x00, 0x00, 0xc2, 0xfa, 0xff, 0xff, 0x04, 0x00, 0x00, 0x00,
  0xc8, 0x03, 0x00, 0x00, 0x6e, 0x4d, 0x43, 0x64, 0x8b, 0xac, 0x41, 0x6d,
  0x64, 0x03, 0x00, 0x00, 0x00, 0x00, 0x00, 0x00, 0x64, 0x03, 0x00, 0x30,
  0x08, 0x00, 0x00, 0x00, 0xc8, 0x03, 0x00, 0x00, 0xec, 0x14, 0x00, 0x00,
  0x00, 0x00, 0x00, 0x00, 0x80, 0x16, 0x00, 0x00, 0x00, 0x00, 0x00, 0x00,
  0x00, 0x00, 0x00, 0x00, 0x00, 0x00, 0x00, 0x00, 0x01, 0x00, 0x00, 0x00,
  0x01, 0x00, 0x00, 0x00, 0x08, 0x00, 0x00, 0x00, 0x48, 0x00, 0x00, 0x00,
  0x00, 0x00, 0x00, 0x00, 0x00, 0x00, 0x00, 0x00, 0x00, 0x00, 0x00, 0x00,
  0x02, 0x00, 0x05, 0x00, 0x00, 0x00, 0x00, 0x00, 0x04, 0x00, 0x01, 0x01,
  0x01, 0x00, 0x00, 0x00, 0x06, 0x00, 0x26, 0x00, 0x00, 0x00, 0x84, 0x00,
  0x00, 0x00, 0x00, 0x00, 0x00, 0x00, 0x00, 0x00, 0x40, 0x00, 0x00, 0x00,
  0x00, 0x00, 0x00, 0x00, 0x30, 0x00, 0x00, 0x00, 0x18, 0x00, 0x00, 0x00,
  0x18, 0x00, 0x00, 0x00, 0x08, 0x00, 0x00, 0x00, 0x08, 0x00, 0x00, 0x00,
  0x18, 0x00, 0x00, 0x00, 0x18, 0x00, 0x00, 0x00, 0x04, 0x00, 0x00, 0x00,
  0x03, 0x00, 0x00, 0x00, 0x03, 0x00, 0x00, 0x00, 0x01, 0x00, 0x00, 0x00,
  0x01, 0x00, 0x00, 0x00, 0x01, 0x00, 0x00, 0x00, 0x01, 0x00, 0x00, 0x00,
  0x01, 0x00, 0x00, 0x00, 0x01, 0x00, 0x00, 0x00, 0x01, 0x00, 0x00, 0x00,
  0x01, 0x00, 0x00, 0x00, 0x10, 0x01, 0x0f, 0x07, 0x00, 0x00, 0x00, 0x00,
  0x00, 0x00, 0x00, 0x00, 0x01, 0x00, 0x00, 0x00, 0x01, 0x00, 0x00, 0x00,
  0x80, 0xff, 0xff, 0xff, 0x30, 0x80, 0x00, 0x00, 0x00, 0x00, 0x00, 0x00,
  0x00, 0x00, 0x00, 0x00, 0x00, 0x00, 0x00, 0x00, 0x00, 0x00, 0x00, 0x00,
  0x02, 0x00, 0x02, 0x00, 0x00, 0x00, 0x00, 0x00, 0x04, 0x04, 0x00, 0x00,
  0x06, 0x00, 0x3e, 0x00, 0x00, 0x00, 0x4c, 0x00, 0x00, 0x12, 0x00, 0x00,
  0x00, 0x00, 0x00, 0x00, 0x0c, 0x00, 0x00, 0x00, 0x0c, 0x00, 0x00, 0x00,
  0x08, 0x00, 0x00, 0x00, 0x08, 0x00, 0x00, 0x00, 0x18, 0x00, 0x00, 0x00,
  0x18, 0x00, 0x00, 0x00, 0x08, 0x00, 0x00, 0x00, 0x02, 0x00, 0x00, 0x00,
  0x02, 0x00, 0x00, 0x00, 0x02, 0x00, 0x00, 0x00, 0x02, 0x00, 0x00, 0x00,
  0x00, 0x00, 0x00, 0x00, 0x00, 0x00, 0x00, 0x00, 0x00, 0x00, 0x00, 0x00,
  0x00, 0x00, 0x00, 0x00, 0x10, 0x01, 0x09, 0x40, 0x00, 0x00, 0x00, 0x00,
  0x02, 0x00, 0x05, 0x00, 0x00, 0x00, 0x00, 0x00, 0x04, 0x04, 0x01, 0x01,
  0x01, 0x00, 0x00, 0x00, 0x06, 0x00, 0x26, 0x00, 0x00, 0x00, 0x84, 0x00,
  0x00, 0x00, 0x00, 0x00, 0x00, 0x12, 0x00, 0x00, 0xe0, 0x01, 0x00, 0x00,
  0x60, 0x01, 0x00, 0x00, 0xc0, 0x01, 0x00, 0x00, 0x0c, 0x00, 0x00, 0x00,
  0x0c, 0x00, 0x00, 0x00, 0x10, 0x00, 0x00, 0x00, 0x10, 0x00, 0x00, 0x00,
  0x0c, 0x00, 0x00, 0x00, 0x0c, 0x00, 0x00, 0x00, 0x08, 0x00, 0x00, 0x00,
  0x03, 0x00, 0x00, 0x00, 0x03, 0x00, 0x00, 0x00, 0x01, 0x00, 0x00, 0x00,
  0x01, 0x00, 0x00, 0x00, 0x01, 0x00, 0x00, 0x00, 0x01, 0x00, 0x00, 0x00,
  0x01, 0x00, 0x00, 0x00, 0x01, 0x00, 0x00, 0x00, 0x01, 0x00, 0x00, 0x00,
  0x01, 0x00, 0x00, 0x00, 0x10, 0x01, 0x0f, 0x07, 0x00, 0x00, 0x00, 0x00,
  0x00, 0x00, 0x00, 0x00, 0x01, 0x00, 0x00, 0x00, 0x01, 0x00, 0x00, 0x00,
  0x80, 0xff, 0xff, 0xff, 0x30, 0x80, 0x00, 0x00, 0x00, 0x00, 0x00, 0x00,
  0x00, 0x00, 0x00, 0x00, 0x00, 0x00, 0x00, 0x00, 0x00, 0x00, 0x00, 0x00,
  0x02, 0x00, 0x02, 0x00, 0x00, 0x00, 0x00, 0x00, 0x04, 0x04, 0x00, 0x00,
  0x06, 0x00, 0x3e, 0x00, 0x00, 0x00, 0x4c, 0x00, 0x00, 0x09, 0x00, 0x00,
  0x00, 0x00, 0x00, 0x00, 0x06, 0x00, 0x00, 0x00, 0x06, 0x00, 0x00, 0x00,
  0x10, 0x00, 0x00, 0x00, 0x10, 0x00, 0x00, 0x00, 0x0c, 0x00, 0x00, 0x00,
  0x0c, 0x00, 0x00, 0x00, 0x10, 0x00, 0x00, 0x00, 0x02, 0x00, 0x00, 0x00,
  0x02, 0x00, 0x00, 0x00, 0x02, 0x00, 0x00, 0x00, 0x02, 0x00, 0x00, 0x00,
  0x00, 0x00, 0x00, 0x00, 0x00, 0x00, 0x00, 0x00, 0x00, 0x00, 0x00, 0x00,
  0x00, 0x00, 0x00, 0x00, 0x10, 0x01, 0x09, 0x40, 0x00, 0x00, 0x00, 0x00,
  0x02, 0x00, 0x05, 0x00, 0x00, 0x00, 0x00, 0x00, 0x04, 0x04, 0x01, 0x01,
  0x01, 0x00, 0x00, 0x00, 0x06, 0x00, 0x26, 0x00, 0x00, 0x00, 0x84, 0x00,
  0x00, 0x00, 0x00, 0x00, 0x00, 0x09, 0x00, 0x00, 0x20, 0x07, 0x00, 0x00,
  0x60, 0x06, 0x00, 0x00, 0xf0, 0x06, 0x00, 0x00, 0x06, 0x00, 0x00, 0x00,
  0x06, 0x00, 0x00, 0x00, 0x18, 0x00, 0x00, 0x00, 0x18, 0x00, 0x00, 0x00,
  0x06, 0x00, 0x00, 0x00, 0x06, 0x00, 0x00, 0x00, 0x10, 0x00, 0x00, 0x00,
  0x03, 0x00, 0x00, 0x00, 0x03, 0x00, 0x00, 0x00, 0x01, 0x00, 0x00, 0x00,
  0x01, 0x00, 0x00, 0x00, 0x01, 0x00, 0x00, 0x00, 0x01, 0x00, 0x00, 0x00,
  0x01, 0x00, 0x00, 0x00, 0x01, 0x00, 0x00, 0x00, 0x01, 0x00, 0x00, 0x00,
  0x01, 0x00, 0x00, 0x00, 0x10, 0x01, 0x0f, 0x07, 0x00, 0x00, 0x00, 0x00,
  0x00, 0x00, 0x00, 0x00, 0x01, 0x00, 0x00, 0x00, 0x01, 0x00, 0x00, 0x00,
  0x80, 0xff, 0xff, 0xff, 0x30, 0x80, 0x00, 0x00, 0x00, 0x00, 0x00, 0x00,
  0x00, 0x00, 0x00, 0x00, 0x00, 0x00, 0x00, 0x00, 0x00, 0x00, 0x00, 0x00,
  0x02, 0x00, 0x04, 0x00, 0x00, 0x00, 0x00, 0x00, 0x04, 0x04, 0x01, 0x01,
  0x06, 0x00, 0x30, 0x00, 0x00, 0x00, 0x24, 0x00, 0x60, 0x03, 0x00, 0x00,
  0x00, 0x00, 0x00, 0x00, 0xa0, 0x14, 0x00, 0x00, 0xac, 0x14, 0x00, 0x00,
  0x06, 0x00, 0x00, 0x00, 0x06, 0x00, 0x00, 0x00, 0x18, 0x00, 0x00, 0x00,
  0x10, 0x03, 0x0f, 0x07, 0x30, 0x80, 0x8e, 0x3f, 0x02, 0x00, 0x05, 0x00,
  0x00, 0x00, 0x00, 0x00, 0x04, 0x04, 0x01, 0x01, 0x0b, 0x00, 0x00, 0x00,
  0x06, 0x00, 0x2d, 0x00, 0x00, 0x00, 0x3c, 0x00, 0x00, 0x00, 0x00, 0x00,
  0x60, 0x03, 0x00, 0x00, 0xb4, 0x14, 0x00, 0x00, 0xe4, 0x14, 0x00, 0x00,
  0x00, 0x00, 0x00, 0x00, 0x01, 0x00, 0x00, 0x00, 0x02, 0x00, 0x00, 0x00,
  0x02, 0x00, 0x00, 0x00, 0x18, 0x00, 0x00, 0x00, 0x00, 0x00, 0x00, 0x00,
  0x00, 0x00, 0x00, 0x00, 0x10, 0x01, 0x0f, 0x07, 0x30, 0xdd, 0x20, 0x4b,
  0x00, 0x00, 0x00, 0x00, 0x00, 0x00, 0x00, 0x00, 0x02, 0x00, 0x03, 0x00,
  0x00, 0x00, 0x00, 0x00, 0x02, 0x04, 0x01, 0x00, 0x06, 0x00, 0x4b, 0x00,
  0x00, 0x00, 0x28, 0x00, 0x00, 0x00, 0x00, 0x00, 0x00, 0x00, 0x00, 0x00,
  0xe8, 0x14, 0x00, 0x00, 0x01, 0x00, 0x00, 0x00, 0x01, 0x00, 0x00, 0x00,
  0x02, 0x00, 0x00, 0x00, 0x04, 0x00, 0x00, 0x00, 0x80, 0xff, 0xff, 0xff,
  0x10, 0x01, 0x09, 0x40, 0x00, 0x00, 0x00, 0x00, 0x01, 0x00, 0x00, 0x00,
  0x00, 0x00, 0x00, 0x00, 0x00, 0x00, 0x00, 0x00, 0x00, 0x00, 0x00, 0x00,
  0x00, 0x00, 0x00, 0x00, 0x00, 0x09, 0x00, 0x00, 0x04, 0x00, 0x00, 0x00,
  0x00, 0x00, 0x00, 0x00, 0x00, 0x00, 0x00, 0x00, 0x00, 0x00, 0x00, 0x00,
  0xa2, 0xfe, 0xff, 0xff, 0x04, 0x00, 0x00, 0x00, 0x08, 0x00, 0x00, 0x00,
  0x01, 0x00, 0x00, 0x00, 0x02, 0x00, 0x00, 0x00, 0x00, 0x00, 0x00, 0x00,
  0x00, 0x00, 0x00, 0x00, 0x00, 0x00, 0x00, 0x00, 0xc2, 0xfe, 0xff, 0xff,
  0x04, 0x00, 0x00, 0x00, 0x08, 0x00, 0x00, 0x00, 0x00, 0x00, 0x00, 0x00,
  0x00, 0x00, 0x00, 0x00, 0x00, 0x00, 0x00, 0x00, 0x24, 0xff, 0xff, 0xff,
  0x5f, 0x00, 0x00, 0x00, 0x4d, 0x4c, 0x49, 0x52, 0x20, 0x43, 0x6f, 0x6e,
  0x76, 0x65, 0x72, 0x74, 0x65, 0x64, 0x2e, 0x0a, 0x43, 0x6f, 0x6e, 0x76,
  0x65, 0x72, 0x74, 0x65, 0x64, 0x20, 0x77, 0x69, 0x74, 0x68, 0x20, 0x65,
  0x49, 0x51, 0x20, 0x6e, 0x65, 0x75, 0x74, 0x72, 0x6f, 0x6e, 0x2d, 0x63,
  0x6f, 0x6e, 0x76, 0x65, 0x72, 0x74, 0x65, 0x72, 0x0a, 0x56, 0x65, 0x72,
  0x73, 0x69, 0x6f, 0x6e, 0x3a, 0x20, 0x33, 0x2e, 0x30, 0x2e, 0x30, 0x2b,
  0x30, 0x58, 0x36, 0x64, 0x34, 0x31, 0x61, 0x63, 0x38, 0x62, 0x0a, 0x54,
  0x61, 0x72, 0x67, 0x65, 0x74, 0x3a, 0x20, 0x6d, 0x63, 0x78, 0x6e, 0x39,
  0x34, 0x78, 0x0a, 0x00, 0x01, 0x00, 0x00, 0x00, 0x14, 0x00, 0x00, 0x00,
  0x00, 0x00, 0x0e, 0x00, 0x18, 0x00, 0x04, 0x00, 0x08, 0x00, 0x0c, 0x00,
  0x10, 0x00, 0x14, 0x00, 0x0e, 0x00, 0x00, 0x00, 0x40, 0x01, 0x00, 0x00,
  0x34, 0x01, 0x00, 0x00, 0x28, 0x01, 0x00, 0x00, 0x14, 0x00, 0x00, 0x00,
  0x04, 0x00, 0x00, 0x00, 0x04, 0x00, 0x00, 0x00, 0x6d, 0x61, 0x69, 0x6e,
  0x00, 0x00, 0x00, 0x00, 0x03, 0x00, 0x00, 0x00, 0xac, 0x00, 0x00, 0x00,
  0x60, 0x00, 0x00, 0x00, 0x14, 0x00, 0x00, 0x00, 0x00, 0x00, 0x0e, 0x00,
  0x18, 0x00, 0x08, 0x00, 0x0c, 0x00, 0x10, 0x00, 0x07, 0x00, 0x14, 0x00,
  0x0e, 0x00, 0x00, 0x00, 0x00, 0x00, 0x00, 0x30, 0x02, 0x00, 0x00, 0x00,
  0x1c, 0x00, 0x00, 0x00, 0x10, 0x00, 0x00, 0x00, 0x08, 0x00, 0x00, 0x00,
  0x04, 0x00, 0x04, 0x00, 0x04, 0x00, 0x00, 0x00, 0x01, 0x00, 0x00, 0x00,
  0x03, 0x00, 0x00, 0x00, 0x03, 0x00, 0x00, 0x00, 0x02, 0x00, 0x00, 0x00,
  0x04, 0x00, 0x00, 0x00, 0x05, 0x00, 0x00, 0x00, 0x00, 0x00, 0x0e, 0x00,
  0x1a, 0x00, 0x08, 0x00, 0x0c, 0x00, 0x10, 0x00, 0x07, 0x00, 0x14, 0x00,
  0x0e, 0x00, 0x00, 0x00, 0x00, 0x00, 0x00, 0x09, 0x01, 0x00, 0x00, 0x00,
  0x24, 0x00, 0x00, 0x00, 0x18, 0x00, 0x00, 0x00, 0x0c, 0x00, 0x00, 0x00,
  0x00, 0x00, 0x06, 0x00, 0x08, 0x00, 0x04, 0x00, 0x06, 0x00, 0x00, 0x00,
  0x00, 0x00, 0x80, 0x3f, 0x01, 0x00, 0x00, 0x00, 0x02, 0x00, 0x00, 0x00,
  0x01, 0x00, 0x00, 0x00, 0x01, 0x00, 0x00, 0x00, 0x10, 0x00, 0x10, 0x00,
  0x00, 0x00, 0x04, 0x00, 0x08, 0x00, 0x00, 0x00, 0x00, 0x00, 0x0c, 0x00,
  0x10, 0x00, 0x00, 0x00, 0x48, 0x00, 0x00, 0x00, 0x30, 0x00, 0x00, 0x00,
  0x04, 0x00, 0x00, 0x00, 0x21, 0x00, 0x00, 0x00, 0x73, 0x75, 0x62, 0x67,
  0x72, 0x61, 0x70, 0x68, 0x00, 0x0c, 0x73, 0x75, 0x62, 0x67, 0x72, 0x61,
  0x70, 0x68, 0x5f, 0x30, 0x31, 0x30, 0x00, 0x01, 0x18, 0x01, 0x01, 0x01,
  0x12, 0x14, 0x02, 0x24, 0x01, 0x00, 0x00, 0x00, 0x04, 0x00, 0x00, 0x00,
  0x01, 0x00, 0x00, 0x00, 0x09, 0x00, 0x00, 0x00, 0x0a, 0x00, 0x00, 0x00,
  0x0b, 0x00, 0x00, 0x00, 0x04, 0x00, 0x00, 0x00, 0x00, 0x00, 0x00, 0x00,
  0x06, 0x00, 0x00, 0x00, 0x07, 0x00, 0x00, 0x00, 0x08, 0x00, 0x00, 0x00,
  0x01, 0x00, 0x00, 0x00, 0x03, 0x00, 0x00, 0x00, 0x01, 0x00, 0x00, 0x00,
  0x00, 0x00, 0x00, 0x00, 0x0c, 0x00, 0x00, 0x00, 0x6c, 0x03, 0x00, 0x00,
  0xc4, 0x02, 0x00, 0x00, 0x48, 0x02, 0x00, 0x00, 0xe4, 0x01, 0x00, 0x00,
  0x98, 0x01, 0x00, 0x00, 0x40, 0x01, 0x00, 0x00, 0x08, 0x01, 0x00, 0x00,
  0xd4, 0x00, 0x00, 0x00, 0xa0, 0x00, 0x00, 0x00, 0x70, 0x00, 0x00, 0x00,
  0x34, 0x00, 0x00, 0x00, 0x04, 0x00, 0x00, 0x00, 0xa8, 0xff, 0xff, 0xff,
  0x00, 0x00, 0x00, 0x03, 0x1c, 0x00, 0x00, 0x00, 0x04, 0x00, 0x00, 0x00,
  0x0c, 0x00, 0x00, 0x00, 0x4e, 0x65, 0x75, 0x74, 0x72, 0x6f, 0x6e, 0x44,
  0x65, 0x62, 0x75, 0x67, 0x00, 0x00, 0x00, 0x00, 0x01, 0x00, 0x00, 0x00,
  0x00, 0x00, 0x00, 0x00, 0xd4, 0xff, 0xff, 0xff, 0x00, 0x00, 0x00, 0x03,
  0x1c, 0x00, 0x00, 0x00, 0x04, 0x00, 0x00, 0x00, 0x0e, 0x00, 0x00, 0x00,
  0x4e, 0x65, 0x75, 0x74, 0x72, 0x6f, 0x6e, 0x50, 0x72, 0x6f, 0x66, 0x69,
  0x6c, 0x65, 0x00, 0x00, 0x01, 0x00, 0x00, 0x00, 0x00, 0x00, 0x00, 0x00,
  0x0c, 0x00, 0x10, 0x00, 0x08, 0x00, 0x07, 0x00, 0x00, 0x00, 0x0c, 0x00,
  0x0c, 0x00, 0x00, 0x00, 0x00, 0x00, 0x00, 0x03, 0x1c, 0x00, 0x00, 0x00,
  0x04, 0x00, 0x00, 0x00, 0x0e, 0x00, 0x00, 0x00, 0x4e, 0x65, 0x75, 0x74,
  0x72, 0x6f, 0x6e, 0x53, 0x63, 0x72, 0x61, 0x74, 0x63, 0x68, 0x00, 0x00,
  0x01, 0x00, 0x00, 0x00, 0x80, 0x16, 0x00, 0x00, 0x24, 0xff, 0xff, 0xff,
  0x00, 0x00, 0x00, 0x03, 0x20, 0x00, 0x00, 0x00, 0x05, 0x00, 0x00, 0x00,
  0x04, 0x00, 0x00, 0x00, 0x0e, 0x00, 0x00, 0x00, 0x4e, 0x65, 0x75, 0x74,
  0x72, 0x6f, 0x6e, 0x4b, 0x65, 0x72, 0x6e, 0x65, 0x6c, 0x73, 0x00, 0x00,
  0x01, 0x00, 0x00, 0x00, 0x01, 0x00, 0x00, 0x00, 0x54, 0xff, 0xff, 0xff,
  0x00, 0x00, 0x00, 0x03, 0x20, 0x00, 0x00, 0x00, 0x04, 0x00, 0x00, 0x00,
  0x04, 0x00, 0x00, 0x00, 0x0e, 0x00, 0x00, 0x00, 0x4e, 0x65, 0x75, 0x74,
  0x72, 0x6f, 0x6e, 0x57, 0x65, 0x69, 0x67, 0x68, 0x74, 0x73, 0x00, 0x00,
  0x01, 0x00, 0x00, 0x00, 0xec, 0x14, 0x00, 0x00, 0x84, 0xff, 0xff, 0xff,
  0x00, 0x00, 0x00, 0x03, 0x24, 0x00, 0x00, 0x00, 0x03, 0x00, 0x00, 0x00,
  0x04, 0x00, 0x00, 0x00, 0x10, 0x00, 0x00, 0x00, 0x4e, 0x65, 0x75, 0x74,
  0x72, 0x6f, 0x6e, 0x4d, 0x69, 0x63, 0x72, 0x6f, 0x63, 0x6f, 0x64, 0x65,
  0x00, 0x00, 0x00, 0x00, 0x01, 0x00, 0x00, 0x00, 0xc8, 0x03, 0x00, 0x00,
  0xb8, 0xff, 0xff, 0xff, 0x00, 0x00, 0x00, 0x02, 0x38, 0x00, 0x00, 0x00,
  0x02, 0x00, 0x00, 0x00, 0x04, 0x00, 0x00, 0x00, 0x24, 0x00, 0x00, 0x00,
  0x53, 0x74, 0x61, 0x74, 0x65, 0x66, 0x75, 0x6c, 0x50, 0x61, 0x72, 0x74,
  0x69, 0x74, 0x69, 0x6f, 0x6e, 0x65, 0x64, 0x43, 0x61, 0x6c, 0x6c, 0x5f,
  0x31, 0x3a, 0x30, 0x2f, 0x70, 0x61, 0x64, 0x2f, 0x73, 0x69, 0x7a, 0x65,
  0x00, 0x00, 0x00, 0x00, 0x01, 0x00, 0x00, 0x00, 0x02, 0x00, 0x00, 0x00,
  0x0c, 0x00, 0x14, 0x00, 0x08, 0x00, 0x07, 0x00, 0x0c, 0x00, 0x10, 0x00,
  0x0c, 0x00, 0x00, 0x00, 0x00, 0x00, 0x00, 0x02, 0x38, 0x00, 0x00, 0x00,
  0x01, 0x00, 0x00, 0x00, 0x04, 0x00, 0x00, 0x00, 0x25, 0x00, 0x00, 0x00,
  0x53, 0x74, 0x61, 0x74, 0x65, 0x66, 0x75, 0x6c, 0x50, 0x61, 0x72, 0x74,
  0x69, 0x74, 0x69, 0x6f, 0x6e, 0x65, 0x64, 0x43, 0x61, 0x6c, 0x6c, 0x5f,
  0x31, 0x3a, 0x30, 0x2f, 0x70, 0x61, 0x64, 0x2f, 0x62, 0x65, 0x67, 0x69,
  0x6e, 0x00, 0x00, 0x00, 0x01, 0x00, 0x00, 0x00, 0x02, 0x00, 0x00, 0x00,
  0x36, 0xff, 0xff, 0xff, 0x00, 0x00, 0x00, 0x09, 0x4c, 0x00, 0x00, 0x00,
  0x28, 0x00, 0x00, 0x00, 0x04, 0x00, 0x00, 0x00, 0x6c, 0xfe, 0xff, 0xff,
  0x14, 0x00, 0x00, 0x00, 0x04, 0x00, 0x00, 0x00, 0x01, 0x00, 0x00, 0x00,
  0x80, 0xff, 0xff, 0xff, 0xff, 0xff, 0xff, 0xff, 0x01, 0x00, 0x00, 0x00,
  0x00, 0x00, 0x80, 0x3b, 0x1b, 0x00, 0x00, 0x00, 0x53, 0x74, 0x61, 0x74,
  0x65, 0x66, 0x75, 0x6c, 0x50, 0x61, 0x72, 0x74, 0x69, 0x74, 0x69, 0x6f,
  0x6e, 0x65, 0x64, 0x43, 0x61, 0x6c, 0x6c, 0x5f, 0x31, 0x3a, 0x30, 0x00,
  0x02, 0x00, 0x00, 0x00, 0x01, 0x00, 0x00, 0x00, 0x02, 0x00, 0x00, 0x00,
  0x96, 0xff, 0xff, 0xff, 0x00, 0x00, 0x00, 0x09, 0x54, 0x00, 0x00, 0x00,
  0x2c, 0x00, 0x00, 0x00, 0x04, 0x00, 0x00, 0x00, 0xcc, 0xfe, 0xff, 0xff,
  0x18, 0x00, 0x00, 0x00, 0x04, 0x00, 0x00, 0x00, 0x01, 0x00, 0x00, 0x00,
  0x80, 0xff, 0xff, 0xff, 0xff, 0xff, 0xff, 0xff, 0x00, 0x00, 0x00, 0x00,
  0x01, 0x00, 0x00, 0x00, 0x00, 0x00, 0x80, 0x3b, 0x1f, 0x00, 0x00, 0x00,
  0x53, 0x74, 0x61, 0x74, 0x65, 0x66, 0x75, 0x6c, 0x50, 0x61, 0x72, 0x74,
  0x69, 0x74, 0x69, 0x6f, 0x6e, 0x65, 0x64, 0x43, 0x61, 0x6c, 0x6c, 0x5f,
  0x31, 0x3a, 0x30, 0x2f, 0x70, 0x61, 0x64, 0x00, 0x02, 0x00, 0x00, 0x00,
  0x01, 0x00, 0x00, 0x00, 0x04, 0x00, 0x00, 0x00, 0x00, 0x00, 0x0e, 0x00,
  0x14, 0x00, 0x08, 0x00, 0x07, 0x00, 0x00, 0x00, 0x0c, 0x00, 0x10, 0x00,
  0x0e, 0x00, 0x00, 0x00, 0x00, 0x00, 0x00, 0x09, 0x78, 0x00, 0x00, 0x00,
  0x28, 0x00, 0x00, 0x00, 0x04, 0x00, 0x00, 0x00, 0x44, 0xff, 0xff, 0xff,
  0x14, 0x00, 0x00, 0x00, 0x04, 0x00, 0x00, 0x00, 0x01, 0x00, 0x00, 0x00,
  0xdd, 0xff, 0xff, 0xff, 0xff, 0xff, 0xff, 0xff, 0x01, 0x00, 0x00, 0x00,
  0x6f, 0xc4, 0x3d, 0x3f, 0x44, 0x00, 0x00, 0x00, 0x74, 0x65, 0x72, 0x72,
  0x61, 0x5f, 0x67, 0x75, 0x61, 0x72, 0x64, 0x5f, 0x63, 0x72, 0x6f, 0x77,
  0x5f, 0x31, 0x2f, 0x63, 0x6c, 0x73, 0x5f, 0x31, 0x2f, 0x4d, 0x61, 0x74,
  0x4d, 0x75, 0x6c, 0x3b, 0x74, 0x65, 0x72, 0x72, 0x61, 0x5f, 0x67, 0x75,
  0x61, 0x72, 0x64, 0x5f, 0x63, 0x72, 0x6f, 0x77, 0x5f, 0x31, 0x2f, 0x63,
  0x6c, 0x73, 0x5f, 0x31, 0x2f, 0x42, 0x69, 0x61, 0x73, 0x41, 0x64, 0x64,
  0x2f, 0x70, 0x61, 0x64, 0x00, 0x00, 0x00, 0x00, 0x02, 0x00, 0x00, 0x00,
  0x01, 0x00, 0x00, 0x00, 0x04, 0x00, 0x00, 0x00, 0x00, 0x00, 0x16, 0x00,
  0x18, 0x00, 0x08, 0x00, 0x06, 0x00, 0x00, 0x00, 0x0c, 0x00, 0x10, 0x00,
  0x00, 0x00, 0x00, 0x00, 0x14, 0x00, 0x07, 0x00, 0x16, 0x00, 0x00, 0x00,
  0x00, 0x00, 0x09, 0x01, 0x70, 0x00, 0x00, 0x00, 0x4c, 0x00, 0x00, 0x00,
  0x28, 0x00, 0x00, 0x00, 0x04, 0x00, 0x00, 0x00, 0x04, 0x00, 0x00, 0x00,
  0x01, 0x00, 0x00, 0x00, 0x18, 0x00, 0x00, 0x00, 0x18, 0x00, 0x00, 0x00,
  0x04, 0x00, 0x00, 0x00, 0x0c, 0x00, 0x0c, 0x00, 0x00, 0x00, 0x00, 0x00,
  0x04, 0x00, 0x08, 0x00, 0x0c, 0x00, 0x00, 0x00, 0x14, 0x00, 0x00, 0x00,
  0x04, 0x00, 0x00, 0x00, 0x01, 0x00, 0x00, 0x00, 0x80, 0xff, 0xff, 0xff,
  0xff, 0xff, 0xff, 0xff, 0x01, 0x00, 0x00, 0x00, 0x81, 0x80, 0x80, 0x3b,
  0x1a, 0x00, 0x00, 0x00, 0x73, 0x65, 0x72, 0x76, 0x69, 0x6e, 0x67, 0x5f,
  0x64, 0x65, 0x66, 0x61, 0x75, 0x6c, 0x74, 0x5f, 0x74, 0x65, 0x72, 0x72,
  0x61, 0x5f, 0x69, 0x6e, 0x3a, 0x30, 0x00, 0x00, 0x04, 0x00, 0x00, 0x00,
  0x01, 0x00, 0x00, 0x00, 0x18, 0x00, 0x00, 0x00, 0x18, 0x00, 0x00, 0x00,
  0x04, 0x00, 0x00, 0x00, 0x03, 0x00, 0x00, 0x00, 0x4c, 0x00, 0x00, 0x00,
  0x2c, 0x00, 0x00, 0x00, 0x10, 0x00, 0x00, 0x00, 0x0c, 0x00, 0x0c, 0x00,
  0x07, 0x00, 0x00, 0x00, 0x00, 0x00, 0x08, 0x00, 0x0c, 0x00, 0x00, 0x00,
  0x00, 0x00, 0x00, 0x41, 0x41, 0x00, 0x00, 0x00, 0x0c, 0x00, 0x10, 0x00,
  0x07, 0x00, 0x00, 0x00, 0x08, 0x00, 0x0c, 0x00, 0x0c, 0x00, 0x00, 0x00,
  0x00, 0x00, 0x00, 0x19, 0x02, 0x00, 0x00, 0x00, 0x19, 0x00, 0x00, 0x00,
  0x0c, 0x00, 0x10, 0x00, 0x07, 0x00, 0x08, 0x00, 0x00, 0x00, 0x0c, 0x00,
  0x0c, 0x00, 0x00, 0x00, 0x00, 0x00, 0x00, 0x20, 0x08, 0x00, 0x00, 0x00,
  0x20, 0x00, 0x00, 0x00, 0x0c, 0x00, 0x00, 0x00, 0x4e, 0x65, 0x75, 0x74,
  0x72, 0x6f, 0x6e, 0x47, 0x72, 0x61, 0x70, 0x68, 0x00, 0x00, 0x00, 0x00
};

static const unsigned int model_data_len = 8208;
